{
  "version": "1.0",
  "truncation": null,
  "padding": null,
  "added_tokens": [
    {
      "id": 0,
      "content": "[PAD]",
      "single_word": false,
      "lstrip": false,
      "rstrip": false,
      "normalized": false,
      "special": true
    },
    {
      "id": 1,
      "content": "[UNK]",
      "single_word": false,
      "lstrip": false,
      "rstrip": false,
      "normalized": false,
      "special": true
    },
    {
      "id": 2,
      "content": "[BOS]",
      "single_word": false,
      "lstrip": false,
      "rstrip": false,
      "normalized": false,
      "special": true
    },
    {
      "id": 3,
      "content": "[EOS]",
      "single_word": false,
      "lstrip": false,
      "rstrip": false,
      "normalized": false,
      "special": true
    }
  ],
  "normalizer": null,
  "pre_tokenizer": {
    "type": "Whitespace"
  },
  "post_processor": {
    "type": "TemplateProcessing",
    "single": [
      {
        "SpecialToken": {
          "id": "[BOS]",
          "type_id": 0
        }
      },
      {
        "Sequence": {
          "id": "A",
          "type_id": 0
        }
      },
      {
        "SpecialToken": {
          "id": "[EOS]",
          "type_id": 0
        }
      }
    ],
    "pair": [
      {
        "Sequence": {
          "id": "A",
          "type_id": 0
        }
      },
      {
        "Sequence": {
          "id": "B",
          "type_id": 1
        }
      }
    ],
    "special_tokens": {
      "[BOS]": {
        "id": "[BOS]",
        "ids": [
          2
        ],
        "tokens": [
          "[BOS]"
        ]
      },
      "[EOS]": {
        "id": "[EOS]",
        "ids": [
          3
        ],
        "tokens": [
          "[EOS]"
        ]
      }
    }
  },
  "decoder": null,
  "model": {
    "type": "BPE",
    "dropout": null,
    "unk_token": "[UNK]",
    "continuing_subword_prefix": null,
    "end_of_word_suffix": null,
    "fuse_unk": false,
    "byte_fallback": false,
    "ignore_merges": false,
    "vocab": {
      "[PAD]": 0,
      "[UNK]": 1,
      "[BOS]": 2,
      "[EOS]": 3,
      "0": 4,
      "1": 5,
      "2": 6,
      "3": 7,
      "4": 8,
      "5": 9,
      "6": 10,
      "7": 11,
      "8": 12,
      "9": 13,
      "a": 14,
      "b": 15,
      "c": 16,
      "d": 17,
      "e": 18,
      "f": 19,
      "g": 20,
      "h": 21,
      "i": 22,
      "j": 23,
      "k": 24,
      "l": 25,
      "m": 26,
      "n": 27,
      "o": 28,
      "p": 29,
      "q": 30,
      "r": 31,
      "s": 32,
      "t": 33,
      "u": 34,
      "v": 35,
      "w": 36,
      "x": 37,
      "y": 38,
      "z": 39,
      "th": 40,
      "in": 41,
      "the": 42,
      "an": 43,
      "er": 44,
      "on": 45,
      "ed": 46,
      "re": 47,
      "at": 48,
      "en": 49,
      "or": 50,
      "st": 51,
      "al": 52,
      "ar": 53,
      "and": 54,
      "as": 55,
      "of": 56,
      "to": 57,
      "ing": 58,
      "is": 59,
      "es": 60,
      "it": 61,
      "ro": 62,
      "ic": 63,
      "ou": 64,
      "ion": 65,
      "le": 66,
      "ch": 67,
      "un": 68,
      "se": 69,
      "il": 70,
      "ent": 71,
      "am": 72,
      "ad": 73,
      "el": 74,
      "ac": 75,
      "co": 76,
      "for": 77,
      "be": 78,
      "was": 79,
      "de": 80,
      "ur": 81,
      "ly": 82,
      "ir": 83,
      "wh": 84,
      "im": 85,
      "iv": 86,
      "ig": 87,
      "he": 88,
      "lo": 89,
      "ter": 90,
      "wi": 91,
      "con": 92,
      "ay": 93,
      "ce": 94,
      "ver": 95,
      "ol": 96,
      "with": 97,
      "ag": 98,
      "ation": 99,
      "id": 100,
      "us": 101,
      "ct": 102,
      "that": 103,
      "by": 104,
      "no": 105,
      "su": 106,
      "te": 107,
      "ap": 108,
      "mo": 109,
      "com": 110,
      "ne": 111,
      "ut": 112,
      "av": 113,
      "19": 114,
      "sh": 115,
      "po": 116,
      "tr": 117,
      "me": 118,
      "ain": 119,
      "pe": 120,
      "ab": 121,
      "pro": 122,
      "ers": 123,
      "so": 124,
      "pl": 125,
      "ul": 126,
      "ist": 127,
      "00": 128,
      "res": 129,
      "ere": 130,
      "all": 131,
      "unk": 132,
      "rom": 133,
      "his": 134,
      "we": 135,
      "ther": 136,
      "um": 137,
      "from": 138,
      "ge": 139,
      "cl": 140,
      "art": 141,
      "are": 142,
      "oun": 143,
      "per": 144,
      "ies": 145,
      "ill": 146,
      "fe": 147,
      "man": 148,
      "ie": 149,
      "igh": 150,
      "ber": 151,
      "ex": 152,
      "ke": 153,
      "ment": 154,
      "ate": 155,
      "bo": 156,
      "ard": 157,
      "af": 158,
      "ts": 159,
      "ich": 160,
      "qu": 161,
      "were": 162,
      "ast": 163,
      "ho": 164,
      "ip": 165,
      "au": 166,
      "one": 167,
      "br": 168,
      "if": 169,
      "gh": 170,
      "op": 171,
      "ated": 172,
      "ld": 173,
      "ive": 174,
      "ong": 175,
      "ess": 176,
      "ame": 177,
      "cr": 178,
      "ity": 179,
      "ted": 180,
      "str": 181,
      "end": 182,
      "had": 183,
      "our": 184,
      "wn": 185,
      "ian": 186,
      "pr": 187,
      "out": 188,
      "ack": 189,
      "ish": 190,
      "ear": 191,
      "ve": 192,
      "ial": 193,
      "up": 194,
      "which": 195,
      "wor": 196,
      "por": 197,
      "der": 198,
      "but": 199,
      "ant": 200,
      "du": 201,
      "do": 202,
      "ud": 203,
      "her": 204,
      "ak": 205,
      "ine": 206,
      "wo": 207,
      "ia": 208,
      "act": 209,
      "its": 210,
      "cor": 211,
      "not": 212,
      "ary": 213,
      "ass": 214,
      "go": 215,
      "ell": 216,
      "tim": 217,
      "fir": 218,
      "em": 219,
      "ical": 220,
      "ave": 221,
      "20": 222,
      "low": 223,
      "gr": 224,
      "bl": 225,
      "200": 226,
      "ser": 227,
      "this": 228,
      "od": 229,
      "age": 230,
      "ach": 231,
      "li": 232,
      "ree": 233,
      "mar": 234,
      "aw": 235,
      "ight": 236,
      "fo": 237,
      "ould": 238,
      "first": 239,
      "ous": 240,
      "new": 241,
      "after": 242,
      "part": 243,
      "other": 244,
      "their": 245,
      "land": 246,
      "who": 247,
      "form": 248,
      "sp": 249,
      "ction": 250,
      "ign": 251,
      "min": 252,
      "ition": 253,
      "gu": 254,
      "also": 255,
      "pres": 256,
      "ater": 257,
      "ound": 258,
      "att": 259,
      "si": 260,
      "ind": 261,
      "fr": 262,
      "play": 263,
      "des": 264,
      "they": 265,
      "ire": 266,
      "comp": 267,
      "ure": 268,
      "comm": 269,
      "ph": 270,
      "off": 271,
      "18": 272,
      "two": 273,
      "ty": 274,
      "cre": 275,
      "ck": 276,
      "pre": 277,
      "cent": 278,
      "pos": 279,
      "nor": 280,
      "she": 281,
      "ma": 282,
      "have": 283,
      "ally": 284,
      "dis": 285,
      "year": 286,
      "over": 287,
      "rou": 288,
      "ile": 289,
      "air": 290,
      "ence": 291,
      "has": 292,
      "ans": 293,
      "dr": 294,
      "ice": 295,
      "201": 296,
      "ev": 297,
      "ok": 298,
      "inter": 299,
      "been": 300,
      "cont": 301,
      "ied": 302,
      "uring": 303,
      "ace": 304,
      "can": 305,
      "jo": 306,
      "mber": 307,
      "est": 308,
      "col": 309,
      "port": 310,
      "ough": 311,
      "ory": 312,
      "ren": 313,
      "time": 314,
      "ship": 315,
      "mon": 316,
      "ade": 317,
      "tur": 318,
      "ite": 319,
      "ance": 320,
      "ved": 321,
      "able": 322,
      "iz": 323,
      "spe": 324,
      "sion": 325,
      "ten": 326,
      "work": 327,
      "ely": 328,
      "incl": 329,
      "arr": 330,
      "fin": 331,
      "gro": 332,
      "fl": 333,
      "fer": 334,
      "ep": 335,
      "when": 336,
      "eng": 337,
      "cord": 338,
      "par": 339,
      "ced": 340,
      "fil": 341,
      "ang": 342,
      "gen": 343,
      "sho": 344,
      "ations": 345,
      "ail": 346,
      "io": 347,
      "old": 348,
      "ib": 349,
      "during": 350,
      "vel": 351,
      "more": 352,
      "into": 353,
      "ide": 354,
      "way": 355,
      "him": 356,
      "most": 357,
      "would": 358,
      "coun": 359,
      "sy": 360,
      "et": 361,
      "int": 362,
      "oc": 363,
      "rough": 364,
      "main": 365,
      "char": 366,
      "son": 367,
      "day": 368,
      "om": 369,
      "war": 370,
      "fore": 371,
      "bec": 372,
      "some": 373,
      "sc": 374,
      "ates": 375,
      "amp": 376,
      "ces": 377,
      "ased": 378,
      "film": 379,
      "vie": 380,
      "bet": 381,
      "ase": 382,
      "bu": 383,
      "sing": 384,
      "ton": 385,
      "reg": 386,
      "while": 387,
      "ited": 388,
      "game": 389,
      "sou": 390,
      "includ": 391,
      "used": 392,
      "pu": 393,
      "cess": 394,
      "ason": 395,
      "cted": 396,
      "ric": 397,
      "ann": 398,
      "und": 399,
      "pt": 400,
      "med": 401,
      "cond": 402,
      "ju": 403,
      "ings": 404,
      "les": 405,
      "sel": 406,
      "than": 407,
      "wr": 408,
      "produ": 409,
      "ild": 410,
      "ious": 411,
      "gan": 412,
      "under": 413,
      "ue": 414,
      "there": 415,
      "though": 416,
      "only": 417,
      "west": 418,
      "later": 419,
      "high": 420,
      "fol": 421,
      "ions": 422,
      "may": 423,
      "sa": 424,
      "any": 425,
      "ors": 426,
      "mus": 427,
      "my": 428,
      "sch": 429,
      "again": 430,
      "song": 431,
      "je": 432,
      "about": 433,
      "cap": 434,
      "rel": 435,
      "bro": 436,
      "ot": 437,
      "three": 438,
      "turn": 439,
      "199": 440,
      "mi": 441,
      "ger": 442,
      "king": 443,
      "record": 444,
      "amer": 445,
      "ween": 446,
      "through": 447,
      "publ": 448,
      "them": 449,
      "between": 450,
      "pol": 451,
      "ath": 452,
      "eld": 453,
      "red": 454,
      "gre": 455,
      "num": 456,
      "ick": 457,
      "rele": 458,
      "vis": 459,
      "tain": 460,
      "ward": 461,
      "ational": 462,
      "follow": 463,
      "led": 464,
      "second": 465,
      "10": 466,
      "ss": 467,
      "ste": 468,
      "ele": 469,
      "where": 470,
      "ict": 471,
      "als": 472,
      "ful": 473,
      "sub": 474,
      "lar": 475,
      "ating": 476,
      "season": 477,
      "alb": 478,
      "car": 479,
      "cur": 480,
      "sur": 481,
      "ra": 482,
      "view": 483,
      "then": 484,
      "well": 485,
      "mat": 486,
      "ames": 487,
      "world": 488,
      "spec": 489,
      "kno": 490,
      "four": 491,
      "stru": 492,
      "ents": 493,
      "back": 494,
      "ens": 495,
      "000": 496,
      "set": 497,
      "americ": 498,
      "north": 499,
      "will": 500,
      "made": 501,
      "writ": 502,
      "men": 503,
      "la": 504,
      "ered": 505,
      "ters": 506,
      "before": 507,
      "many": 508,
      "ting": 509,
      "album": 510,
      "17": 511,
      "mer": 512,
      "team": 513,
      "such": 514,
      "years": 515,
      "ular": 516,
      "call": 517,
      "ived": 518,
      "loc": 519,
      "mu": 520,
      "add": 521,
      "ank": 522,
      "mb": 523,
      "cer": 524,
      "ished": 525,
      "gener": 526,
      "sup": 527,
      "ics": 528,
      "tem": 529,
      "national": 530,
      "bel": 531,
      "cy": 532,
      "sever": 533,
      "mis": 534,
      "mill": 535,
      "ped": 536,
      "cons": 537,
      "appe": 538,
      "ning": 539,
      "ry": 540,
      "howe": 541,
      "mor": 542,
      "15": 543,
      "very": 544,
      "state": 545,
      "ily": 546,
      "both": 547,
      "show": 548,
      "ific": 549,
      "tro": 550,
      "serv": 551,
      "ond": 552,
      "uary": 553,
      "however": 554,
      "south": 555,
      "ble": 556,
      "ident": 557,
      "music": 558,
      "ments": 559,
      "series": 560,
      "being": 561,
      "number": 562,
      "stud": 563,
      "ale": 564,
      "charac": 565,
      "ta": 566,
      "ane": 567,
      "ult": 568,
      "ince": 569,
      "bur": 570,
      "against": 571,
      "epis": 572,
      "these": 573,
      "log": 574,
      "ual": 575,
      "lead": 576,
      "vol": 577,
      "rece": 578,
      "sim": 579,
      "fi": 580,
      "az": 581,
      "win": 582,
      "iver": 583,
      "city": 584,
      "found": 585,
      "hist": 586,
      "16": 587,
      "batt": 588,
      "east": 589,
      "ub": 590,
      "lin": 591,
      "ft": 592,
      "line": 593,
      "arch": 594,
      "ven": 595,
      "ef": 596,
      "cro": 597,
      "including": 598,
      "brit": 599,
      "ause": 600,
      "appear": 601,
      "unt": 602,
      "became": 603,
      "several": 604,
      "devel": 605,
      "tal": 606,
      "12": 607,
      "pop": 608,
      "leg": 609,
      "ob": 610,
      "head": 611,
      "194": 612,
      "igin": 613,
      "origin": 614,
      "down": 615,
      "dire": 616,
      "long": 617,
      "feat": 618,
      "soc": 619,
      "develop": 620,
      "ca": 621,
      "oper": 622,
      "wer": 623,
      "stor": 624,
      "united": 625,
      "nam": 626,
      "sul": 627,
      "ms": 628,
      "contin": 629,
      "ative": 630,
      "early": 631,
      "mil": 632,
      "pass": 633,
      "trans": 634,
      "dif": 635,
      "ii": 636,
      "cast": 637,
      "bor": 638,
      "let": 639,
      "public": 640,
      "gover": 641,
      "ek": 642,
      "198": 643,
      "did": 644,
      "ode": 645,
      "ures": 646,
      "clo": 647,
      "suc": 648,
      "ities": 649,
      "dist": 650,
      "tre": 651,
      "cour": 652,
      "ended": 653,
      "bre": 654,
      "ley": 655,
      "pers": 656,
      "like": 657,
      "fam": 658,
      "prov": 659,
      "cle": 660,
      "ange": 661,
      "ner": 662,
      "peri": 663,
      "own": 664,
      "group": 665,
      "said": 666,
      "hn": 667,
      "ury": 668,
      "ise": 669,
      "try": 670,
      "hou": 671,
      "states": 672,
      "30": 673,
      "run": 674,
      "crit": 675,
      "jun": 676,
      "ird": 677,
      "ern": 678,
      "vo": 679,
      "episode": 680,
      "stem": 681,
      "14": 682,
      "rol": 683,
      "known": 684,
      "scho": 685,
      "following": 686,
      "design": 687,
      "197": 688,
      "use": 689,
      "dec": 690,
      "cover": 691,
      "div": 692,
      "self": 693,
      "ually": 694,
      "remain": 695,
      "offic": 696,
      "could": 697,
      "sign": 698,
      "life": 699,
      "school": 700,
      "american": 701,
      "roy": 702,
      "196": 703,
      "sm": 704,
      "sk": 705,
      "band": 706,
      "present": 707,
      "near": 708,
      "open": 709,
      "john": 710,
      "jor": 711,
      "sed": 712,
      "return": 713,
      "until": 714,
      "descr": 715,
      "called": 716,
      "began": 717,
      "ball": 718,
      "large": 719,
      "although": 720,
      "bar": 721,
      "13": 722,
      "along": 723,
      "released": 724,
      "ject": 725,
      "del": 726,
      "road": 727,
      "system": 728,
      "ople": 729,
      "ose": 730,
      "sen": 731,
      "ash": 732,
      "because": 733,
      "success": 734,
      "ron": 735,
      "aking": 736,
      "fa": 737,
      "var": 738,
      "side": 739,
      "million": 740,
      "you": 741,
      "gin": 742,
      "ort": 743,
      "dep": 744,
      "hel": 745,
      "just": 746,
      "ised": 747,
      "house": 748,
      "class": 749,
      "ital": 750,
      "prev": 751,
      "hy": 752,
      "ided": 753,
      "50": 754,
      "less": 755,
      "position": 756,
      "gust": 757,
      "xt": 758,
      "come": 759,
      "dy": 760,
      "people": 761,
      "since": 762,
      "ivers": 763,
      "week": 764,
      "ists": 765,
      "place": 766,
      "ially": 767,
      "cut": 768,
      "town": 769,
      "times": 770,
      "austr": 771,
      "ling": 772,
      "award": 773,
      "british": 774,
      "na": 775,
      "lit": 776,
      "ized": 777,
      "ium": 778,
      "test": 779,
      "fect": 780,
      "tit": 781,
      "around": 782,
      "eu": 783,
      "start": 784,
      "best": 785,
      "six": 786,
      "attack": 787,
      "read": 788,
      "character": 789,
      "field": 790,
      "major": 791,
      "sep": 792,
      "track": 793,
      "ys": 794,
      "same": 795,
      "requ": 796,
      "book": 797,
      "comple": 798,
      "sco": 799,
      "now": 800,
      "continu": 801,
      "colle": 802,
      "hal": 803,
      "ham": 804,
      "care": 805,
      "build": 806,
      "tember": 807,
      "val": 808,
      "govern": 809,
      "final": 810,
      "september": 811,
      "grap": 812,
      "ri": 813,
      "resul": 814,
      "august": 815,
      "ison": 816,
      "jan": 817,
      "each": 818,
      "pen": 819,
      "anc": 820,
      "plac": 821,
      "games": 822,
      "five": 823,
      "top": 824,
      "plo": 825,
      "sl": 826,
      "took": 827,
      "order": 828,
      "star": 829,
      "ired": 830,
      "stand": 831,
      "def": 832,
      "11": 833,
      "get": 834,
      "march": 835,
      "cal": 836,
      "mid": 837,
      "har": 838,
      "aving": 839,
      "den": 840,
      "water": 841,
      "ier": 842,
      "what": 843,
      "century": 844,
      "ves": 845,
      "ior": 846,
      "tour": 847,
      "formed": 848,
      "rest": 849,
      "mot": 850,
      "consid": 851,
      "describ": 852,
      "ision": 853,
      "camp": 854,
      "another": 855,
      "area": 856,
      "km": 857,
      "person": 858,
      "aim": 859,
      "austral": 860,
      "que": 861,
      "ress": 862,
      "due": 863,
      "fur": 864,
      "allow": 865,
      "last": 866,
      "ple": 867,
      "small": 868,
      "pat": 869,
      "ctor": 870,
      "mag": 871,
      "partic": 872,
      "ility": 873,
      "ported": 874,
      "home": 875,
      "ord": 876,
      "met": 877,
      "child": 878,
      "thern": 879,
      "tle": 880,
      "pa": 881,
      "aft": 882,
      "dam": 883,
      "urch": 884,
      "ives": 885,
      "contr": 886,
      "ism": 887,
      "power": 888,
      "command": 889,
      "received": 890,
      "mal": 891,
      "government": 892,
      "ants": 893,
      "resp": 894,
      "ket": 895,
      "ks": 896,
      "ically": 897,
      "ore": 898,
      "match": 899,
      "even": 900,
      "octo": 901,
      "october": 902,
      "ately": 903,
      "force": 904,
      "ork": 905,
      "ground": 906,
      "di": 907,
      "june": 908,
      "company": 909,
      "ient": 910,
      "july": 911,
      "fle": 912,
      "lish": 913,
      "ians": 914,
      "general": 915,
      "25": 916,
      "won": 917,
      "ief": 918,
      "chr": 919,
      "adv": 920,
      "ines": 921,
      "island": 922,
      "ively": 923,
      "ins": 924,
      "ages": 925,
      "played": 926,
      "single": 927,
      "ude": 928,
      "squ": 929,
      "ina": 930,
      "reach": 931,
      "gun": 932,
      "os": 933,
      "iving": 934,
      "family": 935,
      "death": 936,
      "sequ": 937,
      "ked": 938,
      "nove": 939,
      "november": 940,
      "nat": 941,
      "york": 942,
      "differ": 943,
      "third": 944,
      "event": 945,
      "list": 946,
      "bus": 947,
      "dece": 948,
      "appro": 949,
      "aged": 950,
      "short": 951,
      "point": 952,
      "gest": 953,
      "much": 954,
      "story": 955,
      "sal": 956,
      "ional": 957,
      "ril": 958,
      "went": 959,
      "ru": 960,
      "0s": 961,
      "kill": 962,
      "wood": 963,
      "195": 964,
      "name": 965,
      "wal": 966,
      "black": 967,
      "inc": 968,
      "far": 969,
      "avy": 970,
      "ster": 971,
      "left": 972,
      "idge": 973,
      "review": 974,
      "river": 975,
      "rad": 976,
      "moved": 977,
      "thing": 978,
      "based": 979,
      "law": 980,
      "vide": 981,
      "organ": 982,
      "club": 983,
      "january": 984,
      "cas": 985,
      "fort": 986,
      "april": 987,
      "month": 988,
      "ons": 989,
      "version": 990,
      "dest": 991,
      "ned": 992,
      "ague": 993,
      "army": 994,
      "posed": 995,
      "hand": 996,
      "included": 997,
      "ze": 998,
      "euro": 999,
      "ah": 1000,
      "ined": 1001,
      "vir": 1002,
      "gl": 1003,
      "issu": 1004,
      "ilt": 1005,
      "univers": 1006,
      "ained": 1007,
      "great": 1008,
      "history": 1009,
      "park": 1010,
      "make": 1011,
      "constru": 1012,
      "named": 1013,
      "sw": 1014,
      "claim": 1015,
      "production": 1016,
      "fic": 1017,
      "poin": 1018,
      "december": 1019,
      "ships": 1020,
      "rote": 1021,
      "fall": 1022,
      "sum": 1023,
      "previous": 1024,
      "wrote": 1025,
      "using": 1026,
      "battle": 1027,
      "hum": 1028,
      "24": 1029,
      "cept": 1030,
      "champ": 1031,
      "polit": 1032,
      "addition": 1033,
      "gram": 1034,
      "tak": 1035,
      "incre": 1036,
      "accord": 1037,
      "ute": 1038,
      "bat": 1039,
      "hor": 1040,
      "original": 1041,
      "193": 1042,
      "species": 1043,
      "bill": 1044,
      "ont": 1045,
      "cho": 1046,
      "those": 1047,
      "ness": 1048,
      "thor": 1049,
      "vi": 1050,
      "sty": 1051,
      "init": 1052,
      "ford": 1053,
      "late": 1054,
      "described": 1055,
      "within": 1056,
      "board": 1057,
      "german": 1058,
      "rench": 1059,
      "real": 1060,
      "carr": 1061,
      "ified": 1062,
      "ark": 1063,
      "pical": 1064,
      "former": 1065,
      "flu": 1066,
      "video": 1067,
      "tt": 1068,
      "pect": 1069,
      "fact": 1070,
      "ney": 1071,
      "built": 1072,
      "gy": 1073,
      "vict": 1074,
      "lab": 1075,
      "ps": 1076,
      "flo": 1077,
      "next": 1078,
      "still": 1079,
      "apan": 1080,
      "don": 1081,
      "effect": 1082,
      "storm": 1083,
      "ution": 1084,
      "forman": 1085,
      "support": 1086,
      "league": 1087,
      "according": 1088,
      "control": 1089,
      "white": 1090,
      "attem": 1091,
      "performan": 1092,
      "lim": 1093,
      "among": 1094,
      "japan": 1095,
      "commun": 1096,
      "sent": 1097,
      "put": 1098,
      "ilar": 1099,
      "fri": 1100,
      "ival": 1101,
      "days": 1102,
      "fac": 1103,
      "post": 1104,
      "cus": 1105,
      "foot": 1106,
      "bal": 1107,
      "say": 1108,
      "mbers": 1109,
      "iven": 1110,
      "period": 1111,
      "placed": 1112,
      "ler": 1113,
      "ba": 1114,
      "minist": 1115,
      "further": 1116,
      "ared": 1117,
      "febr": 1118,
      "february": 1119,
      "europe": 1120,
      "fel": 1121,
      "scen": 1122,
      "100": 1123,
      "iam": 1124,
      "bas": 1125,
      "milit": 1126,
      "light": 1127,
      "hur": 1128,
      "sound": 1129,
      "vision": 1130,
      "bert": 1131,
      "half": 1132,
      "sold": 1133,
      "blo": 1134,
      "similar": 1135,
      "night": 1136,
      "station": 1137,
      "round": 1138,
      "move": 1139,
      "2010": 1140,
      "held": 1141,
      "uc": 1142,
      "itch": 1143,
      "tele": 1144,
      "anim": 1145,
      "augh": 1146,
      "release": 1147,
      "rus": 1148,
      "ences": 1149,
      "lan": 1150,
      "inst": 1151,
      "ik": 1152,
      "action": 1153,
      "local": 1154,
      "che": 1155,
      "mich": 1156,
      "christ": 1157,
      "friend": 1158,
      "fire": 1159,
      "cup": 1160,
      "23": 1161,
      "wards": 1162,
      "21": 1163,
      "estab": 1164,
      "key": 1165,
      "ow": 1166,
      "good": 1167,
      "french": 1168,
      "chart": 1169,
      "pot": 1170,
      "row": 1171,
      "2009": 1172,
      "ny": 1173,
      "role": 1174,
      "rock": 1175,
      "dro": 1176,
      "stree": 1177,
      "church": 1178,
      "player": 1179,
      "william": 1180,
      "ral": 1181,
      "route": 1182,
      "ator": 1183,
      "ently": 1184,
      "prim": 1185,
      "every": 1186,
      "continued": 1187,
      "27": 1188,
      "take": 1189,
      "ured": 1190,
      "ones": 1191,
      "train": 1192,
      "ben": 1193,
      "youn": 1194,
      "ights": 1195,
      "prof": 1196,
      "mc": 1197,
      "level": 1198,
      "hun": 1199,
      "champion": 1200,
      "members": 1201,
      "craft": 1202,
      "came": 1203,
      "begin": 1204,
      "having": 1205,
      "ulation": 1206,
      "wind": 1207,
      "service": 1208,
      "ending": 1209,
      "president": 1210,
      "non": 1211,
      "ats": 1212,
      "22": 1213,
      "never": 1214,
      "career": 1215,
      "university": 1216,
      "pho": 1217,
      "net": 1218,
      "plan": 1219,
      "equ": 1220,
      "moun": 1221,
      "tech": 1222,
      "chang": 1223,
      "sol": 1224,
      "tor": 1225,
      "2008": 1226,
      "division": 1227,
      "different": 1228,
      "histor": 1229,
      "ged": 1230,
      "logy": 1231,
      "ga": 1232,
      "possi": 1233,
      "2011": 1234,
      "lat": 1235,
      "rich": 1236,
      "court": 1237,
      "gar": 1238,
      "see": 1239,
      "without": 1240,
      "cu": 1241,
      "hol": 1242,
      "belie": 1243,
      "fun": 1244,
      "often": 1245,
      "soci": 1246,
      "26": 1247,
      "ides": 1248,
      "few": 1249,
      "england": 1250,
      "mp": 1251,
      "wall": 1252,
      "28": 1253,
      "ken": 1254,
      "english": 1255,
      "indu": 1256,
      "mur": 1257,
      "wat": 1258,
      "written": 1259,
      "western": 1260,
      "father": 1261,
      "app": 1262,
      "served": 1263,
      "2007": 1264,
      "bridge": 1265,
      "associ": 1266,
      "seven": 1267,
      "trad": 1268,
      "moder": 1269,
      "40": 1270,
      "lond": 1271,
      "vent": 1272,
      "considered": 1273,
      "geor": 1274,
      "country": 1275,
      "beh": 1276,
      "stead": 1277,
      "author": 1278,
      "ds": 1279,
      "ural": 1280,
      "elect": 1281,
      "ving": 1282,
      "exp": 1283,
      "london": 1284,
      "sit": 1285,
      "ese": 1286,
      "phil": 1287,
      "building": 1288,
      "super": 1289,
      "free": 1290,
      "ha": 1291,
      "strong": 1292,
      "ctions": 1293,
      "desp": 1294,
      "enter": 1295,
      "els": 1296,
      "2012": 1297,
      "influ": 1298,
      "refer": 1299,
      "press": 1300,
      "county": 1301,
      "invol": 1302,
      "ret": 1303,
      "tropical": 1304,
      "military": 1305,
      "development": 1306,
      "concer": 1307,
      "ars": 1308,
      "little": 1309,
      "coast": 1310,
      "songs": 1311,
      "international": 1312,
      "dan": 1313,
      "ices": 1314,
      "published": 1315,
      "royal": 1316,
      "front": 1317,
      "how": 1318,
      "hour": 1319,
      "search": 1320,
      "aren": 1321,
      "uk": 1322,
      "program": 1323,
      "canad": 1324,
      "face": 1325,
      "become": 1326,
      "const": 1327,
      "dav": 1328,
      "sto": 1329,
      "party": 1330,
      "graph": 1331,
      "member": 1332,
      "mit": 1333,
      "ipt": 1334,
      "mass": 1335,
      "despite": 1336,
      "ross": 1337,
      "forces": 1338,
      "prote": 1339,
      "sure": 1340,
      "respon": 1341,
      "site": 1342,
      "terr": 1343,
      "given": 1344,
      "represent": 1345,
      "cir": 1346,
      "fail": 1347,
      "total": 1348,
      "street": 1349,
      "right": 1350,
      "hit": 1351,
      "away": 1352,
      "190": 1353,
      "29": 1354,
      "hold": 1355,
      "lost": 1356,
      "jack": 1357,
      "ref": 1358,
      "grad": 1359,
      "scor": 1360,
      "announ": 1361,
      "successful": 1362,
      "need": 1363,
      "gave": 1364,
      "pur": 1365,
      "change": 1366,
      "ports": 1367,
      "sug": 1368,
      "live": 1369,
      "find": 1370,
      "reported": 1371,
      "ways": 1372,
      "decl": 1373,
      "sea": 1374,
      "love": 1375,
      "gold": 1376,
      "produced": 1377,
      "san": 1378,
      "quar": 1379,
      "recorded": 1380,
      "children": 1381,
      "aver": 1382,
      "stated": 1383,
      "aff": 1384,
      "lu": 1385,
      "project": 1386,
      "ards": 1387,
      "special": 1388,
      "common": 1389,
      "performance": 1390,
      "body": 1391,
      "look": 1392,
      "ext": 1393,
      "2006": 1394,
      "include": 1395,
      "eder": 1396,
      "interest": 1397,
      "base": 1398,
      "iety": 1399,
      "close": 1400,
      "ni": 1401,
      "suggest": 1402,
      "hurric": 1403,
      "rail": 1404,
      "aign": 1405,
      "ery": 1406,
      "ably": 1407,
      "covered": 1408,
      "mad": 1409,
      "too": 1410,
      "teen": 1411,
      "ns": 1412,
      "suf": 1413,
      "particular": 1414,
      "hen": 1415,
      "pal": 1416,
      "coming": 1417,
      "curren": 1418,
      "campaign": 1419,
      "ston": 1420,
      "compe": 1421,
      "critic": 1422,
      "popular": 1423,
      "import": 1424,
      "broad": 1425,
      "aircraft": 1426,
      "destroy": 1427,
      "sun": 1428,
      "official": 1429,
      "ink": 1430,
      "studio": 1431,
      "ission": 1432,
      "nal": 1433,
      "returned": 1434,
      "iment": 1435,
      "intro": 1436,
      "trav": 1437,
      "cul": 1438,
      "fre": 1439,
      "mission": 1440,
      "ches": 1441,
      "stone": 1442,
      "189": 1443,
      "2013": 1444,
      "style": 1445,
      "struct": 1446,
      "cross": 1447,
      "hard": 1448,
      "room": 1449,
      "xim": 1450,
      "fav": 1451,
      "making": 1452,
      "dou": 1453,
      "sil": 1454,
      "vill": 1455,
      "bow": 1456,
      "scr": 1457,
      "ama": 1458,
      "himself": 1459,
      "male": 1460,
      "sex": 1461,
      "direct": 1462,
      "mix": 1463,
      "characters": 1464,
      "clear": 1465,
      "ming": 1466,
      "southern": 1467,
      "television": 1468,
      "vest": 1469,
      "ains": 1470,
      "iness": 1471,
      "cop": 1472,
      "works": 1473,
      "writing": 1474,
      "alth": 1475,
      "ument": 1476,
      "ever": 1477,
      "depart": 1478,
      "van": 1479,
      "fan": 1480,
      "expl": 1481,
      "died": 1482,
      "wing": 1483,
      "depend": 1484,
      "introdu": 1485,
      "hon": 1486,
      "sat": 1487,
      "upon": 1488,
      "young": 1489,
      "anted": 1490,
      "australia": 1491,
      "modern": 1492,
      "ched": 1493,
      "ying": 1494,
      "once": 1495,
      "hill": 1496,
      "akes": 1497,
      "signific": 1498,
      "lie": 1499,
      "stat": 1500,
      "ws": 1501,
      "ising": 1502,
      "utes": 1503,
      "toge": 1504,
      "ops": 1505,
      "together": 1506,
      "cost": 1507,
      "should": 1508,
      "women": 1509,
      "tw": 1510,
      "ges": 1511,
      "hall": 1512,
      "conne": 1513,
      "mel": 1514,
      "hurricane": 1515,
      "itions": 1516,
      "result": 1517,
      "construction": 1518,
      "big": 1519,
      "ances": 1520,
      "arm": 1521,
      "throughout": 1522,
      "outs": 1523,
      "james": 1524,
      "instead": 1525,
      "central": 1526,
      "center": 1527,
      "vil": 1528,
      "tar": 1529,
      "acy": 1530,
      "born": 1531,
      "pra": 1532,
      "cru": 1533,
      "mark": 1534,
      "ible": 1535,
      "players": 1536,
      "highway": 1537,
      "cil": 1538,
      "ago": 1539,
      "title": 1540,
      "commit": 1541,
      "months": 1542,
      "bed": 1543,
      "gn": 1544,
      "aster": 1545,
      "developed": 1546,
      "across": 1547,
      "eight": 1548,
      "reached": 1549,
      "ran": 1550,
      "ping": 1551,
      "various": 1552,
      "ibut": 1553,
      "experi": 1554,
      "taken": 1555,
      "felt": 1556,
      "activ": 1557,
      "ington": 1558,
      "cell": 1559,
      "remained": 1560,
      "eventually": 1561,
      "bul": 1562,
      "grand": 1563,
      "saw": 1564,
      "created": 1565,
      "political": 1566,
      "inv": 1567,
      "itor": 1568,
      "ls": 1569,
      "pain": 1570,
      "hot": 1571,
      "located": 1572,
      "ey": 1573,
      "rap": 1574,
      "fif": 1575,
      "break": 1576,
      "ither": 1577,
      "noted": 1578,
      "harr": 1579,
      "occur": 1580,
      "60": 1581,
      "iers": 1582,
      "heavy": 1583,
      "tic": 1584,
      "2014": 1585,
      "ff": 1586,
      "seen": 1587,
      "nes": 1588,
      "race": 1589,
      "industr": 1590,
      "ability": 1591,
      "conf": 1592,
      "formation": 1593,
      "office": 1594,
      "stage": 1595,
      "commission": 1596,
      "dre": 1597,
      "acc": 1598,
      "case": 1599,
      "areas": 1600,
      "pression": 1601,
      "squad": 1602,
      "process": 1603,
      "performed": 1604,
      "rain": 1605,
      "dom": 1606,
      "significant": 1607,
      "ae": 1608,
      "appeared": 1609,
      "brother": 1610,
      "human": 1611,
      "gree": 1612,
      "antic": 1613,
      "fight": 1614,
      "pair": 1615,
      "2005": 1616,
      "colon": 1617,
      "wa": 1618,
      "got": 1619,
      "dem": 1620,
      "mother": 1621,
      "wide": 1622,
      "tail": 1623,
      "ring": 1624,
      "aval": 1625,
      "engine": 1626,
      "gress": 1627,
      "mean": 1628,
      "range": 1629,
      "wil": 1630,
      "tens": 1631,
      "full": 1632,
      "pted": 1633,
      "spr": 1634,
      "ino": 1635,
      "mm": 1636,
      "announced": 1637,
      "college": 1638,
      "sess": 1639,
      "mac": 1640,
      "mir": 1641,
      "sele": 1642,
      "george": 1643,
      "erc": 1644,
      "termin": 1645,
      "pan": 1646,
      "america": 1647,
      "pie": 1648,
      "ization": 1649,
      "followed": 1650,
      "killed": 1651,
      "miles": 1652,
      "abo": 1653,
      "hu": 1654,
      "idence": 1655,
      "ties": 1656,
      "ban": 1657,
      "tru": 1658,
      "points": 1659,
      "civ": 1660,
      "others": 1661,
      "northern": 1662,
      "gg": 1663,
      "opened": 1664,
      "football": 1665,
      "gir": 1666,
      "treat": 1667,
      "host": 1668,
      "japanese": 1669,
      "started": 1670,
      "here": 1671,
      "iting": 1672,
      "thought": 1673,
      "ought": 1674,
      "angel": 1675,
      "ues": 1676,
      "invest": 1677,
      "atic": 1678,
      "entire": 1679,
      "jud": 1680,
      "lished": 1681,
      "behind": 1682,
      "business": 1683,
      "sour": 1684,
      "playing": 1685,
      "nel": 1686,
      "thom": 1687,
      "lines": 1688,
      "micha": 1689,
      "cat": 1690,
      "afric": 1691,
      "viet": 1692,
      "sus": 1693,
      "current": 1694,
      "aves": 1695,
      "exe": 1696,
      "profess": 1697,
      "does": 1698,
      "lower": 1699,
      "eastern": 1700,
      "established": 1701,
      "thre": 1702,
      "meet": 1703,
      "qual": 1704,
      "green": 1705,
      "itive": 1706,
      "brown": 1707,
      "wash": 1708,
      "jour": 1709,
      "enced": 1710,
      "fish": 1711,
      "voc": 1712,
      "han": 1713,
      "region": 1714,
      "features": 1715,
      "quest": 1716,
      "pract": 1717,
      "originally": 1718,
      "relation": 1719,
      "bey": 1720,
      "assist": 1721,
      "ize": 1722,
      "feet": 1723,
      "bank": 1724,
      "caused": 1725,
      "pred": 1726,
      "188": 1727,
      "surv": 1728,
      "added": 1729,
      "population": 1730,
      "mph": 1731,
      "mart": 1732,
      "tee": 1733,
      "rather": 1734,
      "novel": 1735,
      "econ": 1736,
      "vin": 1737,
      "31": 1738,
      "hab": 1739,
      "spir": 1740,
      "bc": 1741,
      "soon": 1742,
      "ament": 1743,
      "peak": 1744,
      "econom": 1745,
      "debut": 1746,
      "rought": 1747,
      "possible": 1748,
      "ption": 1749,
      "important": 1750,
      "medi": 1751,
      "ka": 1752,
      "subsequ": 1753,
      "championship": 1754,
      "completed": 1755,
      "damage": 1756,
      "nine": 1757,
      "independ": 1758,
      "reco": 1759,
      "rid": 1760,
      "cret": 1761,
      "director": 1762,
      "australian": 1763,
      "radio": 1764,
      "rank": 1765,
      "sam": 1766,
      "inj": 1767,
      "section": 1768,
      "magaz": 1769,
      "david": 1770,
      "civil": 1771,
      "scre": 1772,
      "worked": 1773,
      "bell": 1774,
      "2004": 1775,
      "exist": 1776,
      "compan": 1777,
      "mater": 1778,
      "aring": 1779,
      "loss": 1780,
      "decided": 1781,
      "bay": 1782,
      "ime": 1783,
      "awards": 1784,
      "type": 1785,
      "theast": 1786,
      "itar": 1787,
      "bon": 1788,
      "comment": 1789,
      "educ": 1790,
      "draw": 1791,
      "ply": 1792,
      "fourth": 1793,
      "oney": 1794,
      "ators": 1795,
      "almost": 1796,
      "respect": 1797,
      "sci": 1798,
      "brig": 1799,
      "lack": 1800,
      "whe": 1801,
      "comb": 1802,
      "ensive": 1803,
      "wife": 1804,
      "critics": 1805,
      "logical": 1806,
      "help": 1807,
      "iss": 1808,
      "uses": 1809,
      "tradition": 1810,
      "cts": 1811,
      "tra": 1812,
      "weeks": 1813,
      "leading": 1814,
      "ample": 1815,
      "mult": 1816,
      "ox": 1817,
      "thus": 1818,
      "ency": 1819,
      "union": 1820,
      "records": 1821,
      "plann": 1822,
      "impro": 1823,
      "langu": 1824,
      "70": 1825,
      "alter": 1826,
      "ready": 1827,
      "bit": 1828,
      "los": 1829,
      "execut": 1830,
      "condu": 1831,
      "2015": 1832,
      "labor": 1833,
      "bs": 1834,
      "ination": 1835,
      "proble": 1836,
      "boy": 1837,
      "working": 1838,
      "scene": 1839,
      "dle": 1840,
      "bomb": 1841,
      "cred": 1842,
      "ature": 1843,
      "fig": 1844,
      "france": 1845,
      "space": 1846,
      "counter": 1847,
      "anti": 1848,
      "social": 1849,
      "mas": 1850,
      "research": 1851,
      "towards": 1852,
      "events": 1853,
      "kingdom": 1854,
      "earth": 1855,
      "squadron": 1856,
      "cult": 1857,
      "corpor": 1858,
      "castle": 1859,
      "indian": 1860,
      "mes": 1861,
      "attr": 1862,
      "initially": 1863,
      "ivid": 1864,
      "michael": 1865,
      "fleet": 1866,
      "35": 1867,
      "ering": 1868,
      "leader": 1869,
      "ith": 1870,
      "ram": 1871,
      "reve": 1872,
      "avail": 1873,
      "diffic": 1874,
      "bird": 1875,
      "tom": 1876,
      "council": 1877,
      "tell": 1878,
      "box": 1879,
      "fut": 1880,
      "nia": 1881,
      "brought": 1882,
      "demo": 1883,
      "navy": 1884,
      "fly": 1885,
      "separ": 1886,
      "ceed": 1887,
      "spo": 1888,
      "memor": 1889,
      "passed": 1890,
      "approach": 1891,
      "training": 1892,
      "gal": 1893,
      "mary": 1894,
      "asy": 1895,
      "term": 1896,
      "defe": 1897,
      "captain": 1898,
      "forced": 1899,
      "dark": 1900,
      "hop": 1901,
      "lou": 1902,
      "rul": 1903,
      "ray": 1904,
      "ids": 1905,
      "consist": 1906,
      "claimed": 1907,
      "ades": 1908,
      "personal": 1909,
      "attempt": 1910,
      "concl": 1911,
      "estim": 1912,
      "provided": 1913,
      "henry": 1914,
      "ko": 1915,
      "vers": 1916,
      "quick": 1917,
      "operation": 1918,
      "victor": 1919,
      "asing": 1920,
      "80": 1921,
      "yed": 1922,
      "know": 1923,
      "goal": 1924,
      "joined": 1925,
      "xic": 1926,
      "bir": 1927,
      "cycl": 1928,
      "nomin": 1929,
      "aud": 1930,
      "186": 1931,
      "guns": 1932,
      "cing": 1933,
      "proper": 1934,
      "istic": 1935,
      "emy": 1936,
      "tempor": 1937,
      "cali": 1938,
      "pointed": 1939,
      "prison": 1940,
      "emplo": 1941,
      "redu": 1942,
      "laun": 1943,
      "atl": 1944,
      "recording": 1945,
      "material": 1946,
      "ration": 1947,
      "lier": 1948,
      "regular": 1949,
      "bio": 1950,
      "die": 1951,
      "ened": 1952,
      "individ": 1953,
      "imp": 1954,
      "parts": 1955,
      "hours": 1956,
      "ax": 1957,
      "either": 1958,
      "aut": 1959,
      "pay": 1960,
      "comes": 1961,
      "anch": 1962,
      "drop": 1963,
      "shot": 1964,
      "allowed": 1965,
      "magazine": 1966,
      "dut": 1967,
      "ica": 1968,
      "chest": 1969,
      "stop": 1970,
      "least": 1971,
      "crew": 1972,
      "lake": 1973,
      "battal": 1974,
      "ris": 1975,
      "priv": 1976,
      "fund": 1977,
      "ike": 1978,
      "victory": 1979,
      "leng": 1980,
      "paul": 1981,
      "particip": 1982,
      "bound": 1983,
      "wanted": 1984,
      "ilo": 1985,
      "chief": 1986,
      "aper": 1987,
      "igned": 1988,
      "past": 1989,
      "ake": 1990,
      "opening": 1991,
      "hig": 1992,
      "european": 1993,
      "featured": 1994,
      "bad": 1995,
      "hip": 1996,
      "ana": 1997,
      "secret": 1998,
      "generally": 1999,
      "keep": 2000,
      "winds": 2001,
      "vic": 2002,
      "ends": 2003,
      "summer": 2004,
      "ony": 2005,
      "heart": 2006,
      "2003": 2007,
      "feel": 2008,
      "police": 2009,
      "scored": 2010,
      "ential": 2011,
      "regard": 2012,
      "russ": 2013,
      "ville": 2014,
      "2001": 2015,
      "500": 2016,
      "involved": 2017,
      "taking": 2018,
      "aven": 2019,
      "forms": 2020,
      "media": 2021,
      "tained": 2022,
      "middle": 2023,
      "mun": 2024,
      "ager": 2025,
      "mith": 2026,
      "gian": 2027,
      "roman": 2028,
      "believed": 2029,
      "troops": 2030,
      "agon": 2031,
      "replaced": 2032,
      "compl": 2033,
      "beat": 2034,
      "hest": 2035,
      "finished": 2036,
      "recogn": 2037,
      "bour": 2038,
      "relig": 2039,
      "must": 2040,
      "minutes": 2041,
      "fest": 2042,
      "republic": 2043,
      "75": 2044,
      "writer": 2045,
      "robert": 2046,
      "lap": 2047,
      "going": 2048,
      "span": 2049,
      "available": 2050,
      "rac": 2051,
      "feder": 2052,
      "phys": 2053,
      "tex": 2054,
      "saying": 2055,
      "average": 2056,
      "god": 2057,
      "ister": 2058,
      "example": 2059,
      "achie": 2060,
      "revol": 2061,
      "news": 2062,
      "lands": 2063,
      "largest": 2064,
      "reason": 2065,
      "runs": 2066,
      "washington": 2067,
      "length": 2068,
      "immedi": 2069,
      "2000": 2070,
      "native": 2071,
      "emp": 2072,
      "designed": 2073,
      "issue": 2074,
      "gs": 2075,
      "ata": 2076,
      "hous": 2077,
      "agre": 2078,
      "motion": 2079,
      "certain": 2080,
      "tv": 2081,
      "mountain": 2082,
      "nd": 2083,
      "lot": 2084,
      "model": 2085,
      "earlier": 2086,
      "films": 2087,
      "turned": 2088,
      "erous": 2089,
      "weak": 2090,
      "ald": 2091,
      "guard": 2092,
      "date": 2093,
      "guitar": 2094,
      "uel": 2095,
      "staff": 2096,
      "lear": 2097,
      "ush": 2098,
      "iple": 2099,
      "cou": 2100,
      "daugh": 2101,
      "meas": 2102,
      "appearance": 2103,
      "ention": 2104,
      "richard": 2105,
      "icle": 2106,
      "outside": 2107,
      "dig": 2108,
      "percent": 2109,
      "sey": 2110,
      "charles": 2111,
      "future": 2112,
      "ense": 2113,
      "units": 2114,
      "speed": 2115,
      "beginning": 2116,
      "acted": 2117,
      "indic": 2118,
      "thomas": 2119,
      "give": 2120,
      "iction": 2121,
      "ification": 2122,
      "highest": 2123,
      "tries": 2124,
      "natural": 2125,
      "45": 2126,
      "pected": 2127,
      "plat": 2128,
      "active": 2129,
      "phy": 2130,
      "uck": 2131,
      "suffer": 2132,
      "hib": 2133,
      "graphy": 2134,
      "califor": 2135,
      "coach": 2136,
      "photo": 2137,
      "asked": 2138,
      "lik": 2139,
      "commerc": 2140,
      "tou": 2141,
      "access": 2142,
      "flood": 2143,
      "community": 2144,
      "particularly": 2145,
      "money": 2146,
      "enough": 2147,
      "above": 2148,
      "aled": 2149,
      "typ": 2150,
      "complete": 2151,
      "90": 2152,
      "ius": 2153,
      "2002": 2154,
      "ilities": 2155,
      "audi": 2156,
      "lord": 2157,
      "stre": 2158,
      "liter": 2159,
      "previously": 2160,
      "musical": 2161,
      "defin": 2162,
      "mach": 2163,
      "prior": 2164,
      "elements": 2165,
      "era": 2166,
      "ida": 2167,
      "recent": 2168,
      "california": 2169,
      "peter": 2170,
      "ateg": 2171,
      "word": 2172,
      "administ": 2173,
      "load": 2174,
      "plot": 2175,
      "smith": 2176,
      "india": 2177,
      "governor": 2178,
      "jer": 2179,
      "ordered": 2180,
      "pac": 2181,
      "acad": 2182,
      "society": 2183,
      "viol": 2184,
      "favor": 2185,
      "bis": 2186,
      "lay": 2187,
      "stra": 2188,
      "canada": 2189,
      "praised": 2190,
      "dead": 2191,
      "virgin": 2192,
      "yard": 2193,
      "ases": 2194,
      "ference": 2195,
      "signed": 2196,
      "square": 2197,
      "fant": 2198,
      "deal": 2199,
      "inn": 2200,
      "ather": 2201,
      "health": 2202,
      "better": 2203,
      "contribut": 2204,
      "association": 2205,
      "iation": 2206,
      "amoun": 2207,
      "vert": 2208,
      "pec": 2209,
      "capt": 2210,
      "rights": 2211,
      "occup": 2212,
      "ener": 2213,
      "color": 2214,
      "bi": 2215,
      "ky": 2216,
      "clim": 2217,
      "broadcast": 2218,
      "tun": 2219,
      "usually": 2220,
      "threat": 2221,
      "mou": 2222,
      "interview": 2223,
      "hap": 2224,
      "iii": 2225,
      "constit": 2226,
      "actions": 2227,
      "block": 2228,
      "187": 2229,
      "scott": 2230,
      "fit": 2231,
      "changes": 2232,
      "nu": 2233,
      "nation": 2234,
      "acqu": 2235,
      "female": 2236,
      "frequ": 2237,
      "report": 2238,
      "failed": 2239,
      "pul": 2240,
      "anal": 2241,
      "count": 2242,
      "ker": 2243,
      "theat": 2244,
      "increased": 2245,
      "dev": 2246,
      "iding": 2247,
      "difficult": 2248,
      "ried": 2249,
      "colum": 2250,
      "forest": 2251,
      "bud": 2252,
      "told": 2253,
      "critical": 2254,
      "card": 2255,
      "chic": 2256,
      "distric": 2257,
      "additional": 2258,
      "living": 2259,
      "explo": 2260,
      "woman": 2261,
      "pressed": 2262,
      "onto": 2263,
      "cher": 2264,
      "emer": 2265,
      "groups": 2266,
      "ix": 2267,
      "agree": 2268,
      "muse": 2269,
      "responsi": 2270,
      "chester": 2271,
      "mic": 2272,
      "argu": 2273,
      "positive": 2274,
      "arily": 2275,
      "appl": 2276,
      "prob": 2277,
      "lor": 2278,
      "reser": 2279,
      "food": 2280,
      "minor": 2281,
      "already": 2282,
      "directed": 2283,
      "cit": 2284,
      "seem": 2285,
      "mexic": 2286,
      "required": 2287,
      "metres": 2288,
      "bers": 2289,
      "barr": 2290,
      "defeated": 2291,
      "ape": 2292,
      "appointed": 2293,
      "respond": 2294,
      "investig": 2295,
      "itself": 2296,
      "travel": 2297,
      "committee": 2298,
      "rup": 2299,
      "idea": 2300,
      "oly": 2301,
      "sand": 2302,
      "object": 2303,
      "department": 2304,
      "paren": 2305,
      "promo": 2306,
      "ded": 2307,
      "domin": 2308,
      "tured": 2309,
      "study": 2310,
      "deep": 2311,
      "standing": 2312,
      "da": 2313,
      "ll": 2314,
      "names": 2315,
      "bot": 2316,
      "shows": 2317,
      "33": 2318,
      "chap": 2319,
      "spent": 2320,
      "premi": 2321,
      "effects": 2322,
      "battalion": 2323,
      "cam": 2324,
      "horse": 2325,
      "instit": 2326,
      "ctive": 2327,
      "aint": 2328,
      "germany": 2329,
      "asse": 2330,
      "ayed": 2331,
      "pow": 2332,
      "poor": 2333,
      "ples": 2334,
      "perform": 2335,
      "iff": 2336,
      "stars": 2337,
      "introduced": 2338,
      "zer": 2339,
      "imin": 2340,
      "whom": 2341,
      "reviews": 2342,
      "quickly": 2343,
      "pitch": 2344,
      "screen": 2345,
      "alex": 2346,
      "aining": 2347,
      "overall": 2348,
      "museum": 2349,
      "relationship": 2350,
      "reng": 2351,
      "envir": 2352,
      "tax": 2353,
      "ali": 2354,
      "ultim": 2355,
      "voice": 2356,
      "remaining": 2357,
      "quarter": 2358,
      "usion": 2359,
      "response": 2360,
      "students": 2361,
      "evidence": 2362,
      "gas": 2363,
      "might": 2364,
      "avo": 2365,
      "science": 2366,
      "lee": 2367,
      "blue": 2368,
      "compet": 2369,
      "cele": 2370,
      "flag": 2371,
      "blood": 2372,
      "christian": 2373,
      "web": 2374,
      "except": 2375,
      "occas": 2376,
      "score": 2377,
      "frank": 2378,
      "situ": 2379,
      "infan": 2380,
      "whose": 2381,
      "environ": 2382,
      "subject": 2383,
      "language": 2384,
      "complet": 2385,
      "tracks": 2386,
      "flow": 2387,
      "transfer": 2388,
      "education": 2389,
      "espec": 2390,
      "commercial": 2391,
      "va": 2392,
      "spring": 2393,
      "hero": 2394,
      "prepar": 2395,
      "flor": 2396,
      "related": 2397,
      "background": 2398,
      "size": 2399,
      "especially": 2400,
      "arrived": 2401,
      "exper": 2402,
      "commander": 2403,
      "streng": 2404,
      "cm": 2405,
      "hosp": 2406,
      "sometimes": 2407,
      "rat": 2408,
      "estimated": 2409,
      "pressure": 2410,
      "jackson": 2411,
      "slow": 2412,
      "your": 2413,
      "lyric": 2414,
      "legal": 2415,
      "operations": 2416,
      "prevent": 2417,
      "chall": 2418,
      "doc": 2419,
      "course": 2420,
      "brigade": 2421,
      "burg": 2422,
      "consider": 2423,
      "worth": 2424,
      "eds": 2425,
      "leaving": 2426,
      "discus": 2427,
      "gard": 2428,
      "suit": 2429,
      "ses": 2430,
      "rob": 2431,
      "kets": 2432,
      "transport": 2433,
      "ai": 2434,
      "odes": 2435,
      "approxim": 2436,
      "flight": 2437,
      "surface": 2438,
      "done": 2439,
      "tho": 2440,
      "sett": 2441,
      "wel": 2442,
      "olymp": 2443,
      "glo": 2444,
      "pil": 2445,
      "escap": 2446,
      "latter": 2447,
      "daughter": 2448,
      "fair": 2449,
      "temper": 2450,
      "decision": 2451,
      "agreed": 2452,
      "winter": 2453,
      "hood": 2454,
      "contract": 2455,
      "moving": 2456,
      "rate": 2457,
      "bring": 2458,
      "limited": 2459,
      "centre": 2460,
      "establish": 2461,
      "entertain": 2462,
      "infantry": 2463,
      "depression": 2464,
      "text": 2465,
      "location": 2466,
      "reception": 2467,
      "village": 2468,
      "sons": 2469,
      "supported": 2470,
      "industry": 2471,
      "upper": 2472,
      "erson": 2473,
      "structure": 2474,
      "lad": 2475,
      "via": 2476,
      "surround": 2477,
      "inese": 2478,
      "berg": 2479,
      "minister": 2480,
      "plant": 2481,
      "tural": 2482,
      "teams": 2483,
      "nearly": 2484,
      "chan": 2485,
      "join": 2486,
      "queen": 2487,
      "journal": 2488,
      "entered": 2489,
      "movement": 2490,
      "fifth": 2491,
      "create": 2492,
      "twent": 2493,
      "archite": 2494,
      "destroyed": 2495,
      "chicago": 2496,
      "chinese": 2497,
      "trial": 2498,
      "election": 2499,
      "iel": 2500,
      "oil": 2501,
      "acts": 2502,
      "cting": 2503,
      "polic": 2504,
      "pict": 2505,
      "fully": 2506,
      "temporary": 2507,
      "len": 2508,
      "detail": 2509,
      "books": 2510,
      "secur": 2511,
      "scenes": 2512,
      "naval": 2513,
      "china": 2514,
      "prin": 2515,
      "changed": 2516,
      "36": 2517,
      "greg": 2518,
      "artist": 2519,
      "compared": 2520,
      "carried": 2521,
      "brief": 2522,
      "capital": 2523,
      "services": 2524,
      "fans": 2525,
      "becoming": 2526,
      "1999": 2527,
      "islands": 2528,
      "influence": 2529,
      "nic": 2530,
      "gue": 2531,
      "girl": 2532,
      "birth": 2533,
      "cand": 2534,
      "remains": 2535,
      "nature": 2536,
      "married": 2537,
      "feature": 2538,
      "planned": 2539,
      "producer": 2540,
      "helped": 2541,
      "listed": 2542,
      "likely": 2543,
      "aries": 2544,
      "selves": 2545,
      "yet": 2546,
      "icted": 2547,
      "aging": 2548,
      "princ": 2549,
      "expected": 2550,
      "scient": 2551,
      "larger": 2552,
      "episodes": 2553,
      "instr": 2554,
      "forward": 2555,
      "sky": 2556,
      "trade": 2557,
      "britain": 2558,
      "district": 2559,
      "38": 2560,
      "atory": 2561,
      "liber": 2562,
      "finally": 2563,
      "intended": 2564,
      "running": 2565,
      "spanish": 2566,
      "fell": 2567,
      "weap": 2568,
      "ging": 2569,
      "captured": 2570,
      "winning": 2571,
      "experience": 2572,
      "pit": 2573,
      "49": 2574,
      "deb": 2575,
      "idents": 2576,
      "grow": 2577,
      "mig": 2578,
      "purch": 2579,
      "franc": 2580,
      "higher": 2581,
      "positions": 2582,
      "empire": 2583,
      "master": 2584,
      "pts": 2585,
      "friends": 2586,
      "cree": 2587,
      "sail": 2588,
      "provide": 2589,
      "network": 2590,
      "hi": 2591,
      "habit": 2592,
      "louis": 2593,
      "ribut": 2594,
      "proposed": 2595,
      "actor": 2596,
      "tons": 2597,
      "drum": 2598,
      "demand": 2599,
      "approximately": 2600,
      "issued": 2601,
      "bility": 2602,
      "conserv": 2603,
      "mostly": 2604,
      "syn": 2605,
      "regiment": 2606,
      "adap": 2607,
      "billboard": 2608,
      "fill": 2609,
      "sar": 2610,
      "iron": 2611,
      "acting": 2612,
      "agement": 2613,
      "railway": 2614,
      "intens": 2615,
      "step": 2616,
      "leave": 2617,
      "officers": 2618,
      "neg": 2619,
      "1998": 2620,
      "atlantic": 2621,
      "conclud": 2622,
      "environment": 2623,
      "anna": 2624,
      "professional": 2625,
      "lam": 2626,
      "today": 2627,
      "igan": 2628,
      "affe": 2629,
      "market": 2630,
      "financ": 2631,
      "private": 2632,
      "nick": 2633,
      "initial": 2634,
      "dol": 2635,
      "ams": 2636,
      "something": 2637,
      "relat": 2638,
      "insp": 2639,
      "defeat": 2640,
      "officer": 2641,
      "complex": 2642,
      "immediately": 2643,
      "bond": 2644,
      "dance": 2645,
      "secut": 2646,
      "standard": 2647,
      "soldiers": 2648,
      "martin": 2649,
      "48": 2650,
      "themselves": 2651,
      "distribut": 2652,
      "subsequently": 2653,
      "ander": 2654,
      "teach": 2655,
      "awarded": 2656,
      "demon": 2657,
      "jim": 2658,
      "really": 2659,
      "promis": 2660,
      "circ": 2661,
      "hus": 2662,
      "32": 2663,
      "nar": 2664,
      "err": 2665,
      "icles": 2666,
      "pose": 2667,
      "jected": 2668,
      "script": 2669,
      "rang": 2670,
      "movie": 2671,
      "trib": 2672,
      "mixed": 2673,
      "thr": 2674,
      "ado": 2675,
      "ender": 2676,
      "longer": 2677,
      "lyrics": 2678,
      "lock": 2679,
      "manager": 2680,
      "corps": 2681,
      "closed": 2682,
      "veh": 2683,
      "pacific": 2684,
      "kar": 2685,
      "always": 2686,
      "extended": 2687,
      "ci": 2688,
      "gate": 2689,
      "stic": 2690,
      "stad": 2691,
      "singles": 2692,
      "1997": 2693,
      "virginia": 2694,
      "37": 2695,
      "ona": 2696,
      "federal": 2697,
      "pet": 2698,
      "suggested": 2699,
      "oce": 2700,
      "conference": 2701,
      "ays": 2702,
      "2016": 2703,
      "singer": 2704,
      "stock": 2705,
      "buildings": 2706,
      "shortly": 2707,
      "want": 2708,
      "wild": 2709,
      "words": 2710,
      "countries": 2711,
      "legis": 2712,
      "electric": 2713,
      "edward": 2714,
      "stan": 2715,
      "shire": 2716,
      "mouth": 2717,
      "185": 2718,
      "takes": 2719,
      "equip": 2720,
      "fast": 2721,
      "breed": 2722,
      "pon": 2723,
      "amed": 2724,
      "uries": 2725,
      "plans": 2726,
      "increasing": 2727,
      "piece": 2728,
      "probably": 2729,
      "architect": 2730,
      "34": 2731,
      "ipal": 2732,
      "includes": 2733,
      "visit": 2734,
      "celebr": 2735,
      "traf": 2736,
      "subst": 2737,
      "request": 2738,
      "independent": 2739,
      "festival": 2740,
      "mr": 2741,
      "auto": 2742,
      "constructed": 2743,
      "ishing": 2744,
      "appears": 2745,
      "damaged": 2746,
      "dies": 2747,
      "removed": 2748,
      "ication": 2749,
      "battles": 2750,
      "attacks": 2751,
      "parli": 2752,
      "letter": 2753,
      "valley": 2754,
      "sales": 2755,
      "copies": 2756,
      "energy": 2757,
      "ula": 2758,
      "prince": 2759,
      "phen": 2760,
      "albums": 2761,
      "associated": 2762,
      "ored": 2763,
      "cause": 2764,
      "democr": 2765,
      "kr": 2766,
      "haw": 2767,
      "yards": 2768,
      "uni": 2769,
      "olic": 2770,
      "exam": 2771,
      "bury": 2772,
      "inspired": 2773,
      "makes": 2774,
      "canadian": 2775,
      "ustr": 2776,
      "ioned": 2777,
      "kilo": 2778,
      "tank": 2779,
      "issues": 2780,
      "respectively": 2781,
      "300": 2782,
      "awn": 2783,
      "psy": 2784,
      "marine": 2785,
      "marked": 2786,
      "watch": 2787,
      "39": 2788,
      "africa": 2789,
      "parliament": 2790,
      "elled": 2791,
      "safe": 2792,
      "mitted": 2793,
      "florida": 2794,
      "sof": 2795,
      "unit": 2796,
      "confir": 2797,
      "tension": 2798,
      "foreign": 2799,
      "famil": 2800,
      "numerous": 2801,
      "bass": 2802,
      "cere": 2803,
      "ug": 2804,
      "weight": 2805,
      "ya": 2806,
      "aker": 2807,
      "dv": 2808,
      "sports": 2809,
      "andon": 2810,
      "necess": 2811,
      "portr": 2812,
      "goals": 2813,
      "writers": 2814,
      "spl": 2815,
      "py": 2816,
      "information": 2817,
      "rose": 2818,
      "minute": 2819,
      "smo": 2820,
      "terms": 2821,
      "convent": 2822,
      "comed": 2823,
      "carol": 2824,
      "raised": 2825,
      "swe": 2826,
      "schools": 2827,
      "dun": 2828,
      "problems": 2829,
      "sor": 2830,
      "greater": 2831,
      "morning": 2832,
      "hospital": 2833,
      "meth": 2834,
      "expand": 2835,
      "whether": 2836,
      "primary": 2837,
      "angeles": 2838,
      "1st": 2839,
      "ume": 2840,
      "refle": 2841,
      "icket": 2842,
      "rare": 2843,
      "enn": 2844,
      "northwest": 2845,
      "revolution": 2846,
      "mess": 2847,
      "edition": 2848,
      "tery": 2849,
      "giving": 2850,
      "ously": 2851,
      "pool": 2852,
      "assigned": 2853,
      "stein": 2854,
      "cruis": 2855,
      "twenty": 2856,
      "fighting": 2857,
      "ocean": 2858,
      "sister": 2859,
      "peace": 2860,
      "occurred": 2861,
      "kind": 2862,
      "soviet": 2863,
      "ull": 2864,
      "conditions": 2865,
      "sched": 2866,
      "1996": 2867,
      "culture": 2868,
      "restr": 2869,
      "unable": 2870,
      "loy": 2871,
      "cepted": 2872,
      "ift": 2873,
      "shoot": 2874,
      "tournam": 2875,
      "46": 2876,
      "scot": 2877,
      "wol": 2878,
      "geo": 2879,
      "francis": 2880,
      "offered": 2881,
      "mont": 2882,
      "individual": 2883,
      "gent": 2884,
      "resist": 2885,
      "whole": 2886,
      "cyclone": 2887,
      "aily": 2888,
      "traditional": 2889,
      "gall": 2890,
      "1950": 2891,
      "murder": 2892,
      "metal": 2893,
      "stories": 2894,
      "techno": 2895,
      "impact": 2896,
      "touch": 2897,
      "audience": 2898,
      "cel": 2899,
      "rd": 2900,
      "wid": 2901,
      "session": 2902,
      "sir": 2903,
      "beth": 2904,
      "houses": 2905,
      "admir": 2906,
      "heav": 2907,
      "texas": 2908,
      "lived": 2909,
      "wit": 2910,
      "numbers": 2911,
      "resulted": 2912,
      "function": 2913,
      "revealed": 2914,
      "rated": 2915,
      "replace": 2916,
      "uments": 2917,
      "47": 2918,
      "daily": 2919,
      "wound": 2920,
      "inside": 2921,
      "contro": 2922,
      "ski": 2923,
      "install": 2924,
      "status": 2925,
      "alle": 2926,
      "evol": 2927,
      "hundr": 2928,
      "ening": 2929,
      "increase": 2930,
      "categ": 2931,
      "attempted": 2932,
      "selected": 2933,
      "wish": 2934,
      "adel": 2935,
      "maxim": 2936,
      "discovered": 2937,
      "produce": 2938,
      "ordin": 2939,
      "entertainment": 2940,
      "gil": 2941,
      "forts": 2942,
      "protest": 2943,
      "newsp": 2944,
      "creek": 2945,
      "kent": 2946,
      "theme": 2947,
      "zeal": 2948,
      "thur": 2949,
      "plays": 2950,
      "oh": 2951,
      "northeast": 2952,
      "needed": 2953,
      "aur": 2954,
      "render": 2955,
      "ises": 2956,
      "slight": 2957,
      "constant": 2958,
      "gradu": 2959,
      "think": 2960,
      "annual": 2961,
      "windo": 2962,
      "majority": 2963,
      "employ": 2964,
      "ranked": 2965,
      "1995": 2966,
      "double": 2967,
      "confl": 2968,
      "meeting": 2969,
      "edge": 2970,
      "neigh": 2971,
      "earned": 2972,
      "contains": 2973,
      "sell": 2974,
      "cath": 2975,
      "things": 2976,
      "stom": 2977,
      "suffered": 2978,
      "itory": 2979,
      "adop": 2980,
      "silver": 2981,
      "commented": 2982,
      "ask": 2983,
      "combat": 2984,
      "below": 2985,
      "amount": 2986,
      "pun": 2987,
      "shar": 2988,
      "notes": 2989,
      "guest": 2990,
      "1994": 2991,
      "italian": 2992,
      "males": 2993,
      "gam": 2994,
      "airport": 2995,
      "variety": 2996,
      "advance": 2997,
      "tu": 2998,
      "tower": 2999,
      "shown": 3000,
      "aught": 3001,
      "marri": 3002,
      "drew": 3003,
      "inner": 3004,
      "repe": 3005,
      "brad": 3006,
      "birds": 3007,
      "gely": 3008,
      "19th": 3009,
      "allied": 3010,
      "collection": 3011,
      "ech": 3012,
      "portion": 3013,
      "distin": 3014,
      "fantasy": 3015,
      "figh": 3016,
      "yel": 3017,
      "chair": 3018,
      "ips": 3019,
      "drive": 3020,
      "referred": 3021,
      "imper": 3022,
      "concept": 3023,
      "launched": 3024,
      "mexico": 3025,
      "parents": 3026,
      "anced": 3027,
      "mechan": 3028,
      "pret": 3029,
      "greate": 3030,
      "weather": 3031,
      "systems": 3032,
      "allowing": 3033,
      "religious": 3034,
      "kore": 3035,
      "grant": 3036,
      "direction": 3037,
      "greatest": 3038,
      "spect": 3039,
      "rapid": 3040,
      "russian": 3041,
      "stadium": 3042,
      "ert": 3043,
      "icated": 3044,
      "sec": 3045,
      "congress": 3046,
      "ump": 3047,
      "competition": 3048,
      "method": 3049,
      "apo": 3050,
      "attacked": 3051,
      "smaller": 3052,
      "improve": 3053,
      "path": 3054,
      "composed": 3055,
      "bled": 3056,
      "bia": 3057,
      "sumed": 3058,
      "kept": 3059,
      "boat": 3060,
      "levels": 3061,
      "ners": 3062,
      "179": 3063,
      "quarters": 3064,
      "enjo": 3065,
      "zealand": 3066,
      "dar": 3067,
      "extre": 3068,
      "vey": 3069,
      "observ": 3070,
      "johnson": 3071,
      "180": 3072,
      "dvd": 3073,
      "wis": 3074,
      "verse": 3075,
      "trail": 3076,
      "jose": 3077,
      "saur": 3078,
      "schol": 3079,
      "advent": 3080,
      "chem": 3081,
      "arts": 3082,
      "largely": 3083,
      "matches": 3084,
      "performances": 3085,
      "animals": 3086,
      "chron": 3087,
      "nest": 3088,
      "bob": 3089,
      "ify": 3090,
      "2nd": 3091,
      "44": 3092,
      "saint": 3093,
      "incorpor": 3094,
      "settle": 3095,
      "prime": 3096,
      "spot": 3097,
      "philip": 3098,
      "harrison": 3099,
      "financial": 3100,
      "cab": 3101,
      "promin": 3102,
      "economic": 3103,
      "ira": 3104,
      "abandon": 3105,
      "meaning": 3106,
      "inch": 3107,
      "vocals": 3108,
      "traffic": 3109,
      "meant": 3110,
      "wrest": 3111,
      "zo": 3112,
      "continue": 3113,
      "planet": 3114,
      "stream": 3115,
      "favour": 3116,
      "camer": 3117,
      "fox": 3118,
      "practice": 3119,
      "1992": 3120,
      "executive": 3121,
      "55": 3122,
      "crow": 3123,
      "starting": 3124,
      "iption": 3125,
      "uals": 3126,
      "lon": 3127,
      "mile": 3128,
      "attention": 3129,
      "effort": 3130,
      "wealth": 3131,
      "izing": 3132,
      "territory": 3133,
      "pic": 3134,
      "za": 3135,
      "thous": 3136,
      "andre": 3137,
      "ulated": 3138,
      "broke": 3139,
      "honor": 3140,
      "serious": 3141,
      "companies": 3142,
      "tournament": 3143,
      "accepted": 3144,
      "sis": 3145,
      "farm": 3146,
      "dropped": 3147,
      "document": 3148,
      "means": 3149,
      "1942": 3150,
      "defense": 3151,
      "concert": 3152,
      "eye": 3153,
      "accept": 3154,
      "true": 3155,
      "nearby": 3156,
      "fal": 3157,
      "manchester": 3158,
      "border": 3159,
      "declared": 3160,
      "pick": 3161,
      "thir": 3162,
      "southeast": 3163,
      "write": 3164,
      "cases": 3165,
      "pi": 3166,
      "rio": 3167,
      "founded": 3168,
      "pilot": 3169,
      "arrest": 3170,
      "folk": 3171,
      "vocal": 3172,
      "exhib": 3173,
      "grade": 3174,
      "african": 3175,
      "ultimately": 3176,
      "yellow": 3177,
      "lane": 3178,
      "chann": 3179,
      "michigan": 3180,
      "sexual": 3181,
      "flying": 3182,
      "thousand": 3183,
      "ena": 3184,
      "beach": 3185,
      "cros": 3186,
      "refused": 3187,
      "ceremon": 3188,
      "slo": 3189,
      "determin": 3190,
      "shi": 3191,
      "compu": 3192,
      "aust": 3193,
      "scul": 3194,
      "1991": 3195,
      "organization": 3196,
      "jac": 3197,
      "ti": 3198,
      "onna": 3199,
      "propos": 3200,
      "focus": 3201,
      "elected": 3202,
      "memorial": 3203,
      "else": 3204,
      "progress": 3205,
      "excl": 3206,
      "rating": 3207,
      "repair": 3208,
      "uten": 3209,
      "williams": 3210,
      "source": 3211,
      "enemy": 3212,
      "extr": 3213,
      "collabor": 3214,
      "matic": 3215,
      "arms": 3216,
      "itation": 3217,
      "marriage": 3218,
      "ara": 3219,
      "mob": 3220,
      "istics": 3221,
      "cks": 3222,
      "charge": 3223,
      "paid": 3224,
      "kin": 3225,
      "doctor": 3226,
      "serve": 3227,
      "resulting": 3228,
      "wed": 3229,
      "cities": 3230,
      "alo": 3231,
      "solo": 3232,
      "emper": 3233,
      "rick": 3234,
      "sequence": 3235,
      "quality": 3236,
      "concluded": 3237,
      "cham": 3238,
      "1930": 3239,
      "resol": 3240,
      "aware": 3241,
      "mod": 3242,
      "iest": 3243,
      "wales": 3244,
      "400": 3245,
      "bol": 3246,
      "eigh": 3247,
      "sin": 3248,
      "nov": 3249,
      "sole": 3250,
      "20th": 3251,
      "burn": 3252,
      "candid": 3253,
      "cub": 3254,
      "plane": 3255,
      "content": 3256,
      "1993": 3257,
      "studies": 3258,
      "citiz": 3259,
      "syl": 3260,
      "specific": 3261,
      "passing": 3262,
      "authority": 3263,
      "recomm": 3264,
      "tried": 3265,
      "separate": 3266,
      "responsible": 3267,
      "65": 3268,
      "happ": 3269,
      "rical": 3270,
      "restor": 3271,
      "rein": 3272,
      "exped": 3273,
      "calling": 3274,
      "ding": 3275,
      "pack": 3276,
      "alone": 3277,
      "viewers": 3278,
      "voy": 3279,
      "twel": 3280,
      "invas": 3281,
      "digital": 3282,
      "cold": 3283,
      "boston": 3284,
      "symb": 3285,
      "machine": 3286,
      "hl": 3287,
      "nown": 3288,
      "brand": 3289,
      "marsh": 3290,
      "highly": 3291,
      "relatively": 3292,
      "tree": 3293,
      "inte": 3294,
      "inches": 3295,
      "coal": 3296,
      "ficient": 3297,
      "scale": 3298,
      "penn": 3299,
      "demonstr": 3300,
      "ada": 3301,
      "medical": 3302,
      "vised": 3303,
      "cry": 3304,
      "1941": 3305,
      "chris": 3306,
      "directly": 3307,
      "multiple": 3308,
      "mand": 3309,
      "lieuten": 3310,
      "completely": 3311,
      "sn": 3312,
      "image": 3313,
      "map": 3314,
      "maintain": 3315,
      "nit": 3316,
      "thro": 3317,
      "artists": 3318,
      "mann": 3319,
      "historical": 3320,
      "activity": 3321,
      "combined": 3322,
      "security": 3323,
      "oth": 3324,
      "managed": 3325,
      "brid": 3326,
      "tion": 3327,
      "becomes": 3328,
      "illery": 3329,
      "opport": 3330,
      "libr": 3331,
      "opportun": 3332,
      "sr": 3333,
      "bles": 3334,
      "observed": 3335,
      "rule": 3336,
      "attempts": 3337,
      "benef": 3338,
      "administration": 3339,
      "hors": 3340,
      "efforts": 3341,
      "sixth": 3342,
      "dor": 3343,
      "actually": 3344,
      "strugg": 3345,
      "agreement": 3346,
      "dise": 3347,
      "canal": 3348,
      "passeng": 3349,
      "owned": 3350,
      "admiral": 3351,
      "job": 3352,
      "simp": 3353,
      "presented": 3354,
      "behav": 3355,
      "physical": 3356,
      "prec": 3357,
      "identified": 3358,
      "crown": 3359,
      "alongside": 3360,
      "eth": 3361,
      "ja": 3362,
      "arab": 3363,
      "extens": 3364,
      "begins": 3365,
      "secretary": 3366,
      "situation": 3367,
      "thin": 3368,
      "contemporary": 3369,
      "artillery": 3370,
      "arent": 3371,
      "sport": 3372,
      "zz": 3373,
      "rev": 3374,
      "urban": 3375,
      "greek": 3376,
      "academy": 3377,
      "lieutenant": 3378,
      "pian": 3379,
      "starr": 3380,
      "officials": 3381,
      "reduced": 3382,
      "management": 3383,
      "draft": 3384,
      "distance": 3385,
      "studios": 3386,
      "stating": 3387,
      "beaut": 3388,
      "older": 3389,
      "1944": 3390,
      "elle": 3391,
      "titled": 3392,
      "contrast": 3393,
      "fellow": 3394,
      "conducted": 3395,
      "sphere": 3396,
      "presence": 3397,
      "mond": 3398,
      "missed": 3399,
      "showed": 3400,
      "featuring": 3401,
      "sides": 3402,
      "creation": 3403,
      "colour": 3404,
      "senior": 3405,
      "affected": 3406,
      "jones": 3407,
      "ites": 3408,
      "actors": 3409,
      "attended": 3410,
      "continues": 3411,
      "peaked": 3412,
      "transferred": 3413,
      "policy": 3414,
      "85": 3415,
      "cultural": 3416,
      "ceeded": 3417,
      "avenue": 3418,
      "husband": 3419,
      "slightly": 3420,
      "emperor": 3421,
      "iate": 3422,
      "exc": 3423,
      "rey": 3424,
      "ications": 3425,
      "une": 3426,
      "ellig": 3427,
      "imperial": 3428,
      "tam": 3429,
      "account": 3430,
      "ressed": 3431,
      "jam": 3432,
      "intellig": 3433,
      "potential": 3434,
      "bes": 3435,
      "armed": 3436,
      "door": 3437,
      "mind": 3438,
      "student": 3439,
      "patter": 3440,
      "nothing": 3441,
      "medal": 3442,
      "capac": 3443,
      "defence": 3444,
      "orders": 3445,
      "waters": 3446,
      "property": 3447,
      "theatre": 3448,
      "oso": 3449,
      "atives": 3450,
      "conver": 3451,
      "iance": 3452,
      "selling": 3453,
      "latin": 3454,
      "scoring": 3455,
      "achieve": 3456,
      "scotland": 3457,
      "places": 3458,
      "vessel": 3459,
      "yer": 3460,
      "astic": 3461,
      "primarily": 3462,
      "electron": 3463,
      "subsequent": 3464,
      "ulf": 3465,
      "therefore": 3466,
      "roads": 3467,
      "bush": 3468,
      "kg": 3469,
      "kes": 3470,
      "table": 3471,
      "ancient": 3472,
      "figure": 3473,
      "strength": 3474,
      "prise": 3475,
      "spirit": 3476,
      "innings": 3477,
      "confirmed": 3478,
      "fat": 3479,
      "wise": 3480,
      "thick": 3481,
      "alleg": 3482,
      "isa": 3483,
      "42": 3484,
      "theory": 3485,
      "orche": 3486,
      "duke": 3487,
      "partner": 3488,
      "criticized": 3489,
      "sav": 3490,
      "iced": 3491,
      "uss": 3492,
      "prop": 3493,
      "1990": 3494,
      "isions": 3495,
      "dome": 3496,
      "faced": 3497,
      "joseph": 3498,
      "mul": 3499,
      "steel": 3500,
      "says": 3501,
      "bowl": 3502,
      "rot": 3503,
      "seconds": 3504,
      "temple": 3505,
      "mast": 3506,
      "strike": 3507,
      "offensive": 3508,
      "dang": 3509,
      "concent": 3510,
      "ireland": 3511,
      "mine": 3512,
      "residents": 3513,
      "filming": 3514,
      "sense": 3515,
      "catholic": 3516,
      "organized": 3517,
      "beyond": 3518,
      "gary": 3519,
      "landing": 3520,
      "americans": 3521,
      "bid": 3522,
      "gi": 3523,
      "nan": 3524,
      "ological": 3525,
      "rum": 3526,
      "ems": 3527,
      "iza": 3528,
      "paris": 3529,
      "1945": 3530,
      "italy": 3531,
      "liver": 3532,
      "encour": 3533,
      "attend": 3534,
      "phone": 3535,
      "appearances": 3536,
      "43": 3537,
      "76": 3538,
      "ov": 3539,
      "pin": 3540,
      "acu": 3541,
      "ody": 3542,
      "setting": 3543,
      "instrument": 3544,
      "41": 3545,
      "ridge": 3546,
      "store": 3547,
      "contest": 3548,
      "miss": 3549,
      "owner": 3550,
      "custom": 3551,
      "cers": 3552,
      "tan": 3553,
      "madonna": 3554,
      "hair": 3555,
      "agu": 3556,
      "motor": 3557,
      "commissioned": 3558,
      "weapons": 3559,
      "widely": 3560,
      "bly": 3561,
      "types": 3562,
      "capture": 3563,
      "gained": 3564,
      "jes": 3565,
      "ki": 3566,
      "ku": 3567,
      "arthur": 3568,
      "homer": 3569,
      "stephen": 3570,
      "cert": 3571,
      "affair": 3572,
      "looking": 3573,
      "injury": 3574,
      "bishop": 3575,
      "bart": 3576,
      "illustr": 3577,
      "apparent": 3578,
      "ahead": 3579,
      "advert": 3580,
      "proved": 3581,
      "gets": 3582,
      "suppl": 3583,
      "reaching": 3584,
      "swed": 3585,
      "victoria": 3586,
      "bbc": 3587,
      "results": 3588,
      "occasion": 3589,
      "egy": 3590,
      "nations": 3591,
      "ami": 3592,
      "shell": 3593,
      "manu": 3594,
      "foc": 3595,
      "speech": 3596,
      "choice": 3597,
      "lic": 3598,
      "sought": 3599,
      "ories": 3600,
      "appoint": 3601,
      "pedo": 3602,
      "question": 3603,
      "growth": 3604,
      "split": 3605,
      "usual": 3606,
      "uled": 3607,
      "express": 3608,
      "doing": 3609,
      "push": 3610,
      "editor": 3611,
      "drawn": 3612,
      "headquarters": 3613,
      "causing": 3614,
      "designated": 3615,
      "mut": 3616,
      "stay": 3617,
      "preser": 3618,
      "torpedo": 3619,
      "historian": 3620,
      "expans": 3621,
      "croat": 3622,
      "officially": 3623,
      "horses": 3624,
      "iated": 3625,
      "leon": 3626,
      "core": 3627,
      "aga": 3628,
      "shel": 3629,
      "divided": 3630,
      "versions": 3631,
      "baseball": 3632,
      "gill": 3633,
      "paper": 3634,
      "sac": 3635,
      "ato": 3636,
      "atom": 3637,
      "armor": 3638,
      "attach": 3639,
      "condition": 3640,
      "rush": 3641,
      "moment": 3642,
      "share": 3643,
      "steam": 3644,
      "ero": 3645,
      "athlet": 3646,
      "150": 3647,
      "1940": 3648,
      "famous": 3649,
      "value": 3650,
      "powerful": 3651,
      "reference": 3652,
      "conflict": 3653,
      "invasion": 3654,
      "66": 3655,
      "apart": 3656,
      "metro": 3657,
      "awa": 3658,
      "leaders": 3659,
      "soundtrack": 3660,
      "pieces": 3661,
      "lb": 3662,
      "sie": 3663,
      "minim": 3664,
      "compar": 3665,
      "glass": 3666,
      "influenced": 3667,
      "escape": 3668,
      "why": 3669,
      "volume": 3670,
      "returning": 3671,
      "ounds": 3672,
      "otto": 3673,
      "trees": 3674,
      "95": 3675,
      "zone": 3676,
      "isation": 3677,
      "heavily": 3678,
      "negot": 3679,
      "poly": 3680,
      "assa": 3681,
      "dream": 3682,
      "hat": 3683,
      "aspect": 3684,
      "toward": 3685,
      "mainly": 3686,
      "successfully": 3687,
      "oxford": 3688,
      "maximum": 3689,
      "rhy": 3690,
      "shap": 3691,
      "crash": 3692,
      "1943": 3693,
      "treatment": 3694,
      "figures": 3695,
      "expedition": 3696,
      "tay": 3697,
      "worldwide": 3698,
      "supply": 3699,
      "walls": 3700,
      "capacity": 3701,
      "manufact": 3702,
      "cine": 3703,
      "irish": 3704,
      "heard": 3705,
      "1920": 3706,
      "brook": 3707,
      "brothers": 3708,
      "challeng": 3709,
      "technology": 3710,
      "shore": 3711,
      "polish": 3712,
      "sources": 3713,
      "channel": 3714,
      "aling": 3715,
      "plants": 3716,
      "actress": 3717,
      "spread": 3718,
      "floor": 3719,
      "historic": 3720,
      "dutch": 3721,
      "avoid": 3722,
      "sid": 3723,
      "eliza": 3724,
      "offer": 3725,
      "charts": 3726,
      "stood": 3727,
      "nominated": 3728,
      "egypt": 3729,
      "element": 3730,
      "struck": 3731,
      "activities": 3732,
      "battleship": 3733,
      "carolina": 3734,
      "computer": 3735,
      "apped": 3736,
      "ulations": 3737,
      "matter": 3738,
      "voted": 3739,
      "billion": 3740,
      "represented": 3741,
      "rainfall": 3742,
      "couple": 3743,
      "dete": 3744,
      "plement": 3745,
      "industrial": 3746,
      "aid": 3747,
      "wy": 3748,
      "sust": 3749,
      "opin": 3750,
      "cricket": 3751,
      "senate": 3752,
      "label": 3753,
      "hotel": 3754,
      "fiction": 3755,
      "roof": 3756,
      "unknown": 3757,
      "disco": 3758,
      "iverse": 3759,
      "multi": 3760,
      "assemb": 3761,
      "nav": 3762,
      "narr": 3763,
      "lyn": 3764,
      "supre": 3765,
      "mem": 3766,
      "formula": 3767,
      "phas": 3768,
      "seasons": 3769,
      "equipment": 3770,
      "twelve": 3771,
      "imen": 3772,
      "ider": 3773,
      "extra": 3774,
      "opposed": 3775,
      "analys": 3776,
      "ec": 3777,
      "eas": 3778,
      "ror": 3779,
      "imag": 3780,
      "workers": 3781,
      "personnel": 3782,
      "frequently": 3783,
      "reserve": 3784,
      "gers": 3785,
      "aly": 3786,
      "leaves": 3787,
      "chi": 3788,
      "perman": 3789,
      "bodies": 3790,
      "classic": 3791,
      "freed": 3792,
      "explained": 3793,
      "necessary": 3794,
      "fired": 3795,
      "visited": 3796,
      "gment": 3797,
      "anta": 3798,
      "notable": 3799,
      "growing": 3800,
      "1989": 3801,
      "rise": 3802,
      "reign": 3803,
      "atures": 3804,
      "boys": 3805,
      "claims": 3806,
      "philoso": 3807,
      "eyes": 3808,
      "accident": 3809,
      "ji": 3810,
      "mist": 3811,
      "perfect": 3812,
      "laid": 3813,
      "graphic": 3814,
      "rect": 3815,
      "ols": 3816,
      "comic": 3817,
      "homes": 3818,
      "broken": 3819,
      "sites": 3820,
      "honour": 3821,
      "judge": 3822,
      "prominent": 3823,
      "600": 3824,
      "dog": 3825,
      "normal": 3826,
      "producers": 3827,
      "techni": 3828,
      "page": 3829,
      "snow": 3830,
      "von": 3831,
      "entr": 3832,
      "dry": 3833,
      "scar": 3834,
      "animal": 3835,
      "argued": 3836,
      "caval": 3837,
      "jul": 3838,
      "anne": 3839,
      "boats": 3840,
      "intend": 3841,
      "1960s": 3842,
      "justice": 3843,
      "girls": 3844,
      "negative": 3845,
      "kel": 3846,
      "stations": 3847,
      "arrange": 3848,
      "measure": 3849,
      "library": 3850,
      "lun": 3851,
      "rit": 3852,
      "vot": 3853,
      "mentioned": 3854,
      "1980s": 3855,
      "1970s": 3856,
      "require": 3857,
      "defend": 3858,
      "typically": 3859,
      "integr": 3860,
      "ckey": 3861,
      "moon": 3862,
      "legisl": 3863,
      "comedy": 3864,
      "78": 3865,
      "pap": 3866,
      "composition": 3867,
      "none": 3868,
      "tric": 3869,
      "advant": 3870,
      "advanced": 3871,
      "micro": 3872,
      "cart": 3873,
      "reports": 3874,
      "asia": 3875,
      "grew": 3876,
      "ledge": 3877,
      "simply": 3878,
      "hands": 3879,
      "happen": 3880,
      "56": 3881,
      "fare": 3882,
      "fuel": 3883,
      "theless": 3884,
      "emphas": 3885,
      "golden": 3886,
      "newspaper": 3887,
      "atmo": 3888,
      "drama": 3889,
      "skill": 3890,
      "vania": 3891,
      "dur": 3892,
      "risk": 3893,
      "hang": 3894,
      "maintained": 3895,
      "transl": 3896,
      "vote": 3897,
      "rolling": 3898,
      "incident": 3899,
      "ito": 3900,
      "article": 3901,
      "elling": 3902,
      "speak": 3903,
      "trying": 3904,
      "cock": 3905,
      "sher": 3906,
      "ifying": 3907,
      "jersey": 3908,
      "promoted": 3909,
      "degree": 3910,
      "branch": 3911,
      "generation": 3912,
      "passes": 3913,
      "casual": 3914,
      "powers": 3915,
      "reven": 3916,
      "ingu": 3917,
      "operated": 3918,
      "chosen": 3919,
      "mounted": 3920,
      "tells": 3921,
      "nuclear": 3922,
      "families": 3923,
      "wounded": 3924,
      "dial": 3925,
      "yu": 3926,
      "tered": 3927,
      "struction": 3928,
      "failure": 3929,
      "meanwhile": 3930,
      "wilson": 3931,
      "problem": 3932,
      "uit": 3933,
      "feed": 3934,
      "holly": 3935,
      "experiment": 3936,
      "gor": 3937,
      "istan": 3938,
      "expansion": 3939,
      "mn": 3940,
      "sle": 3941,
      "cool": 3942,
      "disc": 3943,
      "flooding": 3944,
      "taylor": 3945,
      "lives": 3946,
      "throw": 3947,
      "centuries": 3948,
      "max": 3949,
      "gameplay": 3950,
      "surrender": 3951,
      "trip": 3952,
      "weekly": 3953,
      "killing": 3954,
      "territor": 3955,
      "58": 3956,
      "fine": 3957,
      "vice": 3958,
      "sets": 3959,
      "crime": 3960,
      "fred": 3961,
      "jeff": 3962,
      "themes": 3963,
      "fields": 3964,
      "debuted": 3965,
      "fix": 3966,
      "republican": 3967,
      "meters": 3968,
      "youth": 3969,
      "palace": 3970,
      "website": 3971,
      "77": 3972,
      "ets": 3973,
      "hay": 3974,
      "bra": 3975,
      "fresh": 3976,
      "straight": 3977,
      "gain": 3978,
      "ari": 3979,
      "newly": 3980,
      "99": 3981,
      "lying": 3982,
      "spain": 3983,
      "contained": 3984,
      "soft": 3985,
      "category": 3986,
      "crossing": 3987,
      "disease": 3988,
      "assembly": 3989,
      "phia": 3990,
      "cannot": 3991,
      "filmed": 3992,
      "locations": 3993,
      "participated": 3994,
      "data": 3995,
      "mate": 3996,
      "tel": 3997,
      "warr": 3998,
      "rear": 3999,
      "stal": 4000,
      "consecut": 4001,
      "grav": 4002,
      "heads": 4003,
      "kir": 4004,
      "losing": 4005,
      "expressed": 4006,
      "goes": 4007,
      "convention": 4008,
      "cavalry": 4009,
      "64": 4010,
      "hits": 4011,
      "pine": 4012,
      "strip": 4013,
      "mike": 4014,
      "protection": 4015,
      "consisted": 4016,
      "launch": 4017,
      "budget": 4018,
      "elizabeth": 4019,
      "ares": 4020,
      "soul": 4021,
      "ota": 4022,
      "1988": 4023,
      "mount": 4024,
      "teenth": 4025,
      "dated": 4026,
      "egg": 4027,
      "shop": 4028,
      "calls": 4029,
      "experienced": 4030,
      "currently": 4031,
      "adapt": 4032,
      "vehicles": 4033,
      "rome": 4034,
      "ils": 4035,
      "note": 4036,
      "oppos": 4037,
      "serving": 4038,
      "supporting": 4039,
      "abandoned": 4040,
      "iations": 4041,
      "yo": 4042,
      "cked": 4043,
      "titles": 4044,
      "ots": 4045,
      "rif": 4046,
      "wave": 4047,
      "discover": 4048,
      "aired": 4049,
      "1985": 4050,
      "hydro": 4051,
      "facilities": 4052,
      "baby": 4053,
      "surrounding": 4054,
      "safety": 4055,
      "windows": 4056,
      "dip": 4057,
      "arc": 4058,
      "chor": 4059,
      "elev": 4060,
      "seventh": 4061,
      "consecutive": 4062,
      "kick": 4063,
      "kee": 4064,
      "extensive": 4065,
      "prefer": 4066,
      "1987": 4067,
      "trust": 4068,
      "regarded": 4069,
      "opposition": 4070,
      "anton": 4071,
      "firm": 4072,
      "visual": 4073,
      "eleven": 4074,
      "recently": 4075,
      "scheduled": 4076,
      "bil": 4077,
      "lev": 4078,
      "unlike": 4079,
      "adult": 4080,
      "shad": 4081,
      "joint": 4082,
      "follows": 4083,
      "economy": 4084,
      "briefly": 4085,
      "dollar": 4086,
      "supreme": 4087,
      "kid": 4088,
      "lind": 4089,
      "encounter": 4090,
      "chose": 4091,
      "accompan": 4092,
      "contact": 4093,
      "jewish": 4094,
      "1986": 4095,
      "description": 4096,
      "believe": 4097,
      "bach": 4098,
      "iter": 4099,
      "treaty": 4100,
      "literature": 4101,
      "iny": 4102,
      "hear": 4103,
      "1990s": 4104,
      "province": 4105,
      "1967": 4106,
      "leadership": 4107,
      "analysis": 4108,
      "din": 4109,
      "kn": 4110,
      "rand": 4111,
      "distingu": 4112,
      "approved": 4113,
      "pursu": 4114,
      "banks": 4115,
      "achieved": 4116,
      "occupied": 4117,
      "performing": 4118,
      "garr": 4119,
      "bru": 4120,
      "compil": 4121,
      "creating": 4122,
      "interchange": 4123,
      "letters": 4124,
      "academ": 4125,
      "accompanied": 4126,
      "xon": 4127,
      "evacu": 4128,
      "poll": 4129,
      "merch": 4130,
      "severe": 4131,
      "headed": 4132,
      "roll": 4133,
      "1968": 4134,
      "haps": 4135,
      "institute": 4136,
      "picture": 4137,
      "ria": 4138,
      "agan": 4139,
      "hockey": 4140,
      "1979": 4141,
      "christmas": 4142,
      "twice": 4143,
      "connected": 4144,
      "principal": 4145,
      "determined": 4146,
      "tend": 4147,
      "perhaps": 4148,
      "granted": 4149,
      "collap": 4150,
      "finish": 4151,
      "paralle": 4152,
      "continent": 4153,
      "ancing": 4154,
      "motional": 4155,
      "colonel": 4156,
      "piano": 4157,
      "ulty": 4158,
      "hope": 4159,
      "lady": 4160,
      "3rd": 4161,
      "kings": 4162,
      "shor": 4163,
      "herself": 4164,
      "belief": 4165,
      "foundation": 4166,
      "attribut": 4167,
      "pier": 4168,
      "agric": 4169,
      "oppon": 4170,
      "southwest": 4171,
      "1970": 4172,
      "adopted": 4173,
      "ibe": 4174,
      "lau": 4175,
      "zed": 4176,
      "seat": 4177,
      "attle": 4178,
      "cd": 4179,
      "fought": 4180,
      "sens": 4181,
      "wart": 4182,
      "reaction": 4183,
      "print": 4184,
      "flat": 4185,
      "cars": 4186,
      "rael": 4187,
      "techn": 4188,
      "defined": 4189,
      "scientific": 4190,
      "fame": 4191,
      "yan": 4192,
      "zy": 4193,
      "insu": 4194,
      "roles": 4195,
      "sem": 4196,
      "singing": 4197,
      "equal": 4198,
      "independence": 4199,
      "resistance": 4200,
      "hart": 4201,
      "seas": 4202,
      "conce": 4203,
      "iet": 4204,
      "ideas": 4205,
      "lers": 4206,
      "rho": 4207,
      "inson": 4208,
      "asc": 4209,
      "corn": 4210,
      "victim": 4211,
      "intelligence": 4212,
      "gives": 4213,
      "rival": 4214,
      "accoun": 4215,
      "brian": 4216,
      "braz": 4217,
      "preced": 4218,
      "burgh": 4219,
      "logist": 4220,
      "constitution": 4221,
      "touchdown": 4222,
      "jay": 4223,
      "raf": 4224,
      "amond": 4225,
      "consul": 4226,
      "regions": 4227,
      "publication": 4228,
      "junction": 4229,
      "laws": 4230,
      "purpose": 4231,
      "alexander": 4232,
      "52": 4233,
      "800": 4234,
      "fro": 4235,
      "escor": 4236,
      "ctic": 4237,
      "views": 4238,
      "authorities": 4239,
      "holding": 4240,
      "assistant": 4241,
      "columbia": 4242,
      "79": 4243,
      "online": 4244,
      "allies": 4245,
      "clark": 4246,
      "prising": 4247,
      "franch": 4248,
      "arrival": 4249,
      "controlled": 4250,
      "gather": 4251,
      "cha": 4252,
      "price": 4253,
      "turns": 4254,
      "basis": 4255,
      "holds": 4256,
      "garden": 4257,
      "pennsyl": 4258,
      "height": 4259,
      "guy": 4260,
      "wars": 4261,
      "relief": 4262,
      "georg": 4263,
      "individuals": 4264,
      "acquired": 4265,
      "chance": 4266,
      "reading": 4267,
      "philadel": 4268,
      "breeding": 4269,
      "hundred": 4270,
      "sters": 4271,
      "dram": 4272,
      "witness": 4273,
      "ome": 4274,
      "ita": 4275,
      "regist": 4276,
      "anything": 4277,
      "1972": 4278,
      "garian": 4279,
      "hms": 4280,
      "ros": 4281,
      "cook": 4282,
      "1946": 4283,
      "olympic": 4284,
      "rapidly": 4285,
      "zen": 4286,
      "inspir": 4287,
      "ario": 4288,
      "anda": 4289,
      "deck": 4290,
      "ques": 4291,
      "didn": 4292,
      "faith": 4293,
      "allows": 4294,
      "sufficient": 4295,
      "temperature": 4296,
      "88": 4297,
      "bing": 4298,
      "kins": 4299,
      "nast": 4300,
      "iday": 4301,
      "1975": 4302,
      "possibly": 4303,
      "daniel": 4304,
      "philadelphia": 4305,
      "kh": 4306,
      "tact": 4307,
      "rejected": 4308,
      "sections": 4309,
      "elimin": 4310,
      "spin": 4311,
      "suppor": 4312,
      "miller": 4313,
      "protect": 4314,
      "protected": 4315,
      "repeated": 4316,
      "ceremony": 4317,
      "wick": 4318,
      "extension": 4319,
      "playstation": 4320,
      "commonly": 4321,
      "simple": 4322,
      "improved": 4323,
      "alternative": 4324,
      "bourne": 4325,
      "scottish": 4326,
      "filled": 4327,
      "cruiser": 4328,
      "jr": 4329,
      "pir": 4330,
      "cles": 4331,
      "product": 4332,
      "missing": 4333,
      "penal": 4334,
      "planning": 4335,
      "francisco": 4336,
      "pennsylvania": 4337,
      "eag": 4338,
      "yl": 4339,
      "bron": 4340,
      "rooms": 4341,
      "democratic": 4342,
      "brazil": 4343,
      "57": 4344,
      "tall": 4345,
      "wic": 4346,
      "agent": 4347,
      "math": 4348,
      "joe": 4349,
      "relations": 4350,
      "raid": 4351,
      "viewed": 4352,
      "receive": 4353,
      "provides": 4354,
      "satis": 4355,
      "reasons": 4356,
      "global": 4357,
      "kilometres": 4358,
      "hired": 4359,
      "ology": 4360,
      "recon": 4361,
      "1918": 4362,
      "ults": 4363,
      "resident": 4364,
      "deliver": 4365,
      "effective": 4366,
      "fighter": 4367,
      "advantage": 4368,
      "inde": 4369,
      "arg": 4370,
      "mayor": 4371,
      "younger": 4372,
      "coastal": 4373,
      "liverpool": 4374,
      "paint": 4375,
      "domestic": 4376,
      "focused": 4377,
      "51": 4378,
      "kong": 4379,
      "zant": 4380,
      "anth": 4381,
      "iments": 4382,
      "herit": 4383,
      "izes": 4384,
      "turning": 4385,
      "finds": 4386,
      "journey": 4387,
      "wrestling": 4388,
      "freedom": 4389,
      "ires": 4390,
      "inth": 4391,
      "iles": 4392,
      "resc": 4393,
      "contain": 4394,
      "containing": 4395,
      "glas": 4396,
      "distribution": 4397,
      "las": 4398,
      "liv": 4399,
      "mam": 4400,
      "oak": 4401,
      "decre": 4402,
      "aste": 4403,
      "desc": 4404,
      "gency": 4405,
      "describes": 4406,
      "diamond": 4407,
      "narrow": 4408,
      "fu": 4409,
      "gulf": 4410,
      "nas": 4411,
      "enge": 4412,
      "aded": 4413,
      "ivity": 4414,
      "conve": 4415,
      "byzant": 4416,
      "1916": 4417,
      "clou": 4418,
      "towns": 4419,
      "entirely": 4420,
      "contributed": 4421,
      "iful": 4422,
      "genus": 4423,
      "defensive": 4424,
      "structures": 4425,
      "cambridge": 4426,
      "prepared": 4427,
      "rever": 4428,
      "regional": 4429,
      "1982": 4430,
      "walk": 4431,
      "regarding": 4432,
      "olympics": 4433,
      "dney": 4434,
      "og": 4435,
      "onc": 4436,
      "accur": 4437,
      "apol": 4438,
      "harry": 4439,
      "credited": 4440,
      "shooting": 4441,
      "fash": 4442,
      "gang": 4443,
      "trou": 4444,
      "beyonc": 4445,
      "conduct": 4446,
      "employed": 4447,
      "evolution": 4448,
      "eighth": 4449,
      "ottoman": 4450,
      "ias": 4451,
      "save": 4452,
      "estate": 4453,
      "poland": 4454,
      "1984": 4455,
      "1939": 4456,
      "retired": 4457,
      "religion": 4458,
      "neighbor": 4459,
      "rub": 4460,
      "plate": 4461,
      "bright": 4462,
      "forming": 4463,
      "adding": 4464,
      "1969": 4465,
      "introduction": 4466,
      "expanded": 4467,
      "kentuck": 4468,
      "knew": 4469,
      "mud": 4470,
      "marks": 4471,
      "secondary": 4472,
      "developing": 4473,
      "selection": 4474,
      "bac": 4475,
      "reput": 4476,
      "cris": 4477,
      "coln": 4478,
      "consists": 4479,
      "opera": 4480,
      "politics": 4481,
      "suggests": 4482,
      "unique": 4483,
      "aer": 4484,
      "advis": 4485,
      "poe": 4486,
      "myster": 4487,
      "1971": 4488,
      "falls": 4489,
      "freeway": 4490,
      "rules": 4491,
      "bottom": 4492,
      "corner": 4493,
      "possess": 4494,
      "publish": 4495,
      "grey": 4496,
      "receiving": 4497,
      "catch": 4498,
      "responded": 4499,
      "challenge": 4500,
      "ligh": 4501,
      "lif": 4502,
      "rig": 4503,
      "repl": 4504,
      "recru": 4505,
      "illa": 4506,
      "18th": 4507,
      "sions": 4508,
      "1964": 4509,
      "swim": 4510,
      "involve": 4511,
      "kim": 4512,
      "ost": 4513,
      "itude": 4514,
      "withdraw": 4515,
      "mode": 4516,
      "1914": 4517,
      "proto": 4518,
      "lincoln": 4519,
      "carey": 4520,
      "87": 4521,
      "rout": 4522,
      "code": 4523,
      "exact": 4524,
      "iana": 4525,
      "dub": 4526,
      "wright": 4527,
      "criticism": 4528,
      "kat": 4529,
      "mol": 4530,
      "lewis": 4531,
      "utions": 4532,
      "foss": 4533,
      "closely": 4534,
      "missions": 4535,
      "satur": 4536,
      "intensity": 4537,
      "happy": 4538,
      "casualties": 4539,
      "59": 4540,
      "wings": 4541,
      "arrang": 4542,
      "moral": 4543,
      "legacy": 4544,
      "slav": 4545,
      "significantly": 4546,
      "iring": 4547,
      "shape": 4548,
      "resour": 4549,
      "iant": 4550,
      "internal": 4551,
      "roughly": 4552,
      "clean": 4553,
      "championships": 4554,
      "bann": 4555,
      "isol": 4556,
      "entry": 4557,
      "poet": 4558,
      "crimin": 4559,
      "basket": 4560,
      "rupt": 4561,
      "opportunity": 4562,
      "120": 4563,
      "enc": 4564,
      "semi": 4565,
      "ura": 4566,
      "treated": 4567,
      "bands": 4568,
      "explor": 4569,
      "siege": 4570,
      "54": 4571,
      "86": 4572,
      "ogue": 4573,
      "ini": 4574,
      "alan": 4575,
      "outer": 4576,
      "ads": 4577,
      "acres": 4578,
      "iger": 4579,
      "fron": 4580,
      "placing": 4581,
      "photograph": 4582,
      "hanna": 4583,
      "ride": 4584,
      "wan": 4585,
      "remix": 4586,
      "exchange": 4587,
      "professor": 4588,
      "literary": 4589,
      "israel": 4590,
      "fran": 4591,
      "products": 4592,
      "russia": 4593,
      "applied": 4594,
      "dedicated": 4595,
      "environmental": 4596,
      "chemical": 4597,
      "caught": 4598,
      "link": 4599,
      "peninsu": 4600,
      "knowledge": 4601,
      "prisoners": 4602,
      "portray": 4603,
      "converted": 4604,
      "kentucky": 4605,
      "bou": 4606,
      "dates": 4607,
      "nis": 4608,
      "nintend": 4609,
      "neut": 4610,
      "ables": 4611,
      "playoff": 4612,
      "genet": 4613,
      "1980": 4614,
      "breaking": 4615,
      "dynast": 4616,
      "solar": 4617,
      "solid": 4618,
      "target": 4619,
      "learned": 4620,
      "nintendo": 4621,
      "iar": 4622,
      "nhl": 4623,
      "1915": 4624,
      "typical": 4625,
      "jean": 4626,
      "starts": 4627,
      "hollywood": 4628,
      "nie": 4629,
      "belong": 4630,
      "limit": 4631,
      "distinct": 4632,
      "89": 4633,
      "tag": 4634,
      "superi": 4635,
      "promotion": 4636,
      "declined": 4637,
      "projects": 4638,
      "railroad": 4639,
      "existing": 4640,
      "climate": 4641,
      "scholar": 4642,
      "settlement": 4643,
      "gone": 4644,
      "jok": 4645,
      "genre": 4646,
      "inton": 4647,
      "lasted": 4648,
      "250": 4649,
      "enem": 4650,
      "mono": 4651,
      "patrol": 4652,
      "everything": 4653,
      "cells": 4654,
      "substant": 4655,
      "chamber": 4656,
      "gord": 4657,
      "ano": 4658,
      "ador": 4659,
      "capable": 4660,
      "appeal": 4661,
      "1976": 4662,
      "decade": 4663,
      "depth": 4664,
      "sounds": 4665,
      "exclus": 4666,
      "dale": 4667,
      "classical": 4668,
      "basic": 4669,
      "violence": 4670,
      "tren": 4671,
      "elder": 4672,
      "apore": 4673,
      "astron": 4674,
      "formal": 4675,
      "tense": 4676,
      "charged": 4677,
      "producing": 4678,
      "sche": 4679,
      "ifications": 4680,
      "popularity": 4681,
      "giant": 4682,
      "task": 4683,
      "terior": 4684,
      "utc": 4685,
      "abs": 4686,
      "prot": 4687,
      "singapore": 4688,
      "writes": 4689,
      "evening": 4690,
      "strengthen": 4691,
      "proposal": 4692,
      "invent": 4693,
      "orient": 4694,
      "stret": 4695,
      "aces": 4696,
      "whit": 4697,
      "earl": 4698,
      "programs": 4699,
      "gradually": 4700,
      "engineer": 4701,
      "platform": 4702,
      "architecture": 4703,
      "remo": 4704,
      "phase": 4705,
      "symp": 4706,
      "steve": 4707,
      "1965": 4708,
      "campus": 4709,
      "investigation": 4710,
      "objects": 4711,
      "enjoyed": 4712,
      "athen": 4713,
      "ients": 4714,
      "unte": 4715,
      "sud": 4716,
      "display": 4717,
      "buried": 4718,
      "volunte": 4719,
      "grounds": 4720,
      "losses": 4721,
      "credit": 4722,
      "controvers": 4723,
      "ohio": 4724,
      "andrew": 4725,
      "67": 4726,
      "cens": 4727,
      "decor": 4728,
      "abilities": 4729,
      "holy": 4730,
      "assess": 4731,
      "frag": 4732,
      "rence": 4733,
      "azz": 4734,
      "1983": 4735,
      "premier": 4736,
      "shaped": 4737,
      "md": 4738,
      "bear": 4739,
      "cler": 4740,
      "finals": 4741,
      "engaged": 4742,
      "1966": 4743,
      "storyline": 4744,
      "recognized": 4745,
      "purchased": 4746,
      "1950s": 4747,
      "shadow": 4748,
      "enemies": 4749,
      "lum": 4750,
      "raw": 4751,
      "rural": 4752,
      "onia": 4753,
      "anderson": 4754,
      "strate": 4755,
      "carbon": 4756,
      "junior": 4757,
      "getting": 4758,
      "seems": 4759,
      "62": 4760,
      "foun": 4761,
      "pel": 4762,
      "asks": 4763,
      "aki": 4764,
      "blues": 4765,
      "renamed": 4766,
      "sydney": 4767,
      "decades": 4768,
      "restaur": 4769,
      "trains": 4770,
      "concerns": 4771,
      "graded": 4772,
      "wheel": 4773,
      "details": 4774,
      "peninsula": 4775,
      "lies": 4776,
      "icts": 4777,
      "cot": 4778,
      "compo": 4779,
      "proceed": 4780,
      "willing": 4781,
      "pictures": 4782,
      "extrem": 4783,
      "citizens": 4784,
      "memory": 4785,
      "obl": 4786,
      "stages": 4787,
      "rod": 4788,
      "survey": 4789,
      "operating": 4790,
      "1973": 4791,
      "1974": 4792,
      "walter": 4793,
      "liest": 4794,
      "bath": 4795,
      "bought": 4796,
      "cited": 4797,
      "gay": 4798,
      "sab": 4799,
      "ene": 4800,
      "versy": 4801,
      "warm": 4802,
      "1960": 4803,
      "finding": 4804,
      "armour": 4805,
      "bringing": 4806,
      "message": 4807,
      "controversy": 4808,
      "technical": 4809,
      "quite": 4810,
      "presents": 4811,
      "1948": 4812,
      "grapher": 4813,
      "alien": 4814,
      "symbol": 4815,
      "lets": 4816,
      "expect": 4817,
      "constitut": 4818,
      "purchase": 4819,
      "secure": 4820,
      "camera": 4821,
      "thousands": 4822,
      "hamp": 4823,
      "rivers": 4824,
      "neither": 4825,
      "ava": 4826,
      "achu": 4827,
      "fruit": 4828,
      "monument": 4829,
      "cycle": 4830,
      "divisions": 4831,
      "collected": 4832,
      "incorporated": 4833,
      "entrance": 4834,
      "hr": 4835,
      "leaf": 4836,
      "det": 4837,
      "umes": 4838,
      "actual": 4839,
      "ella": 4840,
      "cape": 4841,
      "borough": 4842,
      "tests": 4843,
      "virt": 4844,
      "davis": 4845,
      "crossed": 4846,
      "weakened": 4847,
      "assault": 4848,
      "stu": 4849,
      "roc": 4850,
      "heim": 4851,
      "agency": 4852,
      "bling": 4853,
      "indones": 4854,
      "valu": 4855,
      "injured": 4856,
      "beautiful": 4857,
      "pup": 4858,
      "ifically": 4859,
      "aka": 4860,
      "designs": 4861,
      "carry": 4862,
      "colonial": 4863,
      "permanent": 4864,
      "composer": 4865,
      "53": 4866,
      "twin": 4867,
      "vul": 4868,
      "isb": 4869,
      "ola": 4870,
      "fear": 4871,
      "landfall": 4872,
      "kenned": 4873,
      "hills": 4874,
      "existence": 4875,
      "throne": 4876,
      "72": 4877,
      "eat": 4878,
      "fing": 4879,
      "hell": 4880,
      "nut": 4881,
      "shark": 4882,
      "exerc": 4883,
      "diss": 4884,
      "evil": 4885,
      "medit": 4886,
      "providing": 4887,
      "1953": 4888,
      "donald": 4889,
      "equival": 4890,
      "indicated": 4891,
      "princess": 4892,
      "adventure": 4893,
      "83": 4894,
      "pure": 4895,
      "shared": 4896,
      "brain": 4897,
      "shear": 4898,
      "borne": 4899,
      "succeeded": 4900,
      "labour": 4901,
      "watched": 4902,
      "retire": 4903,
      "importance": 4904,
      "reduce": 4905,
      "models": 4906,
      "700": 4907,
      "anean": 4908,
      "battery": 4909,
      "connection": 4910,
      "painting": 4911,
      "languages": 4912,
      "synthe": 4913,
      "garrison": 4914,
      "franchise": 4915,
      "4th": 4916,
      "dal": 4917,
      "leton": 4918,
      "deleg": 4919,
      "ipated": 4920,
      "typho": 4921,
      "volcan": 4922,
      "download": 4923,
      "pleas": 4924,
      "mobile": 4925,
      "georgia": 4926,
      "reputation": 4927,
      "nik": 4928,
      "vary": 4929,
      "itz": 4930,
      "heat": 4931,
      "deaths": 4932,
      "universal": 4933,
      "streets": 4934,
      "combination": 4935,
      "chairman": 4936,
      "easily": 4937,
      "kennedy": 4938,
      "albert": 4939,
      "1917": 4940,
      "pear": 4941,
      "compon": 4942,
      "norway": 4943,
      "warning": 4944,
      "setts": 4945,
      "1981": 4946,
      "1961": 4947,
      "1958": 4948,
      "munic": 4949,
      "mountains": 4950,
      "jane": 4951,
      "mers": 4952,
      "tz": 4953,
      "remember": 4954,
      "consequ": 4955,
      "aked": 4956,
      "intersection": 4957,
      "germans": 4958,
      "similarly": 4959,
      "massachu": 4960,
      "engineering": 4961,
      "surviv": 4962,
      "feeling": 4963,
      "loyal": 4964,
      "arrested": 4965,
      "fashion": 4966,
      "basketball": 4967,
      "mous": 4968,
      "ilton": 4969,
      "strateg": 4970,
      "correct": 4971,
      "gene": 4972,
      "1957": 4973,
      "carrying": 4974,
      "municipal": 4975,
      "iro": 4976,
      "mtv": 4977,
      "icon": 4978,
      "sects": 4979,
      "consc": 4980,
      "correspond": 4981,
      "spons": 4982,
      "statement": 4983,
      "1962": 4984,
      "champions": 4985,
      "concerned": 4986,
      "circu": 4987,
      "copy": 4988,
      "inois": 4989,
      "vietnam": 4990,
      "installed": 4991,
      "affairs": 4992,
      "attached": 4993,
      "opinion": 4994,
      "gordon": 4995,
      "ye": 4996,
      "modif": 4997,
      "interior": 4998,
      "shots": 4999,
      "studied": 5000,
      "transition": 5001,
      "skin": 5002,
      "jordan": 5003,
      "classified": 5004,
      "humans": 5005,
      "corporation": 5006,
      "approached": 5007,
      "increasingly": 5008,
      "dynasty": 5009,
      "massachusetts": 5010,
      "conscious": 5011,
      "68": 5012,
      "kur": 5013,
      "andy": 5014,
      "ung": 5015,
      "triple": 5016,
      "illinois": 5017,
      "affect": 5018,
      "buff": 5019,
      "visible": 5020,
      "160": 5021,
      "1977": 5022,
      "1956": 5023,
      "diplo": 5024,
      "rescue": 5025,
      "69": 5026,
      "rian": 5027,
      "females": 5028,
      "prize": 5029,
      "annivers": 5030,
      "medic": 5031,
      "describing": 5032,
      "switch": 5033,
      "discovery": 5034,
      "tip": 5035,
      "uan": 5036,
      "routes": 5037,
      "moore": 5038,
      "ignment": 5039,
      "showing": 5040,
      "simon": 5041,
      "archae": 5042,
      "downtown": 5043,
      "owners": 5044,
      "characteristics": 5045,
      "harmon": 5046,
      "interested": 5047,
      "truth": 5048,
      "issance": 5049,
      "agonist": 5050,
      "debate": 5051,
      "supplies": 5052,
      "dick": 5053,
      "eco": 5054,
      "derived": 5055,
      "spar": 5056,
      "interpret": 5057,
      "cancer": 5058,
      "turk": 5059,
      "causes": 5060,
      "praise": 5061,
      "demol": 5062,
      "superior": 5063,
      "haz": 5064,
      "una": 5065,
      "seek": 5066,
      "nelson": 5067,
      "vehicle": 5068,
      "aspects": 5069,
      "ien": 5070,
      "inity": 5071,
      "brick": 5072,
      "acknow": 5073,
      "prede": 5074,
      "establishment": 5075,
      "extremely": 5076,
      "wre": 5077,
      "stable": 5078,
      "destruction": 5079,
      "wides": 5080,
      "guide": 5081,
      "cancell": 5082,
      "distur": 5083,
      "1954": 5084,
      "ruled": 5085,
      "conservative": 5086,
      "mulder": 5087,
      "anniversary": 5088,
      "iary": 5089,
      "nur": 5090,
      "nich": 5091,
      "naz": 5092,
      "pig": 5093,
      "sort": 5094,
      "universe": 5095,
      "offers": 5096,
      "1978": 5097,
      "sequel": 5098,
      "massive": 5099,
      "confeder": 5100,
      "tunnel": 5101,
      "psycho": 5102,
      "academic": 5103,
      "vac": 5104,
      "income": 5105,
      "unusual": 5106,
      "shed": 5107,
      "presidential": 5108,
      "possibility": 5109,
      "involving": 5110,
      "simpsons": 5111,
      "nings": 5112,
      "retain": 5113,
      "ala": 5114,
      "lemur": 5115,
      "1919": 5116,
      "trig": 5117,
      "margin": 5118,
      "aftermath": 5119,
      "tony": 5120,
      "specifically": 5121,
      "storms": 5122,
      "remainder": 5123,
      "styles": 5124,
      "properties": 5125,
      "korean": 5126,
      "recommended": 5127,
      "orchestra": 5128,
      "61": 5129,
      "bone": 5130,
      "jum": 5131,
      "entially": 5132,
      "ios": 5133,
      "cathe": 5134,
      "sunday": 5135,
      "survived": 5136,
      "maryland": 5137,
      "ratings": 5138,
      "heritage": 5139,
      "acid": 5140,
      "implement": 5141,
      "usa": 5142,
      "ctors": 5143,
      "istol": 5144,
      "gray": 5145,
      "carl": 5146,
      "factory": 5147,
      "murray": 5148,
      "hosted": 5149,
      "assistance": 5150,
      "duties": 5151,
      "1930s": 5152,
      "vessels": 5153,
      "atmosphere": 5154,
      "gol": 5155,
      "lights": 5156,
      "asian": 5157,
      "icate": 5158,
      "entit": 5159,
      "immig": 5160,
      "moves": 5161,
      "1910": 5162,
      "noting": 5163,
      "afterwards": 5164,
      "cking": 5165,
      "speaking": 5166,
      "parish": 5167,
      "1947": 5168,
      "magic": 5169,
      "wonder": 5170,
      "salt": 5171,
      "comparison": 5172,
      "fis": 5173,
      "gres": 5174,
      "hend": 5175,
      "jen": 5176,
      "matt": 5177,
      "punk": 5178,
      "admitted": 5179,
      "images": 5180,
      "ivered": 5181,
      "ulate": 5182,
      "driving": 5183,
      "flash": 5184,
      "winner": 5185,
      "torn": 5186,
      "decline": 5187,
      "looked": 5188,
      "departure": 5189,
      "considerable": 5190,
      "tanks": 5191,
      "thirty": 5192,
      "iber": 5193,
      "retained": 5194,
      "acre": 5195,
      "bran": 5196,
      "dragon": 5197,
      "factor": 5198,
      "strongly": 5199,
      "duty": 5200,
      "settled": 5201,
      "kan": 5202,
      "sic": 5203,
      "ugu": 5204,
      "infl": 5205,
      "rebell": 5206,
      "gross": 5207,
      "delivered": 5208,
      "portrayed": 5209,
      "employe": 5210,
      "sustained": 5211,
      "130": 5212,
      "81": 5213,
      "bt": 5214,
      "jon": 5215,
      "oto": 5216,
      "tied": 5217,
      "inary": 5218,
      "engines": 5219,
      "ibility": 5220,
      "stands": 5221,
      "1938": 5222,
      "nevertheless": 5223,
      "painted": 5224,
      "occurs": 5225,
      "rh": 5226,
      "recalled": 5227,
      "pread": 5228,
      "muslim": 5229,
      "legend": 5230,
      "returns": 5231,
      "1937": 5232,
      "consisting": 5233,
      "emergency": 5234,
      "circulation": 5235,
      "erranean": 5236,
      "arranged": 5237,
      "mediterranean": 5238,
      "widespread": 5239,
      "cathedr": 5240,
      "bang": 5241,
      "pink": 5242,
      "onom": 5243,
      "adam": 5244,
      "devil": 5245,
      "mail": 5246,
      "identity": 5247,
      "classification": 5248,
      "advoc": 5249,
      "terminus": 5250,
      "chapel": 5251,
      "wolf": 5252,
      "candidate": 5253,
      "fold": 5254,
      "nba": 5255,
      "stick": 5256,
      "ivals": 5257,
      "isted": 5258,
      "earliest": 5259,
      "akers": 5260,
      "veland": 5261,
      "dynam": 5262,
      "claiming": 5263,
      "satell": 5264,
      "biography": 5265,
      "stopped": 5266,
      "trials": 5267,
      "liberal": 5268,
      "elsewhere": 5269,
      "occasionally": 5270,
      "wich": 5271,
      "ining": 5272,
      "convin": 5273,
      "shut": 5274,
      "aret": 5275,
      "charges": 5276,
      "ictions": 5277,
      "appropr": 5278,
      "hugh": 5279,
      "bombard": 5280,
      "circum": 5281,
      "replacement": 5282,
      "cum": 5283,
      "lect": 5284,
      "amaz": 5285,
      "cooper": 5286,
      "asser": 5287,
      "scout": 5288,
      "cleveland": 5289,
      "additionally": 5290,
      "graphics": 5291,
      "altern": 5292,
      "navig": 5293,
      "63": 5294,
      "reli": 5295,
      "ione": 5296,
      "antly": 5297,
      "crete": 5298,
      "norman": 5299,
      "driven": 5300,
      "1949": 5301,
      "passage": 5302,
      "funds": 5303,
      "completion": 5304,
      "slowly": 5305,
      "sailed": 5306,
      "inspiration": 5307,
      "rober": 5308,
      "cope": 5309,
      "abor": 5310,
      "frame": 5311,
      "address": 5312,
      "patrick": 5313,
      "posted": 5314,
      "apping": 5315,
      "representative": 5316,
      "sculpt": 5317,
      "behavior": 5318,
      "82": 5319,
      "aj": 5320,
      "thunder": 5321,
      "infr": 5322,
      "amy": 5323,
      "approv": 5324,
      "crim": 5325,
      "monarch": 5326,
      "batting": 5327,
      "1959": 5328,
      "clubs": 5329,
      "entering": 5330,
      "competit": 5331,
      "telling": 5332,
      "nomination": 5333,
      "bure": 5334,
      "omin": 5335,
      "rab": 5336,
      "romantic": 5337,
      "norm": 5338,
      "ansas": 5339,
      "someone": 5340,
      "17th": 5341,
      "belt": 5342,
      "wooden": 5343,
      "chapter": 5344,
      "typhoon": 5345,
      "ule": 5346,
      "inal": 5347,
      "armen": 5348,
      "generated": 5349,
      "crowd": 5350,
      "appointment": 5351,
      "supporters": 5352,
      "94": 5353,
      "hull": 5354,
      "tomb": 5355,
      "adams": 5356,
      "alliance": 5357,
      "wear": 5358,
      "porter": 5359,
      "inet": 5360,
      "disney": 5361,
      "wrong": 5362,
      "sessions": 5363,
      "threatened": 5364,
      "weapon": 5365,
      "conservation": 5366,
      "promise": 5367,
      "votes": 5368,
      "equivalent": 5369,
      "entitled": 5370,
      "110": 5371,
      "tow": 5372,
      "aints": 5373,
      "fee": 5374,
      "bern": 5375,
      "mathem": 5376,
      "drug": 5377,
      "talk": 5378,
      "continuing": 5379,
      "everyone": 5380,
      "circle": 5381,
      "indiana": 5382,
      "resources": 5383,
      "gle": 5384,
      "arsen": 5385,
      "ented": 5386,
      "pope": 5387,
      "coll": 5388,
      "diag": 5389,
      "temperatures": 5390,
      "electronic": 5391,
      "crisis": 5392,
      "84": 5393,
      "gus": 5394,
      "jur": 5395,
      "inum": 5396,
      "orange": 5397,
      "assumed": 5398,
      "iva": 5399,
      "consum": 5400,
      "comfort": 5401,
      "stri": 5402,
      "worst": 5403,
      "puer": 5404,
      "animated": 5405,
      "bridges": 5406,
      "jesus": 5407,
      "chorus": 5408,
      "predecess": 5409,
      "bag": 5410,
      "pav": 5411,
      "rice": 5412,
      "rates": 5413,
      "recovered": 5414,
      "agues": 5415,
      "nether": 5416,
      "classes": 5417,
      "rug": 5418,
      "programme": 5419,
      "instruments": 5420,
      "lion": 5421,
      "dean": 5422,
      "wearing": 5423,
      "parties": 5424,
      "committed": 5425,
      "colony": 5426,
      "dangerous": 5427,
      "wickets": 5428,
      "5th": 5429,
      "71": 5430,
      "eral": 5431,
      "enix": 5432,
      "stones": 5433,
      "noon": 5434,
      "commemor": 5435,
      "poem": 5436,
      "excell": 5437,
      "kevin": 5438,
      "grass": 5439,
      "1963": 5440,
      "denied": 5441,
      "commanded": 5442,
      "1935": 5443,
      "spoke": 5444,
      "promote": 5445,
      "attributed": 5446,
      "ole": 5447,
      "sale": 5448,
      "atro": 5449,
      "icit": 5450,
      "mole": 5451,
      "manner": 5452,
      "marke": 5453,
      "courts": 5454,
      "effectively": 5455,
      "cruisers": 5456,
      "hundreds": 5457,
      "passenger": 5458,
      "6th": 5459,
      "pole": 5460,
      "clar": 5461,
      "lith": 5462,
      "freder": 5463,
      "izations": 5464,
      "flank": 5465,
      "parks": 5466,
      "ette": 5467,
      "12th": 5468,
      "1955": 5469,
      "falling": 5470,
      "accused": 5471,
      "beatles": 5472,
      "administr": 5473,
      "controversial": 5474,
      "dio": 5475,
      "instru": 5476,
      "items": 5477,
      "abol": 5478,
      "veter": 5479,
      "dock": 5480,
      "miami": 5481,
      "keeping": 5482,
      "byzantine": 5483,
      "fict": 5484,
      "erce": 5485,
      "chain": 5486,
      "agas": 5487,
      "buy": 5488,
      "thereafter": 5489,
      "deplo": 5490,
      "batman": 5491,
      "1933": 5492,
      "costs": 5493,
      "audio": 5494,
      "legislat": 5495,
      "shield": 5496,
      "cathedral": 5497,
      "74": 5498,
      "stro": 5499,
      "conv": 5500,
      "abbey": 5501,
      "opt": 5502,
      "udes": 5503,
      "influences": 5504,
      "douglas": 5505,
      "separated": 5506,
      "funding": 5507,
      "immediate": 5508,
      "exception": 5509,
      "sweet": 5510,
      "strategy": 5511,
      "73": 5512,
      "dating": 5513,
      "knight": 5514,
      "inhabit": 5515,
      "reform": 5516,
      "appre": 5517,
      "pled": 5518,
      "clinton": 5519,
      "auth": 5520,
      "veget": 5521,
      "desert": 5522,
      "covering": 5523,
      "politic": 5524,
      "seeing": 5525,
      "invited": 5526,
      "regularly": 5527,
      "recognition": 5528,
      "responsibility": 5529,
      "mexican": 5530,
      "surrounded": 5531,
      "astronom": 5532,
      "dd": 5533,
      "dimen": 5534,
      "ninth": 5535,
      "tone": 5536,
      "insur": 5537,
      "isms": 5538,
      "ayer": 5539,
      "quant": 5540,
      "acks": 5541,
      "13th": 5542,
      "ministry": 5543,
      "emerged": 5544,
      "premiere": 5545,
      "joining": 5546,
      "passengers": 5547,
      "rhyth": 5548,
      "informed": 5549,
      "deem": 5550,
      "boil": 5551,
      "priest": 5552,
      "internet": 5553,
      "raise": 5554,
      "hypo": 5555,
      "hamilton": 5556,
      "facility": 5557,
      "hungarian": 5558,
      "historians": 5559,
      "representatives": 5560,
      "adapted": 5561,
      "sleep": 5562,
      "parallel": 5563,
      "puerto": 5564,
      "96": 5565,
      "hil": 5566,
      "unsuccessful": 5567,
      "begun": 5568,
      "hole": 5569,
      "joy": 5570,
      "medie": 5571,
      "submarine": 5572,
      "deput": 5573,
      "differences": 5574,
      "reviewers": 5575,
      "1936": 5576,
      "carrier": 5577,
      "animation": 5578,
      "accounts": 5579,
      "ware": 5580,
      "ales": 5581,
      "argent": 5582,
      "eline": 5583,
      "apt": 5584,
      "howard": 5585,
      "prised": 5586,
      "dismissed": 5587,
      "carter": 5588,
      "offices": 5589,
      "communist": 5590,
      "harris": 5591,
      "injuries": 5592,
      "circuit": 5593,
      "turkish": 5594,
      "7th": 5595,
      "poses": 5596,
      "16th": 5597,
      "helm": 5598,
      "township": 5599,
      "interests": 5600,
      "fishing": 5601,
      "transportation": 5602,
      "ez": 5603,
      "gap": 5604,
      "jet": 5605,
      "uct": 5606,
      "alab": 5607,
      "iser": 5608,
      "mario": 5609,
      "finishing": 5610,
      "releases": 5611,
      "drums": 5612,
      "distributed": 5613,
      "stanley": 5614,
      "aire": 5615,
      "hut": 5616,
      "chess": 5617,
      "adults": 5618,
      "oldest": 5619,
      "neck": 5620,
      "fried": 5621,
      "somewhat": 5622,
      "hunting": 5623,
      "eggs": 5624,
      "encies": 5625,
      "medieval": 5626,
      "pale": 5627,
      "enters": 5628,
      "lose": 5629,
      "shif": 5630,
      "cript": 5631,
      "grave": 5632,
      "maria": 5633,
      "norwe": 5634,
      "intent": 5635,
      "1952": 5636,
      "hitler": 5637,
      "aboard": 5638,
      "welsh": 5639,
      "journalist": 5640,
      "pattern": 5641,
      "certified": 5642,
      "territories": 5643,
      "poetry": 5644,
      "modified": 5645,
      "pm": 5646,
      "thel": 5647,
      "retr": 5648,
      "alco": 5649,
      "cement": 5650,
      "shir": 5651,
      "absor": 5652,
      "dot": 5653,
      "pha": 5654,
      "1951": 5655,
      "references": 5656,
      "attempting": 5657,
      "reinforce": 5658,
      "roger": 5659,
      "accom": 5660,
      "coin": 5661,
      "impressed": 5662,
      "shu": 5663,
      "ultural": 5664,
      "weigh": 5665,
      "homo": 5666,
      "angle": 5667,
      "musicians": 5668,
      "populations": 5669,
      "communities": 5670,
      "movements": 5671,
      "convection": 5672,
      "dens": 5673,
      "hone": 5674,
      "hatt": 5675,
      "vit": 5676,
      "yi": 5677,
      "aska": 5678,
      "aco": 5679,
      "forcing": 5680,
      "apers": 5681,
      "formally": 5682,
      "iot": 5683,
      "morgan": 5684,
      "testing": 5685,
      "reviewer": 5686,
      "horror": 5687,
      "commonwealth": 5688,
      "continental": 5689,
      "hann": 5690,
      "oted": 5691,
      "plus": 5692,
      "excess": 5693,
      "attor": 5694,
      "monitor": 5695,
      "anger": 5696,
      "scand": 5697,
      "underground": 5698,
      "biggest": 5699,
      "sweden": 5700,
      "gression": 5701,
      "iors": 5702,
      "ento": 5703,
      "segment": 5704,
      "accompl": 5705,
      "wet": 5706,
      "mental": 5707,
      "outstanding": 5708,
      "ryan": 5709,
      "facing": 5710,
      "column": 5711,
      "thology": 5712,
      "fighters": 5713,
      "alleged": 5714,
      "rhodes": 5715,
      "3d": 5716,
      "tie": 5717,
      "remn": 5718,
      "1926": 5719,
      "bristol": 5720,
      "pron": 5721,
      "portra": 5722,
      "otherwise": 5723,
      "obtained": 5724,
      "relationships": 5725,
      "assem": 5726,
      "gon": 5727,
      "hud": 5728,
      "mates": 5729,
      "mov": 5730,
      "aux": 5731,
      "liked": 5732,
      "creative": 5733,
      "fled": 5734,
      "regon": 5735,
      "ultane": 5736,
      "simultane": 5737,
      "appearing": 5738,
      "faces": 5739,
      "fisher": 5740,
      "favorite": 5741,
      "colorado": 5742,
      "scientists": 5743,
      "encouraged": 5744,
      "penalty": 5745,
      "norwegian": 5746,
      "theater": 5747,
      "erup": 5748,
      "rebel": 5749,
      "allen": 5750,
      "hoped": 5751,
      "rent": 5752,
      "novels": 5753,
      "zero": 5754,
      "victims": 5755,
      "blow": 5756,
      "hav": 5757,
      "oregon": 5758,
      "stayed": 5759,
      "shakes": 5760,
      "aug": 5761,
      "intention": 5762,
      "senator": 5763,
      "harbor": 5764,
      "measures": 5765,
      "suitable": 5766,
      "restored": 5767,
      "happened": 5768,
      "eagle": 5769,
      "satellite": 5770,
      "yon": 5771,
      "infe": 5772,
      "itzer": 5773,
      "chick": 5774,
      "oles": 5775,
      "1927": 5776,
      "ongo": 5777,
      "desire": 5778,
      "reality": 5779,
      "moderate": 5780,
      "attracted": 5781,
      "guardian": 5782,
      "examples": 5783,
      "distinguished": 5784,
      "fictional": 5785,
      "pes": 5786,
      "swi": 5787,
      "orb": 5788,
      "coins": 5789,
      "persu": 5790,
      "prey": 5791,
      "driver": 5792,
      "tenance": 5793,
      "shock": 5794,
      "aza": 5795,
      "magn": 5796,
      "device": 5797,
      "smooth": 5798,
      "korea": 5799,
      "opposite": 5800,
      "involvement": 5801,
      "genetic": 5802,
      "arsenal": 5803,
      "hid": 5804,
      "nfl": 5805,
      "uous": 5806,
      "wag": 5807,
      "pros": 5808,
      "mint": 5809,
      "carto": 5810,
      "rust": 5811,
      "politan": 5812,
      "russell": 5813,
      "representing": 5814,
      "suffering": 5815,
      "budd": 5816,
      "habitat": 5817,
      "bruce": 5818,
      "acknowled": 5819,
      "authors": 5820,
      "mck": 5821,
      "sight": 5822,
      "cott": 5823,
      "bean": 5824,
      "convoy": 5825,
      "shr": 5826,
      "anny": 5827,
      "calcul": 5828,
      "greatly": 5829,
      "communication": 5830,
      "profit": 5831,
      "bull": 5832,
      "drawing": 5833,
      "analy": 5834,
      "occasions": 5835,
      "bian": 5836,
      "pc": 5837,
      "arn": 5838,
      "aria": 5839,
      "toms": 5840,
      "ingly": 5841,
      "amend": 5842,
      "suic": 5843,
      "outbreak": 5844,
      "phr": 5845,
      "grown": 5846,
      "symph": 5847,
      "jews": 5848,
      "balance": 5849,
      "laboratory": 5850,
      "fitted": 5851,
      "apparently": 5852,
      "dum": 5853,
      "easy": 5854,
      "hind": 5855,
      "intense": 5856,
      "ancy": 5857,
      "sees": 5858,
      "impl": 5859,
      "clip": 5860,
      "stron": 5861,
      "string": 5862,
      "belg": 5863,
      "delayed": 5864,
      "queens": 5865,
      "needs": 5866,
      "forests": 5867,
      "seemed": 5868,
      "lennon": 5869,
      "requested": 5870,
      "scully": 5871,
      "satisf": 5872,
      "roberts": 5873,
      "normally": 5874,
      "deployed": 5875,
      "emotional": 5876,
      "send": 5877,
      "moments": 5878,
      "tri": 5879,
      "matthe": 5880,
      "treas": 5881,
      "terror": 5882,
      "racing": 5883,
      "learn": 5884,
      "learning": 5885,
      "techniques": 5886,
      "livan": 5887,
      "gren": 5888,
      "hans": 5889,
      "lisa": 5890,
      "pounds": 5891,
      "wig": 5892,
      "wine": 5893,
      "timber": 5894,
      "portions": 5895,
      "maintenance": 5896,
      "wins": 5897,
      "14th": 5898,
      "concern": 5899,
      "retirement": 5900,
      "approval": 5901,
      "pike": 5902,
      "vs": 5903,
      "irs": 5904,
      "promp": 5905,
      "somer": 5906,
      "phill": 5907,
      "drag": 5908,
      "evans": 5909,
      "ulture": 5910,
      "bats": 5911,
      "soldier": 5912,
      "hungary": 5913,
      "surviving": 5914,
      "difficulty": 5915,
      "extreme": 5916,
      "starred": 5917,
      "preferred": 5918,
      "alabama": 5919,
      "ders": 5920,
      "diver": 5921,
      "kit": 5922,
      "pson": 5923,
      "resem": 5924,
      "bee": 5925,
      "lod": 5926,
      "metric": 5927,
      "grace": 5928,
      "relative": 5929,
      "trophy": 5930,
      "sullivan": 5931,
      "occupation": 5932,
      "dominated": 5933,
      "kelly": 5934,
      "bureau": 5935,
      "bast": 5936,
      "cant": 5937,
      "seed": 5938,
      "1900": 5939,
      "1921": 5940,
      "absol": 5941,
      "permission": 5942,
      "assass": 5943,
      "mature": 5944,
      "15th": 5945,
      "casting": 5946,
      "ranking": 5947,
      "vietnames": 5948,
      "detailed": 5949,
      "compilation": 5950,
      "vietnamese": 5951,
      "cip": 5952,
      "ux": 5953,
      "uge": 5954,
      "determ": 5955,
      "firing": 5956,
      "partly": 5957,
      "eval": 5958,
      "leads": 5959,
      "legs": 5960,
      "obtain": 5961,
      "friendly": 5962,
      "crosses": 5963,
      "thompson": 5964,
      "legislation": 5965,
      "criminal": 5966,
      "determine": 5967,
      "cous": 5968,
      "nbc": 5969,
      "sist": 5970,
      "igen": 5971,
      "compos": 5972,
      "1913": 5973,
      "format": 5974,
      "divor": 5975,
      "depicted": 5976,
      "childhood": 5977,
      "walker": 5978,
      "experiences": 5979,
      "doesn": 5980,
      "equipped": 5981,
      "netherlands": 5982,
      "hub": 5983,
      "ng": 5984,
      "saf": 5985,
      "tap": 5986,
      "tub": 5987,
      "tot": 5988,
      "embar": 5989,
      "spher": 5990,
      "divers": 5991,
      "extin": 5992,
      "races": 5993,
      "platinum": 5994,
      "resolution": 5995,
      "benefit": 5996,
      "constitutional": 5997,
      "deemed": 5998,
      "hong": 5999,
      "sts": 6000,
      "mete": 6001,
      "mention": 6002,
      "sized": 6003,
      "surge": 6004,
      "supposed": 6005,
      "lins": 6006,
      "closer": 6007,
      "productions": 6008,
      "basin": 6009,
      "criticised": 6010,
      "materials": 6011,
      "participate": 6012,
      "documentary": 6013,
      "simpson": 6014,
      "dialogue": 6015,
      "scheme": 6016,
      "ras": 6017,
      "rach": 6018,
      "innov": 6019,
      "ensure": 6020,
      "ceme": 6021,
      "spending": 6022,
      "genes": 6023,
      "170": 6024,
      "140": 6025,
      "barbar": 6026,
      "1932": 6027,
      "factors": 6028,
      "credits": 6029,
      "citizen": 6030,
      "cloud": 6031,
      "isbn": 6032,
      "convinced": 6033,
      "gates": 6034,
      "jazz": 6035,
      "ries": 6036,
      "forty": 6037,
      "util": 6038,
      "exit": 6039,
      "guil": 6040,
      "pregn": 6041,
      "tenth": 6042,
      "standards": 6043,
      "gilbert": 6044,
      "croatian": 6045,
      "restaurant": 6046,
      "tat": 6047,
      "ouse": 6048,
      "eland": 6049,
      "beck": 6050,
      "usal": 6051,
      "plain": 6052,
      "landed": 6053,
      "anyone": 6054,
      "fires": 6055,
      "successor": 6056,
      "teeth": 6057,
      "teaching": 6058,
      "wedding": 6059,
      "restoration": 6060,
      "97": 6061,
      "9th": 6062,
      "mason": 6063,
      "marines": 6064,
      "possession": 6065,
      "draf": 6066,
      "houston": 6067,
      "rix": 6068,
      "fifteen": 6069,
      "samuel": 6070,
      "powered": 6071,
      "dict": 6072,
      "dress": 6073,
      "mack": 6074,
      "mitch": 6075,
      "inqu": 6076,
      "comics": 6077,
      "nett": 6078,
      "rescu": 6079,
      "berlin": 6080,
      "astro": 6081,
      "mini": 6082,
      "recordings": 6083,
      "values": 6084,
      "bai": 6085,
      "changing": 6086,
      "arrangement": 6087,
      "hes": 6088,
      "lt": 6089,
      "pak": 6090,
      "pace": 6091,
      "inspe": 6092,
      "anes": 6093,
      "orbit": 6094,
      "hem": 6095,
      "loop": 6096,
      "1912": 6097,
      "sover": 6098,
      "cliff": 6099,
      "expo": 6100,
      "timore": 6101,
      "spur": 6102,
      "covers": 6103,
      "footage": 6104,
      "toronto": 6105,
      "believes": 6106,
      "housing": 6107,
      "favorable": 6108,
      "discussed": 6109,
      "policies": 6110,
      "picked": 6111,
      "narrative": 6112,
      "adaptation": 6113,
      "cad": 6114,
      "dish": 6115,
      "rip": 6116,
      "tha": 6117,
      "inland": 6118,
      "thetic": 6119,
      "stall": 6120,
      "eler": 6121,
      "uran": 6122,
      "agents": 6123,
      "clu": 6124,
      "arena": 6125,
      "expression": 6126,
      "notably": 6127,
      "mortal": 6128,
      "morris": 6129,
      "radar": 6130,
      "1934": 6131,
      "functions": 6132,
      "expensive": 6133,
      "frequent": 6134,
      "difficulties": 6135,
      "visitors": 6136,
      "mathemat": 6137,
      "frederick": 6138,
      "91": 6139,
      "bab": 6140,
      "bapt": 6141,
      "ij": 6142,
      "jenn": 6143,
      "orous": 6144,
      "altar": 6145,
      "seattle": 6146,
      "lob": 6147,
      "rell": 6148,
      "serves": 6149,
      "operational": 6150,
      "collect": 6151,
      "videos": 6152,
      "handed": 6153,
      "extent": 6154,
      "prevented": 6155,
      "familiar": 6156,
      "rarely": 6157,
      "cabinet": 6158,
      "partnership": 6159,
      "battleships": 6160,
      "dramatic": 6161,
      "absence": 6162,
      "attorney": 6163,
      "aus": 6164,
      "bard": 6165,
      "kne": 6166,
      "sword": 6167,
      "wwe": 6168,
      "witch": 6169,
      "atus": 6170,
      "hook": 6171,
      "sym": 6172,
      "attacking": 6173,
      "initi": 6174,
      "oxy": 6175,
      "reveals": 6176,
      "promised": 6177,
      "metropolitan": 6178,
      "sudden": 6179,
      "swift": 6180,
      "98": 6181,
      "pad": 6182,
      "pines": 6183,
      "iled": 6184,
      "1911": 6185,
      "abled": 6186,
      "prosecut": 6187,
      "berry": 6188,
      "mining": 6189,
      "difference": 6190,
      "reportedly": 6191,
      "printed": 6192,
      "pretty": 6193,
      "longest": 6194,
      "substantial": 6195,
      "belgium": 6196,
      "sad": 6197,
      "santa": 6198,
      "tis": 6199,
      "renew": 6200,
      "attered": 6201,
      "enthus": 6202,
      "ching": 6203,
      "comments": 6204,
      "trained": 6205,
      "goslav": 6206,
      "phan": 6207,
      "iley": 6208,
      "dru": 6209,
      "pute": 6210,
      "obser": 6211,
      "11th": 6212,
      "patron": 6213,
      "1931": 6214,
      "mcc": 6215,
      "existed": 6216,
      "violent": 6217,
      "tribute": 6218,
      "graduate": 6219,
      "methods": 6220,
      "protagonist": 6221,
      "meteor": 6222,
      "nash": 6223,
      "rud": 6224,
      "tes": 6225,
      "meat": 6226,
      "publishing": 6227,
      "formerly": 6228,
      "communications": 6229,
      "melbourne": 6230,
      "executed": 6231,
      "window": 6232,
      "saurus": 6233,
      "excav": 6234,
      "croatia": 6235,
      "philosophy": 6236,
      "anthony": 6237,
      "prompted": 6238,
      "93": 6239,
      "phe": 6240,
      "pare": 6241,
      "pione": 6242,
      "vation": 6243,
      "xbox": 6244,
      "alpha": 6245,
      "oul": 6246,
      "chase": 6247,
      "meets": 6248,
      "proced": 6249,
      "manus": 6250,
      "mines": 6251,
      "minnes": 6252,
      "charter": 6253,
      "myth": 6254,
      "provinc": 6255,
      "woods": 6256,
      "grammy": 6257,
      "churches": 6258,
      "influential": 6259,
      "feelings": 6260,
      "subjects": 6261,
      "watching": 6262,
      "scholars": 6263,
      "dir": 6264,
      "gau": 6265,
      "sank": 6266,
      "ensu": 6267,
      "coordin": 6268,
      "forth": 6269,
      "1928": 6270,
      "finale": 6271,
      "files": 6272,
      "anglo": 6273,
      "matters": 6274,
      "austria": 6275,
      "horn": 6276,
      "periods": 6277,
      "ikes": 6278,
      "huge": 6279,
      "survive": 6280,
      "conclusion": 6281,
      "diet": 6282,
      "secured": 6283,
      "fatal": 6284,
      "yugoslav": 6285,
      "dave": 6286,
      "hag": 6287,
      "pus": 6288,
      "waves": 6289,
      "amph": 6290,
      "cester": 6291,
      "peare": 6292,
      "ateur": 6293,
      "marry": 6294,
      "guards": 6295,
      "gros": 6296,
      "10th": 6297,
      "logists": 6298,
      "1908": 6299,
      "refuge": 6300,
      "destroyers": 6301,
      "giants": 6302,
      "neighbour": 6303,
      "opponents": 6304,
      "shakespeare": 6305,
      "remin": 6306,
      "alum": 6307,
      "islam": 6308,
      "sevent": 6309,
      "depos": 6310,
      "imprison": 6311,
      "loco": 6312,
      "clay": 6313,
      "essential": 6314,
      "blin": 6315,
      "disci": 6316,
      "rico": 6317,
      "missour": 6318,
      "operate": 6319,
      "storage": 6320,
      "amongst": 6321,
      "interesting": 6322,
      "villages": 6323,
      "questions": 6324,
      "personality": 6325,
      "steps": 6326,
      "iraq": 6327,
      "negotiations": 6328,
      "agricultural": 6329,
      "900": 6330,
      "fab": 6331,
      "jason": 6332,
      "jona": 6333,
      "uncle": 6334,
      "accompany": 6335,
      "withdrew": 6336,
      "resign": 6337,
      "arry": 6338,
      "stewart": 6339,
      "numbered": 6340,
      "bases": 6341,
      "physic": 6342,
      "ordinary": 6343,
      "jacob": 6344,
      "ethnic": 6345,
      "skills": 6346,
      "founder": 6347,
      "diagno": 6348,
      "suicide": 6349,
      "kal": 6350,
      "pill": 6351,
      "retreat": 6352,
      "encing": 6353,
      "arian": 6354,
      "elabor": 6355,
      "detro": 6356,
      "perce": 6357,
      "bos": 6358,
      "liqu": 6359,
      "indians": 6360,
      "dispute": 6361,
      "arriving": 6362,
      "iowa": 6363,
      "closure": 6364,
      "baltimore": 6365,
      "armament": 6366,
      "premiered": 6367,
      "chemist": 6368,
      "instrumental": 6369,
      "swedish": 6370,
      "nichol": 6371,
      "cemetery": 6372,
      "detroit": 6373,
      "rising": 6374,
      "sang": 6375,
      "yd": 6376,
      "eric": 6377,
      "stab": 6378,
      "itim": 6379,
      "amb": 6380,
      "counties": 6381,
      "bros": 6382,
      "perspect": 6383,
      "slave": 6384,
      "flew": 6385,
      "greece": 6386,
      "wait": 6387,
      "susp": 6388,
      "boundary": 6389,
      "pitched": 6390,
      "revolutionary": 6391,
      "hin": 6392,
      "rants": 6393,
      "thes": 6394,
      "alive": 6395,
      "shaw": 6396,
      "therine": 6397,
      "exposed": 6398,
      "disput": 6399,
      "disaster": 6400,
      "closing": 6401,
      "helping": 6402,
      "fifty": 6403,
      "battalions": 6404,
      "substit": 6405,
      "survivors": 6406,
      "ique": 6407,
      "rett": 6408,
      "dee": 6409,
      "mos": 6410,
      "resigned": 6411,
      "afternoon": 6412,
      "elections": 6413,
      "raaf": 6414,
      "knots": 6415,
      "directors": 6416,
      "sharp": 6417,
      "collaboration": 6418,
      "bronze": 6419,
      "missouri": 6420,
      "bare": 6421,
      "iour": 6422,
      "ante": 6423,
      "conqu": 6424,
      "bombers": 6425,
      "spears": 6426,
      "mainstream": 6427,
      "publications": 6428,
      "signal": 6429,
      "harbour": 6430,
      "oslo": 6431,
      "teacher": 6432,
      "gallery": 6433,
      "employment": 6434,
      "planets": 6435,
      "orchestr": 6436,
      "detach": 6437,
      "valuable": 6438,
      "movies": 6439,
      "pilo": 6440,
      "rib": 6441,
      "tale": 6442,
      "inaug": 6443,
      "ille": 6444,
      "cole": 6445,
      "1922": 6446,
      "sha": 6447,
      "prohib": 6448,
      "upgraded": 6449,
      "deser": 6450,
      "cargo": 6451,
      "trek": 6452,
      "designer": 6453,
      "defended": 6454,
      "anime": 6455,
      "graphical": 6456,
      "melod": 6457,
      "confess": 6458,
      "struggle": 6459,
      "fossil": 6460,
      "cade": 6461,
      "eing": 6462,
      "fc": 6463,
      "lav": 6464,
      "lists": 6465,
      "sector": 6466,
      "mani": 6467,
      "boom": 6468,
      "gra": 6469,
      "creator": 6470,
      "visions": 6471,
      "merged": 6472,
      "diego": 6473,
      "robinson": 6474,
      "neutral": 6475,
      "provincial": 6476,
      "flower": 6477,
      "assum": 6478,
      "amateur": 6479,
      "ternal": 6480,
      "feud": 6481,
      "partially": 6482,
      "displayed": 6483,
      "engage": 6484,
      "warner": 6485,
      "organisation": 6486,
      "netic": 6487,
      "traveled": 6488,
      "pitts": 6489,
      "newspapers": 6490,
      "behaviour": 6491,
      "precip": 6492,
      "thinking": 6493,
      "atomic": 6494,
      "technique": 6495,
      "dollars": 6496,
      "rugby": 6497,
      "marketing": 6498,
      "legislature": 6499,
      "ghost": 6500,
      "jar": 6501,
      "sunk": 6502,
      "tight": 6503,
      "toll": 6504,
      "impossible": 6505,
      "oliv": 6506,
      "idency": 6507,
      "meter": 6508,
      "mars": 6509,
      "maid": 6510,
      "whereas": 6511,
      "carib": 6512,
      "origins": 6513,
      "pushed": 6514,
      "paintings": 6515,
      "isolated": 6516,
      "oxygen": 6517,
      "minnesota": 6518,
      "bin": 6519,
      "uro": 6520,
      "aced": 6521,
      "wie": 6522,
      "apple": 6523,
      "tran": 6524,
      "residence": 6525,
      "ipts": 6526,
      "interpre": 6527,
      "understand": 6528,
      "northward": 6529,
      "coverage": 6530,
      "weekend": 6531,
      "birthday": 6532,
      "sarah": 6533,
      "accurate": 6534,
      "vulner": 6535,
      "predecessor": 6536,
      "citing": 6537,
      "gaga": 6538,
      "oy": 6539,
      "wes": 6540,
      "iner": 6541,
      "roots": 6542,
      "icop": 6543,
      "immun": 6544,
      "nova": 6545,
      "1923": 6546,
      "shift": 6547,
      "medium": 6548,
      "voiced": 6549,
      "fortress": 6550,
      "keyboard": 6551,
      "solution": 6552,
      "enterprise": 6553,
      "munition": 6554,
      "chronicle": 6555,
      "demonstrated": 6556,
      "fixed": 6557,
      "cia": 6558,
      "jury": 6559,
      "nell": 6560,
      "rav": 6561,
      "lowest": 6562,
      "soil": 6563,
      "gosp": 6564,
      "laho": 6565,
      "mble": 6566,
      "legitim": 6567,
      "clock": 6568,
      "diame": 6569,
      "looks": 6570,
      "copper": 6571,
      "lacked": 6572,
      "earthqu": 6573,
      "schedule": 6574,
      "spotted": 6575,
      "attendance": 6576,
      "minimum": 6577,
      "neighborhood": 6578,
      "alcohol": 6579,
      "ais": 6580,
      "dc": 6581,
      "echo": 6582,
      "mall": 6583,
      "taught": 6584,
      "alignment": 6585,
      "arist": 6586,
      "hearing": 6587,
      "usd": 6588,
      "1929": 6589,
      "clin": 6590,
      "keys": 6591,
      "opher": 6592,
      "marg": 6593,
      "aws": 6594,
      "enses": 6595,
      "sitting": 6596,
      "compete": 6597,
      "hardy": 6598,
      "merchant": 6599,
      "playoffs": 6600,
      "bun": 6601,
      "rets": 6602,
      "degre": 6603,
      "loose": 6604,
      "sugar": 6605,
      "ieved": 6606,
      "cra": 6607,
      "otic": 6608,
      "mort": 6609,
      "musician": 6610,
      "depending": 6611,
      "completing": 6612,
      "goods": 6613,
      "rows": 6614,
      "purposes": 6615,
      "travelled": 6616,
      "wake": 6617,
      "vertical": 6618,
      "ultimate": 6619,
      "intensified": 6620,
      "inhabitants": 6621,
      "sisters": 6622,
      "degrees": 6623,
      "dino": 6624,
      "diction": 6625,
      "gib": 6626,
      "oz": 6627,
      "pip": 6628,
      "steven": 6629,
      "lex": 6630,
      "chel": 6631,
      "ammunition": 6632,
      "console": 6633,
      "aviation": 6634,
      "poems": 6635,
      "strict": 6636,
      "gry": 6637,
      "tennes": 6638,
      "helicop": 6639,
      "dylan": 6640,
      "electro": 6641,
      "concerts": 6642,
      "thrill": 6643,
      "exhibition": 6644,
      "marshall": 6645,
      "saved": 6646,
      "employees": 6647,
      "bak": 6648,
      "dancing": 6649,
      "trench": 6650,
      "vii": 6651,
      "unes": 6652,
      "boss": 6653,
      "lavery": 6654,
      "persian": 6655,
      "nake": 6656,
      "niel": 6657,
      "wilhelm": 6658,
      "indicate": 6659,
      "mississ": 6660,
      "strategic": 6661,
      "rebellion": 6662,
      "simultaneously": 6663,
      "92": 6664,
      "gab": 6665,
      "khan": 6666,
      "yam": 6667,
      "seats": 6668,
      "uted": 6669,
      "1925": 6670,
      "poison": 6671,
      "manhatt": 6672,
      "wool": 6673,
      "surprise": 6674,
      "backs": 6675,
      "burial": 6676,
      "publicly": 6677,
      "slip": 6678,
      "km2": 6679,
      "militia": 6680,
      "stores": 6681,
      "bonus": 6682,
      "liberty": 6683,
      "spiritual": 6684,
      "cancelled": 6685,
      "lithuan": 6686,
      "manhattan": 6687,
      "aqu": 6688,
      "oke": 6689,
      "pent": 6690,
      "rook": 6691,
      "bears": 6692,
      "imet": 6693,
      "impression": 6694,
      "ounced": 6695,
      "mato": 6696,
      "rupted": 6697,
      "mechanical": 6698,
      "recommend": 6699,
      "pakistan": 6700,
      "cze": 6701,
      "kw": 6702,
      "nad": 6703,
      "hey": 6704,
      "eller": 6705,
      "shipping": 6706,
      "founding": 6707,
      "walking": 6708,
      "electrical": 6709,
      "1907": 6710,
      "statistics": 6711,
      "cuba": 6712,
      "crystal": 6713,
      "1920s": 6714,
      "bic": 6715,
      "chy": 6716,
      "context": 6717,
      "sume": 6718,
      "prom": 6719,
      "cruc": 6720,
      "marvel": 6721,
      "cann": 6722,
      "backing": 6723,
      "linked": 6724,
      "australians": 6725,
      "1903": 6726,
      "tware": 6727,
      "practical": 6728,
      "imeter": 6729,
      "galax": 6730,
      "gardens": 6731,
      "software": 6732,
      "beauty": 6733,
      "circumst": 6734,
      "remnants": 6735,
      "guilty": 6736,
      "tennessee": 6737,
      "sick": 6738,
      "adjac": 6739,
      "cow": 6740,
      "1924": 6741,
      "abu": 6742,
      "crus": 6743,
      "offering": 6744,
      "ferry": 6745,
      "xture": 6746,
      "organised": 6747,
      "21st": 6748,
      "murphy": 6749,
      "bombs": 6750,
      "victories": 6751,
      "percentage": 6752,
      "residential": 6753,
      "indeed": 6754,
      "interpretation": 6755,
      "deputy": 6756,
      "adjacent": 6757,
      "aa": 6758,
      "dna": 6759,
      "jup": 6760,
      "stere": 6761,
      "wider": 6762,
      "umb": 6763,
      "artistic": 6764,
      "overseas": 6765,
      "flights": 6766,
      "buck": 6767,
      "understood": 6768,
      "ott": 6769,
      "surve": 6770,
      "household": 6771,
      "1905": 6772,
      "1909": 6773,
      "targets": 6774,
      "atlanta": 6775,
      "nationally": 6776,
      "demands": 6777,
      "false": 6778,
      "repairs": 6779,
      "minimal": 6780,
      "revenue": 6781,
      "billy": 6782,
      "symptoms": 6783,
      "represents": 6784,
      "enna": 6785,
      "uncertain": 6786,
      "concrete": 6787,
      "aps": 6788,
      "aine": 6789,
      "goth": 6790,
      "blind": 6791,
      "iously": 6792,
      "reluct": 6793,
      "gery": 6794,
      "mills": 6795,
      "deliber": 6796,
      "naissance": 6797,
      "parker": 6798,
      "instance": 6799,
      "doubt": 6800,
      "civilian": 6801,
      "defeating": 6802,
      "amounts": 6803,
      "athletic": 6804,
      "eliminated": 6805,
      "reconnaissance": 6806,
      "demolished": 6807,
      "tornado": 6808,
      "dinosaur": 6809,
      "06": 6810,
      "nh": 6811,
      "slavery": 6812,
      "ili": 6813,
      "cos": 6814,
      "artific": 6815,
      "perry": 6816,
      "fined": 6817,
      "mainland": 6818,
      "amps": 6819,
      "describe": 6820,
      "lesser": 6821,
      "advice": 6822,
      "carriers": 6823,
      "funeral": 6824,
      "qualified": 6825,
      "nominations": 6826,
      "audiences": 6827,
      "situated": 6828,
      "restricted": 6829,
      "enjoy": 6830,
      "tamil": 6831,
      "preserved": 6832,
      "dall": 6833,
      "hunt": 6834,
      "mour": 6835,
      "oct": 6836,
      "illegal": 6837,
      "imens": 6838,
      "conspir": 6839,
      "manga": 6840,
      "butter": 6841,
      "dow": 6842,
      "acher": 6843,
      "crest": 6844,
      "prepare": 6845,
      "portland": 6846,
      "heading": 6847,
      "motiv": 6848,
      "malays": 6849,
      "listing": 6850,
      "departed": 6851,
      "explosion": 6852,
      "petition": 6853,
      "electricity": 6854,
      "fastest": 6855,
      "swimming": 6856,
      "medicine": 6857,
      "yield": 6858,
      "diameter": 6859,
      "pse": 6860,
      "stern": 6861,
      "amid": 6862,
      "acou": 6863,
      "wasn": 6864,
      "aggress": 6865,
      "abund": 6866,
      "illness": 6867,
      "afford": 6868,
      "notice": 6869,
      "drin": 6870,
      "intelle": 6871,
      "wells": 6872,
      "lined": 6873,
      "check": 6874,
      "mccart": 6875,
      "palest": 6876,
      "institution": 6877,
      "philippines": 6878,
      "cinema": 6879,
      "aerial": 6880,
      "mississip": 6881,
      "intellect": 6882,
      "mccartney": 6883,
      "faster": 6884,
      "lia": 6885,
      "snake": 6886,
      "ube": 6887,
      "inian": 6888,
      "oft": 6889,
      "tol": 6890,
      "whil": 6891,
      "ige": 6892,
      "conversion": 6893,
      "agers": 6894,
      "som": 6895,
      "explan": 6896,
      "cription": 6897,
      "drivers": 6898,
      "izz": 6899,
      "finn": 6900,
      "highways": 6901,
      "specimens": 6902,
      "talking": 6903,
      "switzer": 6904,
      "profile": 6905,
      "ranks": 6906,
      "texts": 6907,
      "keeper": 6908,
      "encountered": 6909,
      "exactly": 6910,
      "amendment": 6911,
      "somerset": 6912,
      "caribbean": 6913,
      "margaret": 6914,
      "360": 6915,
      "hindu": 6916,
      "vast": 6917,
      "thy": 6918,
      "resumed": 6919,
      "cture": 6920,
      "abc": 6921,
      "blu": 6922,
      "morr": 6923,
      "dense": 6924,
      "considering": 6925,
      "personally": 6926,
      "magnit": 6927,
      "refers": 6928,
      "madagas": 6929,
      "statue": 6930,
      "cultiv": 6931,
      "expert": 6932,
      "bradman": 6933,
      "appropriate": 6934,
      "nielsen": 6935,
      "czech": 6936,
      "whilst": 6937,
      "cable": 6938,
      "inno": 6939,
      "recur": 6940,
      "remove": 6941,
      "noble": 6942,
      "trick": 6943,
      "ishment": 6944,
      "subspecies": 6945,
      "raj": 6946,
      "azy": 6947,
      "tales": 6948,
      "delay": 6949,
      "watershed": 6950,
      "furthermore": 6951,
      "seeking": 6952,
      "believing": 6953,
      "declar": 6954,
      "mirror": 6955,
      "judic": 6956,
      "altered": 6957,
      "temporarily": 6958,
      "certainly": 6959,
      "franklin": 6960,
      "patterns": 6961,
      "collapse": 6962,
      "striking": 6963,
      "switzerland": 6964,
      "bie": 6965,
      "pp": 6966,
      "chanc": 6967,
      "condem": 6968,
      "affil": 6969,
      "brill": 6970,
      "wore": 6971,
      "compounds": 6972,
      "charity": 6973,
      "burton": 6974,
      "fallen": 6975,
      "rounds": 6976,
      "recognised": 6977,
      "advertising": 6978,
      "administrative": 6979,
      "strongest": 6980,
      "lahoma": 6981,
      "8th": 6982,
      "kon": 6983,
      "kiss": 6984,
      "laugh": 6985,
      "ske": 6986,
      "onic": 6987,
      "andr": 6988,
      "ila": 6989,
      "ambass": 6990,
      "brun": 6991,
      "worn": 6992,
      "frig": 6993,
      "oklahoma": 6994,
      "campbell": 6995,
      "horiz": 6996,
      "ontario": 6997,
      "bowling": 6998,
      "federation": 6999,
      "kyo": 7000,
      "thodo": 7001,
      "candidates": 7002,
      "masters": 7003,
      "legislative": 7004,
      "feeding": 7005,
      "registered": 7006,
      "nazi": 7007,
      "rachel": 7008,
      "drugs": 7009,
      "perspective": 7010,
      "pilots": 7011,
      "jupiter": 7012,
      "mississippi": 7013,
      "kom": 7014,
      "sket": 7015,
      "tape": 7016,
      "inations": 7017,
      "ani": 7018,
      "unclear": 7019,
      "deterior": 7020,
      "friday": 7021,
      "ailed": 7022,
      "wayne": 7023,
      "register": 7024,
      "understanding": 7025,
      "decides": 7026,
      "slaves": 7027,
      "armies": 7028,
      "ticket": 7029,
      "riding": 7030,
      "autum": 7031,
      "demanded": 7032,
      "gentle": 7033,
      "armored": 7034,
      "oblig": 7035,
      "mong": 7036,
      "rim": 7037,
      "waste": 7038,
      "atively": 7039,
      "asking": 7040,
      "itated": 7041,
      "earning": 7042,
      "embr": 7043,
      "guine": 7044,
      "signs": 7045,
      "motions": 7046,
      "bene": 7047,
      "explains": 7048,
      "acceler": 7049,
      "panel": 7050,
      "assisted": 7051,
      "coup": 7052,
      "nucle": 7053,
      "escaped": 7054,
      "architectural": 7055,
      "illustrated": 7056,
      "descend": 7057,
      "locomot": 7058,
      "discipl": 7059,
      "tig": 7060,
      "inher": 7061,
      "ora": 7062,
      "chet": 7063,
      "allmusic": 7064,
      "attained": 7065,
      "compens": 7066,
      "intercept": 7067,
      "engagement": 7068,
      "ibn": 7069,
      "westward": 7070,
      "sax": 7071,
      "vari": 7072,
      "tested": 7073,
      "harm": 7074,
      "sequences": 7075,
      "listen": 7076,
      "organizations": 7077,
      "swiss": 7078,
      "targe": 7079,
      "badly": 7080,
      "tribes": 7081,
      "thirteen": 7082,
      "starring": 7083,
      "papers": 7084,
      "dubbed": 7085,
      "consequently": 7086,
      "suspended": 7087,
      "pittsburgh": 7088,
      "aes": 7089,
      "dia": 7090,
      "dwar": 7091,
      "lip": 7092,
      "lakes": 7093,
      "theo": 7094,
      "touring": 7095,
      "itors": 7096,
      "acle": 7097,
      "coat": 7098,
      "coinc": 7099,
      "compass": 7100,
      "cannon": 7101,
      "canyon": 7102,
      "omen": 7103,
      "maya": 7104,
      "subur": 7105,
      "ruth": 7106,
      "glac": 7107,
      "trading": 7108,
      "practices": 7109,
      "theatrical": 7110,
      "preparation": 7111,
      "observations": 7112,
      "madagascar": 7113,
      "etr": 7114,
      "lis": 7115,
      "twi": 7116,
      "stair": 7117,
      "arctic": 7118,
      "loan": 7119,
      "shall": 7120,
      "dod": 7121,
      "markets": 7122,
      "ideal": 7123,
      "juven": 7124,
      "courses": 7125,
      "lighting": 7126,
      "physics": 7127,
      "documents": 7128,
      "settlers": 7129,
      "ranging": 7130,
      "emphasis": 7131,
      "alternate": 7132,
      "rhythm": 7133,
      "graham": 7134,
      "craig": 7135,
      "cass": 7136,
      "hence": 7137,
      "pher": 7138,
      "vous": 7139,
      "ariz": 7140,
      "aman": 7141,
      "boo": 7142,
      "scattered": 7143,
      "thanks": 7144,
      "rihanna": 7145,
      "topped": 7146,
      "terminal": 7147,
      "businesses": 7148,
      "contributions": 7149,
      "globe": 7150,
      "evolved": 7151,
      "ownership": 7152,
      "athens": 7153,
      "excellent": 7154,
      "portrait": 7155,
      "hidden": 7156,
      "cartoon": 7157,
      "autumn": 7158,
      "07": 7159,
      "bones": 7160,
      "kansas": 7161,
      "maker": 7162,
      "napo": 7163,
      "til": 7164,
      "wants": 7165,
      "ori": 7166,
      "alfred": 7167,
      "esh": 7168,
      "icing": 7169,
      "bearing": 7170,
      "teries": 7171,
      "oli": 7172,
      "pler": 7173,
      "gran": 7174,
      "bust": 7175,
      "severely": 7176,
      "designation": 7177,
      "cutting": 7178,
      "increases": 7179,
      "explain": 7180,
      "engineers": 7181,
      "loaded": 7182,
      "application": 7183,
      "objective": 7184,
      "riot": 7185,
      "symphony": 7186,
      "mitchell": 7187,
      "jonathan": 7188,
      "eve": 7189,
      "luc": 7190,
      "oon": 7191,
      "tang": 7192,
      "replacing": 7193,
      "whel": 7194,
      "articles": 7195,
      "feather": 7196,
      "astru": 7197,
      "dore": 7198,
      "grim": 7199,
      "liz": 7200,
      "montre": 7201,
      "filed": 7202,
      "jection": 7203,
      "fourteen": 7204,
      "collections": 7205,
      "denmark": 7206,
      "controls": 7207,
      "friendship": 7208,
      "retail": 7209,
      "travels": 7210,
      "beaten": 7211,
      "opponent": 7212,
      "trouble": 7213,
      "pearl": 7214,
      "assembled": 7215,
      "arizona": 7216,
      "cave": 7217,
      "acclaim": 7218,
      "confront": 7219,
      "herald": 7220,
      "grif": 7221,
      "partial": 7222,
      "airlines": 7223,
      "turrets": 7224,
      "visiting": 7225,
      "mercur": 7226,
      "signing": 7227,
      "lawrence": 7228,
      "christopher": 7229,
      "drove": 7230,
      "lucas": 7231,
      "suggesting": 7232,
      "threw": 7233,
      "commentary": 7234,
      "execution": 7235,
      "onymous": 7236,
      "measured": 7237,
      "flowers": 7238,
      "dissipated": 7239,
      "trigger": 7240,
      "density": 7241,
      "evalu": 7242,
      "exposure": 7243,
      "chemistry": 7244,
      "magnitude": 7245,
      "napoleon": 7246,
      "rings": 7247,
      "edwards": 7248,
      "reward": 7249,
      "semin": 7250,
      "amin": 7251,
      "aming": 7252,
      "verte": 7253,
      "shan": 7254,
      "peaking": 7255,
      "maneu": 7256,
      "hore": 7257,
      "strange": 7258,
      "assists": 7259,
      "landsc": 7260,
      "crews": 7261,
      "speaker": 7262,
      "ibed": 7263,
      "surgery": 7264,
      "consol": 7265,
      "skull": 7266,
      "valid": 7267,
      "pension": 7268,
      "connect": 7269,
      "pairs": 7270,
      "barry": 7271,
      "ranges": 7272,
      "extratro": 7273,
      "ongoing": 7274,
      "acknowledged": 7275,
      "extratropical": 7276,
      "09": 7277,
      "kids": 7278,
      "inals": 7279,
      "rebuilt": 7280,
      "remark": 7281,
      "roe": 7282,
      "seized": 7283,
      "exh": 7284,
      "guar": 7285,
      "frustr": 7286,
      "interstate": 7287,
      "crops": 7288,
      "clothing": 7289,
      "continuous": 7290,
      "limits": 7291,
      "nixon": 7292,
      "competed": 7293,
      "hearts": 7294,
      "parent": 7295,
      "prosper": 7296,
      "matthew": 7297,
      "artificial": 7298,
      "morrison": 7299,
      "declaration": 7300,
      "dwell": 7301,
      "inf": 7302,
      "org": 7303,
      "ceased": 7304,
      "pep": 7305,
      "plaza": 7306,
      "feels": 7307,
      "quiet": 7308,
      "crush": 7309,
      "indigen": 7310,
      "maj": 7311,
      "polar": 7312,
      "balls": 7313,
      "depict": 7314,
      "hammer": 7315,
      "choose": 7316,
      "uki": 7317,
      "destroyer": 7318,
      "culmin": 7319,
      "clearly": 7320,
      "questioned": 7321,
      "recovery": 7322,
      "consistent": 7323,
      "daughters": 7324,
      "fairly": 7325,
      "struggled": 7326,
      "challenged": 7327,
      "perceived": 7328,
      "stereo": 7329,
      "cash": 7330,
      "dw": 7331,
      "kas": 7332,
      "kitch": 7333,
      "mg": 7334,
      "sig": 7335,
      "sak": 7336,
      "insects": 7337,
      "altit": 7338,
      "iso": 7339,
      "nev": 7340,
      "ieties": 7341,
      "dust": 7342,
      "spell": 7343,
      "pressing": 7344,
      "jos": 7345,
      "monster": 7346,
      "warren": 7347,
      "warfare": 7348,
      "submitted": 7349,
      "colonies": 7350,
      "traditionally": 7351,
      "bombing": 7352,
      "definition": 7353,
      "blocks": 7354,
      "seriously": 7355,
      "translation": 7356,
      "experimental": 7357,
      "infrastru": 7358,
      "towers": 7359,
      "circumstances": 7360,
      "ffield": 7361,
      "nice": 7362,
      "reagan": 7363,
      "illy": 7364,
      "conquest": 7365,
      "metre": 7366,
      "erected": 7367,
      "bris": 7368,
      "doors": 7369,
      "compre": 7370,
      "colleg": 7371,
      "puzz": 7372,
      "tai": 7373,
      "volumes": 7374,
      "sultan": 7375,
      "succeed": 7376,
      "defences": 7377,
      "predomin": 7378,
      "spoken": 7379,
      "nickel": 7380,
      "jimmy": 7381,
      "sporting": 7382,
      "nancy": 7383,
      "kirk": 7384,
      "hypothe": 7385,
      "montreal": 7386,
      "indigenous": 7387,
      "gaining": 7388,
      "iency": 7389,
      "reconstruction": 7390,
      "reporter": 7391,
      "ico": 7392,
      "ima": 7393,
      "clif": 7394,
      "clash": 7395,
      "quad": 7396,
      "worship": 7397,
      "dogs": 7398,
      "spider": 7399,
      "maur": 7400,
      "specimen": 7401,
      "radical": 7402,
      "initiated": 7403,
      "announcement": 7404,
      "ruler": 7405,
      "institutions": 7406,
      "powder": 7407,
      "robin": 7408,
      "louisiana": 7409,
      "danger": 7410,
      "territorial": 7411,
      "agriculture": 7412,
      "prompt": 7413,
      "dressed": 7414,
      "fers": 7415,
      "fate": 7416,
      "gments": 7417,
      "kil": 7418,
      "spart": 7419,
      "tab": 7420,
      "vig": 7421,
      "revised": 7422,
      "tokyo": 7423,
      "behalf": 7424,
      "convers": 7425,
      "neo": 7426,
      "shak": 7427,
      "trian": 7428,
      "tracy": 7429,
      "raising": 7430,
      "titan": 7431,
      "tours": 7432,
      "patient": 7433,
      "glen": 7434,
      "phoenix": 7435,
      "currency": 7436,
      "investment": 7437,
      "riders": 7438,
      "empty": 7439,
      "layer": 7440,
      "protests": 7441,
      "egyptian": 7442,
      "discovers": 7443,
      "evacuated": 7444,
      "wreck": 7445,
      "acoustic": 7446,
      "vak": 7447,
      "itted": 7448,
      "plum": 7449,
      "subsid": 7450,
      "supplement": 7451,
      "summit": 7452,
      "iveness": 7453,
      "lanes": 7454,
      "rocks": 7455,
      "1897": 7456,
      "silent": 7457,
      "connecting": 7458,
      "adventures": 7459,
      "concentrated": 7460,
      "infrastructure": 7461,
      "08": 7462,
      "m2": 7463,
      "mund": 7464,
      "wicket": 7465,
      "aside": 7466,
      "urer": 7467,
      "loved": 7468,
      "pod": 7469,
      "ghan": 7470,
      "jobs": 7471,
      "aimed": 7472,
      "commanding": 7473,
      "broadway": 7474,
      "reflected": 7475,
      "sharks": 7476,
      "bb": 7477,
      "bah": 7478,
      "cular": 7479,
      "oo": 7480,
      "pas": 7481,
      "tent": 7482,
      "renov": 7483,
      "esp": 7484,
      "conven": 7485,
      "neil": 7486,
      "shin": 7487,
      "trium": 7488,
      "prove": 7489,
      "artwork": 7490,
      "bomber": 7491,
      "quit": 7492,
      "option": 7493,
      "duo": 7494,
      "oked": 7495,
      "olds": 7496,
      "juan": 7497,
      "burned": 7498,
      "catherine": 7499,
      "flex": 7500,
      "insisted": 7501,
      "radiation": 7502,
      "putting": 7503,
      "protein": 7504,
      "hitting": 7505,
      "1901": 7506,
      "1906": 7507,
      "confidence": 7508,
      "victorian": 7509,
      "distinctive": 7510,
      "wealthy": 7511,
      "argument": 7512,
      "cards": 7513,
      "jump": 7514,
      "ende": 7515,
      "utah": 7516,
      "geoff": 7517,
      "guid": 7518,
      "rena": 7519,
      "epic": 7520,
      "paras": 7521,
      "johnny": 7522,
      "ballad": 7523,
      "scores": 7524,
      "reaches": 7525,
      "hollow": 7526,
      "campaigns": 7527,
      "1899": 7528,
      "waiting": 7529,
      "select": 7530,
      "predicted": 7531,
      "respective": 7532,
      "photography": 7533,
      "contribution": 7534,
      "poorly": 7535,
      "drummer": 7536,
      "uniform": 7537,
      "tube": 7538,
      "achievement": 7539,
      "arrangements": 7540,
      "surrendered": 7541,
      "census": 7542,
      "stuff": 7543,
      "mercury": 7544,
      "athe": 7545,
      "daw": 7546,
      "makers": 7547,
      "edited": 7548,
      "stim": 7549,
      "stress": 7550,
      "itively": 7551,
      "abd": 7552,
      "presidency": 7553,
      "1850": 7554,
      "monte": 7555,
      "forever": 7556,
      "obv": 7557,
      "caa": 7558,
      "delaware": 7559,
      "cuts": 7560,
      "readers": 7561,
      "requires": 7562,
      "1904": 7563,
      "lux": 7564,
      "1896": 7565,
      "melody": 7566,
      "dominant": 7567,
      "observation": 7568,
      "cameron": 7569,
      "opportunities": 7570,
      "banned": 7571,
      "exclusive": 7572,
      "disturb": 7573,
      "branches": 7574,
      "dimension": 7575,
      "hudson": 7576,
      "cousin": 7577,
      "earthquake": 7578,
      "dess": 7579,
      "fasc": 7580,
      "iac": 7581,
      "mick": 7582,
      "sau": 7583,
      "tos": 7584,
      "itely": 7585,
      "chen": 7586,
      "adier": 7587,
      "elite": 7588,
      "gear": 7589,
      "earn": 7590,
      "descent": 7591,
      "offense": 7592,
      "answer": 7593,
      "arrive": 7594,
      "mush": 7595,
      "talent": 7596,
      "senators": 7597,
      "penetr": 7598,
      "salary": 7599,
      "funny": 7600,
      "villain": 7601,
      "frequency": 7602,
      "investigate": 7603,
      "traveling": 7604,
      "princi": 7605,
      "conventional": 7606,
      "revival": 7607,
      "revenge": 7608,
      "beneath": 7609,
      "tin": 7610,
      "zan": 7611,
      "prises": 7612,
      "minster": 7613,
      "mah": 7614,
      "turret": 7615,
      "syria": 7616,
      "turner": 7617,
      "visits": 7618,
      "realized": 7619,
      "carri": 7620,
      "sentence": 7621,
      "stronger": 7622,
      "sung": 7623,
      "mixing": 7624,
      "argues": 7625,
      "chronic": 7626,
      "resolved": 7627,
      "shorter": 7628,
      "repeatedly": 7629,
      "saturday": 7630,
      "portrayal": 7631,
      "exercise": 7632,
      "buffalo": 7633,
      "vertebr": 7634,
      "01": 7635,
      "dak": 7636,
      "kane": 7637,
      "pages": 7638,
      "tul": 7639,
      "tong": 7640,
      "vard": 7641,
      "erie": 7642,
      "adjust": 7643,
      "impress": 7644,
      "users": 7645,
      "marking": 7646,
      "spend": 7647,
      "disband": 7648,
      "paraly": 7649,
      "talks": 7650,
      "voices": 7651,
      "lifetime": 7652,
      "variations": 7653,
      "placement": 7654,
      "characterized": 7655,
      "hamlet": 7656,
      "bulk": 7657,
      "suspic": 7658,
      "survival": 7659,
      "companion": 7660,
      "educational": 7661,
      "dawn": 7662,
      "discuss": 7663,
      "reflect": 7664,
      "categories": 7665,
      "advertise": 7666,
      "elevation": 7667,
      "gathered": 7668,
      "tactics": 7669,
      "strengthened": 7670,
      "indonesia": 7671,
      "tack": 7672,
      "intim": 7673,
      "elo": 7674,
      "beer": 7675,
      "beats": 7676,
      "romney": 7677,
      "optim": 7678,
      "turkey": 7679,
      "milk": 7680,
      "commanders": 7681,
      "luck": 7682,
      "oxid": 7683,
      "reduction": 7684,
      "learns": 7685,
      "pulled": 7686,
      "voyage": 7687,
      "delivery": 7688,
      "reinforcements": 7689,
      "precipitation": 7690,
      "ambassador": 7691,
      "baker": 7692,
      "nered": 7693,
      "enlisted": 7694,
      "stol": 7695,
      "lem": 7696,
      "chin": 7697,
      "heaven": 7698,
      "mans": 7699,
      "vet": 7700,
      "coron": 7701,
      "attitude": 7702,
      "norfolk": 7703,
      "adequ": 7704,
      "charlie": 7705,
      "statements": 7706,
      "developers": 7707,
      "distant": 7708,
      "governments": 7709,
      "harvey": 7710,
      "virus": 7711,
      "referring": 7712,
      "1893": 7713,
      "teles": 7714,
      "exclusively": 7715,
      "finger": 7716,
      "component": 7717,
      "phrase": 7718,
      "vulnerable": 7719,
      "consolid": 7720,
      "emotion": 7721,
      "gaz": 7722,
      "ncaa": 7723,
      "rag": 7724,
      "sq": 7725,
      "retro": 7726,
      "todd": 7727,
      "inge": 7728,
      "uration": 7729,
      "nose": 7730,
      "external": 7731,
      "crazy": 7732,
      "uded": 7733,
      "indies": 7734,
      "colors": 7735,
      "elector": 7736,
      "breath": 7737,
      "hyper": 7738,
      "1902": 7739,
      "extending": 7740,
      "armstrong": 7741,
      "macarthur": 7742,
      "squadrons": 7743,
      "guitarist": 7744,
      "flooded": 7745,
      "explos": 7746,
      "murdered": 7747,
      "propag": 7748,
      "imagery": 7749,
      "photographs": 7750,
      "implemented": 7751,
      "05": 7752,
      "eign": 7753,
      "pound": 7754,
      "pond": 7755,
      "tender": 7756,
      "editions": 7757,
      "unc": 7758,
      "beam": 7759,
      "idol": 7760,
      "promotional": 7761,
      "sile": 7762,
      "sheffield": 7763,
      "grove": 7764,
      "warnings": 7765,
      "105": 7766,
      "transported": 7767,
      "fault": 7768,
      "deploy": 7769,
      "lawyer": 7770,
      "traded": 7771,
      "travelling": 7772,
      "mingham": 7773,
      "approaching": 7774,
      "estimates": 7775,
      "devast": 7776,
      "flagship": 7777,
      "leonard": 7778,
      "escort": 7779,
      "removal": 7780,
      "armoured": 7781,
      "sovereign": 7782,
      "gospel": 7783,
      "horizon": 7784,
      "beng": 7785,
      "cc": 7786,
      "rant": 7787,
      "sending": 7788,
      "trough": 7789,
      "theore": 7790,
      "remarked": 7791,
      "alaska": 7792,
      "isle": 7793,
      "adi": 7794,
      "ading": 7795,
      "oliver": 7796,
      "apy": 7797,
      "ulous": 7798,
      "dublin": 7799,
      "velt": 7800,
      "sony": 7801,
      "mythology": 7802,
      "eleph": 7803,
      "burns": 7804,
      "succession": 7805,
      "variation": 7806,
      "defending": 7807,
      "charted": 7808,
      "solved": 7809,
      "representation": 7810,
      "closest": 7811,
      "1891": 7812,
      "panic": 7813,
      "qualifying": 7814,
      "lords": 7815,
      "minority": 7816,
      "discussion": 7817,
      "celebration": 7818,
      "functional": 7819,
      "improvements": 7820,
      "volcano": 7821,
      "cbs": 7822,
      "een": 7823,
      "lanc": 7824,
      "vas": 7825,
      "infer": 7826,
      "isen": 7827,
      "soph": 7828,
      "pruss": 7829,
      "overwhel": 7830,
      "tempo": 7831,
      "austrian": 7832,
      "springs": 7833,
      "audition": 7834,
      "broadcasting": 7835,
      "devices": 7836,
      "zoo": 7837,
      "apartment": 7838,
      "multiplayer": 7839,
      "honours": 7840,
      "hydrogen": 7841,
      "withdrawal": 7842,
      "onomy": 7843,
      "bind": 7844,
      "diverse": 7845,
      "eur": 7846,
      "hd": 7847,
      "lac": 7848,
      "pum": 7849,
      "thouse": 7850,
      "aser": 7851,
      "roose": 7852,
      "ouver": 7853,
      "chand": 7854,
      "devoted": 7855,
      "convic": 7856,
      "confron": 7857,
      "plut": 7858,
      "permitted": 7859,
      "output": 7860,
      "dual": 7861,
      "foster": 7862,
      "siz": 7863,
      "dispat": 7864,
      "schum": 7865,
      "decis": 7866,
      "decisions": 7867,
      "sixteen": 7868,
      "thorough": 7869,
      "predict": 7870,
      "birmingham": 7871,
      "axis": 7872,
      "quarterback": 7873,
      "christianity": 7874,
      "sailing": 7875,
      "jamin": 7876,
      "manufacturing": 7877,
      "pirates": 7878,
      "hampshire": 7879,
      "dallas": 7880,
      "kaz": 7881,
      "vanc": 7882,
      "wen": 7883,
      "inces": 7884,
      "toxic": 7885,
      "iti": 7886,
      "rog": 7887,
      "secre": 7888,
      "elic": 7889,
      "utical": 7890,
      "proof": 7891,
      "ache": 7892,
      "bub": 7893,
      "writings": 7894,
      "archbishop": 7895,
      "venue": 7896,
      "passion": 7897,
      "useful": 7898,
      "colleagues": 7899,
      "kills": 7900,
      "handle": 7901,
      "posts": 7902,
      "ralph": 7903,
      "1890": 7904,
      "1895": 7905,
      "connectic": 7906,
      "humanity": 7907,
      "hosts": 7908,
      "meetings": 7909,
      "approaches": 7910,
      "compliment": 7911,
      "establishing": 7912,
      "mrs": 7913,
      "hawa": 7914,
      "concentration": 7915,
      "voting": 7916,
      "consult": 7917,
      "fischer": 7918,
      "amazing": 7919,
      "divorce": 7920,
      "vancouver": 7921,
      "connecticut": 7922,
      "cen": 7923,
      "glee": 7924,
      "hide": 7925,
      "tical": 7926,
      "tiger": 7927,
      "enforce": 7928,
      "alber": 7929,
      "leans": 7930,
      "chord": 7931,
      "sect": 7932,
      "fork": 7933,
      "congreg": 7934,
      "aya": 7935,
      "shallow": 7936,
      "trum": 7937,
      "mania": 7938,
      "exists": 7939,
      "stry": 7940,
      "compound": 7941,
      "collins": 7942,
      "regime": 7943,
      "underwent": 7944,
      "turnpike": 7945,
      "redes": 7946,
      "raids": 7947,
      "provinces": 7948,
      "decide": 7949,
      "scope": 7950,
      "toured": 7951,
      "holiday": 7952,
      "failing": 7953,
      "cruise": 7954,
      "accum": 7955,
      "ruling": 7956,
      "revolt": 7957,
      "bobby": 7958,
      "southeastern": 7959,
      "maps": 7960,
      "shells": 7961,
      "athletes": 7962,
      "nonetheless": 7963,
      "microsoft": 7964,
      "components": 7965,
      "lemurs": 7966,
      "bombardment": 7967,
      "chancell": 7968,
      "guinea": 7969,
      "principles": 7970,
      "bilities": 7971,
      "mum": 7972,
      "patt": 7973,
      "tut": 7974,
      "ths": 7975,
      "anthro": 7976,
      "alice": 7977,
      "iry": 7978,
      "terry": 7979,
      "sures": 7980,
      "mansion": 7981,
      "strand": 7982,
      "serge": 7983,
      "tenure": 7984,
      "finance": 7985,
      "regiments": 7986,
      "followers": 7987,
      "backed": 7988,
      "obama": 7989,
      "rolled": 7990,
      "presentation": 7991,
      "characteristic": 7992,
      "persona": 7993,
      "ballo": 7994,
      "stationed": 7995,
      "benjamin": 7996,
      "explaining": 7997,
      "praising": 7998,
      "confusion": 7999
    },
    "merges": [
      [
        "t",
        "h"
      ],
      [
        "i",
        "n"
      ],
      [
        "th",
        "e"
      ],
      [
        "a",
        "n"
      ],
      [
        "e",
        "r"
      ],
      [
        "o",
        "n"
      ],
      [
        "e",
        "d"
      ],
      [
        "r",
        "e"
      ],
      [
        "a",
        "t"
      ],
      [
        "e",
        "n"
      ],
      [
        "o",
        "r"
      ],
      [
        "s",
        "t"
      ],
      [
        "a",
        "l"
      ],
      [
        "a",
        "r"
      ],
      [
        "an",
        "d"
      ],
      [
        "a",
        "s"
      ],
      [
        "o",
        "f"
      ],
      [
        "t",
        "o"
      ],
      [
        "in",
        "g"
      ],
      [
        "i",
        "s"
      ],
      [
        "e",
        "s"
      ],
      [
        "i",
        "t"
      ],
      [
        "r",
        "o"
      ],
      [
        "i",
        "c"
      ],
      [
        "o",
        "u"
      ],
      [
        "i",
        "on"
      ],
      [
        "l",
        "e"
      ],
      [
        "c",
        "h"
      ],
      [
        "u",
        "n"
      ],
      [
        "s",
        "e"
      ],
      [
        "i",
        "l"
      ],
      [
        "en",
        "t"
      ],
      [
        "a",
        "m"
      ],
      [
        "a",
        "d"
      ],
      [
        "e",
        "l"
      ],
      [
        "a",
        "c"
      ],
      [
        "c",
        "o"
      ],
      [
        "f",
        "or"
      ],
      [
        "b",
        "e"
      ],
      [
        "w",
        "as"
      ],
      [
        "d",
        "e"
      ],
      [
        "u",
        "r"
      ],
      [
        "l",
        "y"
      ],
      [
        "i",
        "r"
      ],
      [
        "w",
        "h"
      ],
      [
        "i",
        "m"
      ],
      [
        "i",
        "v"
      ],
      [
        "i",
        "g"
      ],
      [
        "h",
        "e"
      ],
      [
        "l",
        "o"
      ],
      [
        "t",
        "er"
      ],
      [
        "w",
        "i"
      ],
      [
        "c",
        "on"
      ],
      [
        "a",
        "y"
      ],
      [
        "c",
        "e"
      ],
      [
        "v",
        "er"
      ],
      [
        "o",
        "l"
      ],
      [
        "wi",
        "th"
      ],
      [
        "a",
        "g"
      ],
      [
        "at",
        "ion"
      ],
      [
        "i",
        "d"
      ],
      [
        "u",
        "s"
      ],
      [
        "c",
        "t"
      ],
      [
        "th",
        "at"
      ],
      [
        "b",
        "y"
      ],
      [
        "n",
        "o"
      ],
      [
        "s",
        "u"
      ],
      [
        "t",
        "e"
      ],
      [
        "a",
        "p"
      ],
      [
        "m",
        "o"
      ],
      [
        "co",
        "m"
      ],
      [
        "n",
        "e"
      ],
      [
        "u",
        "t"
      ],
      [
        "a",
        "v"
      ],
      [
        "1",
        "9"
      ],
      [
        "s",
        "h"
      ],
      [
        "p",
        "o"
      ],
      [
        "t",
        "r"
      ],
      [
        "m",
        "e"
      ],
      [
        "a",
        "in"
      ],
      [
        "p",
        "e"
      ],
      [
        "a",
        "b"
      ],
      [
        "p",
        "ro"
      ],
      [
        "er",
        "s"
      ],
      [
        "s",
        "o"
      ],
      [
        "p",
        "l"
      ],
      [
        "u",
        "l"
      ],
      [
        "i",
        "st"
      ],
      [
        "0",
        "0"
      ],
      [
        "re",
        "s"
      ],
      [
        "er",
        "e"
      ],
      [
        "al",
        "l"
      ],
      [
        "un",
        "k"
      ],
      [
        "ro",
        "m"
      ],
      [
        "h",
        "is"
      ],
      [
        "w",
        "e"
      ],
      [
        "the",
        "r"
      ],
      [
        "u",
        "m"
      ],
      [
        "f",
        "rom"
      ],
      [
        "g",
        "e"
      ],
      [
        "c",
        "l"
      ],
      [
        "ar",
        "t"
      ],
      [
        "a",
        "re"
      ],
      [
        "ou",
        "n"
      ],
      [
        "p",
        "er"
      ],
      [
        "i",
        "es"
      ],
      [
        "il",
        "l"
      ],
      [
        "f",
        "e"
      ],
      [
        "m",
        "an"
      ],
      [
        "i",
        "e"
      ],
      [
        "ig",
        "h"
      ],
      [
        "b",
        "er"
      ],
      [
        "e",
        "x"
      ],
      [
        "k",
        "e"
      ],
      [
        "m",
        "ent"
      ],
      [
        "at",
        "e"
      ],
      [
        "b",
        "o"
      ],
      [
        "ar",
        "d"
      ],
      [
        "a",
        "f"
      ],
      [
        "t",
        "s"
      ],
      [
        "ic",
        "h"
      ],
      [
        "q",
        "u"
      ],
      [
        "w",
        "ere"
      ],
      [
        "a",
        "st"
      ],
      [
        "h",
        "o"
      ],
      [
        "i",
        "p"
      ],
      [
        "a",
        "u"
      ],
      [
        "on",
        "e"
      ],
      [
        "b",
        "r"
      ],
      [
        "i",
        "f"
      ],
      [
        "g",
        "h"
      ],
      [
        "o",
        "p"
      ],
      [
        "at",
        "ed"
      ],
      [
        "l",
        "d"
      ],
      [
        "iv",
        "e"
      ],
      [
        "on",
        "g"
      ],
      [
        "es",
        "s"
      ],
      [
        "am",
        "e"
      ],
      [
        "c",
        "r"
      ],
      [
        "it",
        "y"
      ],
      [
        "t",
        "ed"
      ],
      [
        "st",
        "r"
      ],
      [
        "en",
        "d"
      ],
      [
        "h",
        "ad"
      ],
      [
        "ou",
        "r"
      ],
      [
        "w",
        "n"
      ],
      [
        "i",
        "an"
      ],
      [
        "p",
        "r"
      ],
      [
        "ou",
        "t"
      ],
      [
        "ac",
        "k"
      ],
      [
        "is",
        "h"
      ],
      [
        "e",
        "ar"
      ],
      [
        "v",
        "e"
      ],
      [
        "i",
        "al"
      ],
      [
        "u",
        "p"
      ],
      [
        "wh",
        "ich"
      ],
      [
        "w",
        "or"
      ],
      [
        "p",
        "or"
      ],
      [
        "d",
        "er"
      ],
      [
        "b",
        "ut"
      ],
      [
        "an",
        "t"
      ],
      [
        "d",
        "u"
      ],
      [
        "d",
        "o"
      ],
      [
        "u",
        "d"
      ],
      [
        "h",
        "er"
      ],
      [
        "a",
        "k"
      ],
      [
        "in",
        "e"
      ],
      [
        "w",
        "o"
      ],
      [
        "i",
        "a"
      ],
      [
        "ac",
        "t"
      ],
      [
        "it",
        "s"
      ],
      [
        "c",
        "or"
      ],
      [
        "no",
        "t"
      ],
      [
        "ar",
        "y"
      ],
      [
        "as",
        "s"
      ],
      [
        "g",
        "o"
      ],
      [
        "el",
        "l"
      ],
      [
        "t",
        "im"
      ],
      [
        "f",
        "ir"
      ],
      [
        "e",
        "m"
      ],
      [
        "ic",
        "al"
      ],
      [
        "av",
        "e"
      ],
      [
        "2",
        "0"
      ],
      [
        "lo",
        "w"
      ],
      [
        "g",
        "r"
      ],
      [
        "b",
        "l"
      ],
      [
        "2",
        "00"
      ],
      [
        "s",
        "er"
      ],
      [
        "th",
        "is"
      ],
      [
        "o",
        "d"
      ],
      [
        "ag",
        "e"
      ],
      [
        "a",
        "ch"
      ],
      [
        "l",
        "i"
      ],
      [
        "re",
        "e"
      ],
      [
        "m",
        "ar"
      ],
      [
        "a",
        "w"
      ],
      [
        "igh",
        "t"
      ],
      [
        "f",
        "o"
      ],
      [
        "ou",
        "ld"
      ],
      [
        "fir",
        "st"
      ],
      [
        "ou",
        "s"
      ],
      [
        "ne",
        "w"
      ],
      [
        "af",
        "ter"
      ],
      [
        "p",
        "art"
      ],
      [
        "o",
        "ther"
      ],
      [
        "the",
        "ir"
      ],
      [
        "l",
        "and"
      ],
      [
        "wh",
        "o"
      ],
      [
        "for",
        "m"
      ],
      [
        "s",
        "p"
      ],
      [
        "ct",
        "ion"
      ],
      [
        "ig",
        "n"
      ],
      [
        "m",
        "in"
      ],
      [
        "it",
        "ion"
      ],
      [
        "g",
        "u"
      ],
      [
        "al",
        "so"
      ],
      [
        "p",
        "res"
      ],
      [
        "at",
        "er"
      ],
      [
        "oun",
        "d"
      ],
      [
        "at",
        "t"
      ],
      [
        "s",
        "i"
      ],
      [
        "in",
        "d"
      ],
      [
        "f",
        "r"
      ],
      [
        "pl",
        "ay"
      ],
      [
        "d",
        "es"
      ],
      [
        "the",
        "y"
      ],
      [
        "i",
        "re"
      ],
      [
        "com",
        "p"
      ],
      [
        "u",
        "re"
      ],
      [
        "com",
        "m"
      ],
      [
        "p",
        "h"
      ],
      [
        "of",
        "f"
      ],
      [
        "1",
        "8"
      ],
      [
        "t",
        "wo"
      ],
      [
        "t",
        "y"
      ],
      [
        "c",
        "re"
      ],
      [
        "c",
        "k"
      ],
      [
        "p",
        "re"
      ],
      [
        "c",
        "ent"
      ],
      [
        "po",
        "s"
      ],
      [
        "n",
        "or"
      ],
      [
        "s",
        "he"
      ],
      [
        "m",
        "a"
      ],
      [
        "h",
        "ave"
      ],
      [
        "al",
        "ly"
      ],
      [
        "d",
        "is"
      ],
      [
        "y",
        "ear"
      ],
      [
        "o",
        "ver"
      ],
      [
        "ro",
        "u"
      ],
      [
        "i",
        "le"
      ],
      [
        "a",
        "ir"
      ],
      [
        "en",
        "ce"
      ],
      [
        "h",
        "as"
      ],
      [
        "an",
        "s"
      ],
      [
        "d",
        "r"
      ],
      [
        "ic",
        "e"
      ],
      [
        "20",
        "1"
      ],
      [
        "e",
        "v"
      ],
      [
        "o",
        "k"
      ],
      [
        "in",
        "ter"
      ],
      [
        "be",
        "en"
      ],
      [
        "con",
        "t"
      ],
      [
        "i",
        "ed"
      ],
      [
        "ur",
        "ing"
      ],
      [
        "ac",
        "e"
      ],
      [
        "c",
        "an"
      ],
      [
        "j",
        "o"
      ],
      [
        "m",
        "ber"
      ],
      [
        "e",
        "st"
      ],
      [
        "co",
        "l"
      ],
      [
        "por",
        "t"
      ],
      [
        "ou",
        "gh"
      ],
      [
        "or",
        "y"
      ],
      [
        "re",
        "n"
      ],
      [
        "tim",
        "e"
      ],
      [
        "sh",
        "ip"
      ],
      [
        "m",
        "on"
      ],
      [
        "ad",
        "e"
      ],
      [
        "t",
        "ur"
      ],
      [
        "it",
        "e"
      ],
      [
        "an",
        "ce"
      ],
      [
        "v",
        "ed"
      ],
      [
        "ab",
        "le"
      ],
      [
        "i",
        "z"
      ],
      [
        "s",
        "pe"
      ],
      [
        "s",
        "ion"
      ],
      [
        "t",
        "en"
      ],
      [
        "wor",
        "k"
      ],
      [
        "el",
        "y"
      ],
      [
        "in",
        "cl"
      ],
      [
        "ar",
        "r"
      ],
      [
        "f",
        "in"
      ],
      [
        "g",
        "ro"
      ],
      [
        "f",
        "l"
      ],
      [
        "f",
        "er"
      ],
      [
        "e",
        "p"
      ],
      [
        "wh",
        "en"
      ],
      [
        "en",
        "g"
      ],
      [
        "cor",
        "d"
      ],
      [
        "p",
        "ar"
      ],
      [
        "c",
        "ed"
      ],
      [
        "f",
        "il"
      ],
      [
        "an",
        "g"
      ],
      [
        "g",
        "en"
      ],
      [
        "sh",
        "o"
      ],
      [
        "ation",
        "s"
      ],
      [
        "a",
        "il"
      ],
      [
        "i",
        "o"
      ],
      [
        "ol",
        "d"
      ],
      [
        "i",
        "b"
      ],
      [
        "d",
        "uring"
      ],
      [
        "v",
        "el"
      ],
      [
        "mo",
        "re"
      ],
      [
        "in",
        "to"
      ],
      [
        "i",
        "de"
      ],
      [
        "w",
        "ay"
      ],
      [
        "h",
        "im"
      ],
      [
        "mo",
        "st"
      ],
      [
        "w",
        "ould"
      ],
      [
        "c",
        "oun"
      ],
      [
        "s",
        "y"
      ],
      [
        "e",
        "t"
      ],
      [
        "in",
        "t"
      ],
      [
        "o",
        "c"
      ],
      [
        "rou",
        "gh"
      ],
      [
        "m",
        "ain"
      ],
      [
        "ch",
        "ar"
      ],
      [
        "s",
        "on"
      ],
      [
        "d",
        "ay"
      ],
      [
        "o",
        "m"
      ],
      [
        "w",
        "ar"
      ],
      [
        "fo",
        "re"
      ],
      [
        "be",
        "c"
      ],
      [
        "so",
        "me"
      ],
      [
        "s",
        "c"
      ],
      [
        "at",
        "es"
      ],
      [
        "am",
        "p"
      ],
      [
        "c",
        "es"
      ],
      [
        "as",
        "ed"
      ],
      [
        "fil",
        "m"
      ],
      [
        "v",
        "ie"
      ],
      [
        "be",
        "t"
      ],
      [
        "as",
        "e"
      ],
      [
        "b",
        "u"
      ],
      [
        "s",
        "ing"
      ],
      [
        "t",
        "on"
      ],
      [
        "re",
        "g"
      ],
      [
        "wh",
        "ile"
      ],
      [
        "it",
        "ed"
      ],
      [
        "g",
        "ame"
      ],
      [
        "s",
        "ou"
      ],
      [
        "incl",
        "ud"
      ],
      [
        "us",
        "ed"
      ],
      [
        "p",
        "u"
      ],
      [
        "c",
        "ess"
      ],
      [
        "as",
        "on"
      ],
      [
        "ct",
        "ed"
      ],
      [
        "r",
        "ic"
      ],
      [
        "an",
        "n"
      ],
      [
        "un",
        "d"
      ],
      [
        "p",
        "t"
      ],
      [
        "m",
        "ed"
      ],
      [
        "con",
        "d"
      ],
      [
        "j",
        "u"
      ],
      [
        "ing",
        "s"
      ],
      [
        "l",
        "es"
      ],
      [
        "se",
        "l"
      ],
      [
        "th",
        "an"
      ],
      [
        "w",
        "r"
      ],
      [
        "pro",
        "du"
      ],
      [
        "il",
        "d"
      ],
      [
        "i",
        "ous"
      ],
      [
        "g",
        "an"
      ],
      [
        "un",
        "der"
      ],
      [
        "u",
        "e"
      ],
      [
        "the",
        "re"
      ],
      [
        "th",
        "ough"
      ],
      [
        "on",
        "ly"
      ],
      [
        "we",
        "st"
      ],
      [
        "l",
        "ater"
      ],
      [
        "h",
        "igh"
      ],
      [
        "f",
        "ol"
      ],
      [
        "ion",
        "s"
      ],
      [
        "m",
        "ay"
      ],
      [
        "s",
        "a"
      ],
      [
        "an",
        "y"
      ],
      [
        "or",
        "s"
      ],
      [
        "m",
        "us"
      ],
      [
        "m",
        "y"
      ],
      [
        "s",
        "ch"
      ],
      [
        "ag",
        "ain"
      ],
      [
        "s",
        "ong"
      ],
      [
        "j",
        "e"
      ],
      [
        "ab",
        "out"
      ],
      [
        "c",
        "ap"
      ],
      [
        "re",
        "l"
      ],
      [
        "b",
        "ro"
      ],
      [
        "o",
        "t"
      ],
      [
        "th",
        "ree"
      ],
      [
        "tur",
        "n"
      ],
      [
        "19",
        "9"
      ],
      [
        "m",
        "i"
      ],
      [
        "g",
        "er"
      ],
      [
        "k",
        "ing"
      ],
      [
        "re",
        "cord"
      ],
      [
        "am",
        "er"
      ],
      [
        "we",
        "en"
      ],
      [
        "th",
        "rough"
      ],
      [
        "pu",
        "bl"
      ],
      [
        "the",
        "m"
      ],
      [
        "bet",
        "ween"
      ],
      [
        "p",
        "ol"
      ],
      [
        "a",
        "th"
      ],
      [
        "el",
        "d"
      ],
      [
        "r",
        "ed"
      ],
      [
        "g",
        "re"
      ],
      [
        "n",
        "um"
      ],
      [
        "ic",
        "k"
      ],
      [
        "re",
        "le"
      ],
      [
        "v",
        "is"
      ],
      [
        "t",
        "ain"
      ],
      [
        "w",
        "ard"
      ],
      [
        "ation",
        "al"
      ],
      [
        "fol",
        "low"
      ],
      [
        "l",
        "ed"
      ],
      [
        "se",
        "cond"
      ],
      [
        "1",
        "0"
      ],
      [
        "s",
        "s"
      ],
      [
        "st",
        "e"
      ],
      [
        "e",
        "le"
      ],
      [
        "wh",
        "ere"
      ],
      [
        "ic",
        "t"
      ],
      [
        "al",
        "s"
      ],
      [
        "f",
        "ul"
      ],
      [
        "su",
        "b"
      ],
      [
        "l",
        "ar"
      ],
      [
        "at",
        "ing"
      ],
      [
        "se",
        "ason"
      ],
      [
        "al",
        "b"
      ],
      [
        "c",
        "ar"
      ],
      [
        "c",
        "ur"
      ],
      [
        "s",
        "ur"
      ],
      [
        "r",
        "a"
      ],
      [
        "vie",
        "w"
      ],
      [
        "the",
        "n"
      ],
      [
        "w",
        "ell"
      ],
      [
        "m",
        "at"
      ],
      [
        "am",
        "es"
      ],
      [
        "wor",
        "ld"
      ],
      [
        "spe",
        "c"
      ],
      [
        "k",
        "no"
      ],
      [
        "f",
        "our"
      ],
      [
        "str",
        "u"
      ],
      [
        "ent",
        "s"
      ],
      [
        "b",
        "ack"
      ],
      [
        "en",
        "s"
      ],
      [
        "00",
        "0"
      ],
      [
        "se",
        "t"
      ],
      [
        "amer",
        "ic"
      ],
      [
        "nor",
        "th"
      ],
      [
        "w",
        "ill"
      ],
      [
        "m",
        "ade"
      ],
      [
        "wr",
        "it"
      ],
      [
        "m",
        "en"
      ],
      [
        "l",
        "a"
      ],
      [
        "er",
        "ed"
      ],
      [
        "ter",
        "s"
      ],
      [
        "be",
        "fore"
      ],
      [
        "man",
        "y"
      ],
      [
        "t",
        "ing"
      ],
      [
        "alb",
        "um"
      ],
      [
        "1",
        "7"
      ],
      [
        "m",
        "er"
      ],
      [
        "te",
        "am"
      ],
      [
        "su",
        "ch"
      ],
      [
        "year",
        "s"
      ],
      [
        "ul",
        "ar"
      ],
      [
        "c",
        "all"
      ],
      [
        "iv",
        "ed"
      ],
      [
        "lo",
        "c"
      ],
      [
        "m",
        "u"
      ],
      [
        "ad",
        "d"
      ],
      [
        "an",
        "k"
      ],
      [
        "m",
        "b"
      ],
      [
        "c",
        "er"
      ],
      [
        "ish",
        "ed"
      ],
      [
        "gen",
        "er"
      ],
      [
        "su",
        "p"
      ],
      [
        "ic",
        "s"
      ],
      [
        "te",
        "m"
      ],
      [
        "n",
        "ational"
      ],
      [
        "b",
        "el"
      ],
      [
        "c",
        "y"
      ],
      [
        "se",
        "ver"
      ],
      [
        "m",
        "is"
      ],
      [
        "m",
        "ill"
      ],
      [
        "p",
        "ed"
      ],
      [
        "con",
        "s"
      ],
      [
        "ap",
        "pe"
      ],
      [
        "n",
        "ing"
      ],
      [
        "r",
        "y"
      ],
      [
        "ho",
        "we"
      ],
      [
        "m",
        "or"
      ],
      [
        "1",
        "5"
      ],
      [
        "ver",
        "y"
      ],
      [
        "st",
        "ate"
      ],
      [
        "il",
        "y"
      ],
      [
        "bo",
        "th"
      ],
      [
        "sho",
        "w"
      ],
      [
        "if",
        "ic"
      ],
      [
        "t",
        "ro"
      ],
      [
        "ser",
        "v"
      ],
      [
        "on",
        "d"
      ],
      [
        "u",
        "ary"
      ],
      [
        "howe",
        "ver"
      ],
      [
        "sou",
        "th"
      ],
      [
        "b",
        "le"
      ],
      [
        "id",
        "ent"
      ],
      [
        "mus",
        "ic"
      ],
      [
        "ment",
        "s"
      ],
      [
        "ser",
        "ies"
      ],
      [
        "be",
        "ing"
      ],
      [
        "num",
        "ber"
      ],
      [
        "st",
        "ud"
      ],
      [
        "al",
        "e"
      ],
      [
        "char",
        "ac"
      ],
      [
        "t",
        "a"
      ],
      [
        "an",
        "e"
      ],
      [
        "ul",
        "t"
      ],
      [
        "in",
        "ce"
      ],
      [
        "b",
        "ur"
      ],
      [
        "again",
        "st"
      ],
      [
        "ep",
        "is"
      ],
      [
        "the",
        "se"
      ],
      [
        "lo",
        "g"
      ],
      [
        "u",
        "al"
      ],
      [
        "le",
        "ad"
      ],
      [
        "v",
        "ol"
      ],
      [
        "re",
        "ce"
      ],
      [
        "s",
        "im"
      ],
      [
        "f",
        "i"
      ],
      [
        "a",
        "z"
      ],
      [
        "w",
        "in"
      ],
      [
        "iv",
        "er"
      ],
      [
        "c",
        "ity"
      ],
      [
        "f",
        "ound"
      ],
      [
        "h",
        "ist"
      ],
      [
        "1",
        "6"
      ],
      [
        "b",
        "att"
      ],
      [
        "e",
        "ast"
      ],
      [
        "u",
        "b"
      ],
      [
        "l",
        "in"
      ],
      [
        "f",
        "t"
      ],
      [
        "l",
        "ine"
      ],
      [
        "ar",
        "ch"
      ],
      [
        "v",
        "en"
      ],
      [
        "e",
        "f"
      ],
      [
        "c",
        "ro"
      ],
      [
        "includ",
        "ing"
      ],
      [
        "br",
        "it"
      ],
      [
        "au",
        "se"
      ],
      [
        "appe",
        "ar"
      ],
      [
        "un",
        "t"
      ],
      [
        "bec",
        "ame"
      ],
      [
        "sever",
        "al"
      ],
      [
        "de",
        "vel"
      ],
      [
        "t",
        "al"
      ],
      [
        "1",
        "2"
      ],
      [
        "po",
        "p"
      ],
      [
        "le",
        "g"
      ],
      [
        "o",
        "b"
      ],
      [
        "he",
        "ad"
      ],
      [
        "19",
        "4"
      ],
      [
        "ig",
        "in"
      ],
      [
        "or",
        "igin"
      ],
      [
        "do",
        "wn"
      ],
      [
        "d",
        "ire"
      ],
      [
        "l",
        "ong"
      ],
      [
        "fe",
        "at"
      ],
      [
        "so",
        "c"
      ],
      [
        "devel",
        "op"
      ],
      [
        "c",
        "a"
      ],
      [
        "o",
        "per"
      ],
      [
        "w",
        "er"
      ],
      [
        "st",
        "or"
      ],
      [
        "un",
        "ited"
      ],
      [
        "n",
        "am"
      ],
      [
        "su",
        "l"
      ],
      [
        "m",
        "s"
      ],
      [
        "cont",
        "in"
      ],
      [
        "at",
        "ive"
      ],
      [
        "ear",
        "ly"
      ],
      [
        "m",
        "il"
      ],
      [
        "p",
        "ass"
      ],
      [
        "tr",
        "ans"
      ],
      [
        "d",
        "if"
      ],
      [
        "i",
        "i"
      ],
      [
        "c",
        "ast"
      ],
      [
        "b",
        "or"
      ],
      [
        "le",
        "t"
      ],
      [
        "publ",
        "ic"
      ],
      [
        "go",
        "ver"
      ],
      [
        "e",
        "k"
      ],
      [
        "19",
        "8"
      ],
      [
        "d",
        "id"
      ],
      [
        "o",
        "de"
      ],
      [
        "u",
        "res"
      ],
      [
        "c",
        "lo"
      ],
      [
        "su",
        "c"
      ],
      [
        "it",
        "ies"
      ],
      [
        "d",
        "ist"
      ],
      [
        "t",
        "re"
      ],
      [
        "c",
        "our"
      ],
      [
        "end",
        "ed"
      ],
      [
        "b",
        "re"
      ],
      [
        "le",
        "y"
      ],
      [
        "p",
        "ers"
      ],
      [
        "li",
        "ke"
      ],
      [
        "f",
        "am"
      ],
      [
        "pro",
        "v"
      ],
      [
        "c",
        "le"
      ],
      [
        "an",
        "ge"
      ],
      [
        "n",
        "er"
      ],
      [
        "per",
        "i"
      ],
      [
        "o",
        "wn"
      ],
      [
        "gro",
        "up"
      ],
      [
        "sa",
        "id"
      ],
      [
        "h",
        "n"
      ],
      [
        "ur",
        "y"
      ],
      [
        "is",
        "e"
      ],
      [
        "tr",
        "y"
      ],
      [
        "h",
        "ou"
      ],
      [
        "st",
        "ates"
      ],
      [
        "3",
        "0"
      ],
      [
        "r",
        "un"
      ],
      [
        "cr",
        "it"
      ],
      [
        "j",
        "un"
      ],
      [
        "ir",
        "d"
      ],
      [
        "er",
[...]
