{
  "version": "1.0",
  "truncation": null,
  "padding": null,
  "added_tokens": [
    {
      "id": 0,
      "content": "[PAD]",
      "single_word": false,
      "lstrip": false,
      "rstrip": false,
      "normalized": false,
      "special": true
    },
    {
      "id": 1,
      "content": "[UNK]",
      "single_word": false,
      "lstrip": false,
      "rstrip": false,
      "normalized": false,
      "special": true
    },
    {
      "id": 2,
      "content": "[BOS]",
      "single_word": false,
      "lstrip": false,
      "rstrip": false,
      "normalized": false,
      "special": true
    },
    {
      "id": 3,
      "content": "[EOS]",
      "single_word": false,
      "lstrip": false,
      "rstrip": false,
      "normalized": false,
      "special": true
    }
  ],
  "normalizer": null,
  "pre_tokenizer": {
    "type": "Whitespace"
  },
  "post_processor": {
    "type": "TemplateProcessing",
    "single": [
      {
        "SpecialToken": {
          "id": "[BOS]",
          "type_id": 0
        }
      },
      {
        "Sequence": {
          "id": "A",
          "type_id": 0
        }
      },
      {
        "SpecialToken": {
          "id": "[EOS]",
          "type_id": 0
        }
      }
    ],
    "pair": [
      {
        "Sequence": {
          "id": "A",
          "type_id": 0
        }
      },
      {
        "Sequence": {
          "id": "B",
          "type_id": 1
        }
      }
    ],
    "special_tokens": {
      "[BOS]": {
        "id": "[BOS]",
        "ids": [
          2
        ],
        "tokens": [
          "[BOS]"
        ]
      },
      "[EOS]": {
        "id": "[EOS]",
        "ids": [
          3
        ],
        "tokens": [
          "[EOS]"
        ]
      }
    }
  },
  "decoder": null,
  "model": {
    "type": "BPE",
    "dropout": null,
    "unk_token": "[UNK]",
    "continuing_subword_prefix": null,
    "end_of_word_suffix": null,
    "fuse_unk": false,
    "byte_fallback": false,
    "ignore_merges": false,
    "vocab": {
      "[PAD]": 0,
      "[UNK]": 1,
      "[BOS]": 2,
      "[EOS]": 3,
      "0": 4,
      "1": 5,
      "2": 6,
      "3": 7,
      "4": 8,
      "5": 9,
      "8": 10,
      "a": 11,
      "b": 12,
      "c": 13,
      "d": 14,
      "e": 15,
      "f": 16,
      "g": 17,
      "h": 18,
      "i": 19,
      "j": 20,
      "k": 21,
      "l": 22,
      "m": 23,
      "n": 24,
      "o": 25,
      "p": 26,
      "q": 27,
      "r": 28,
      "s": 29,
      "t": 30,
      "u": 31,
      "v": 32,
      "w": 33,
      "x": 34,
      "y": 35,
      "z": 36,
      "he": 37,
      "to": 38,
      "an": 39,
      "the": 40,
      "and": 41,
      "ed": 42,
      "in": 43,
      "it": 44,
      "re": 45,
      "wa": 46,
      "ou": 47,
      "ha": 48,
      "on": 49,
      "er": 50,
      "en": 51,
      "ar": 52,
      "ing": 53,
      "was": 54,
      "is": 55,
      "om": 56,
      "le": 57,
      "id": 58,
      "ay": 59,
      "her": 60,
      "al": 61,
      "st": 62,
      "she": 63,
      "lo": 64,
      "or": 65,
      "sa": 66,
      "be": 67,
      "im": 68,
      "il": 69,
      "se": 70,
      "th": 71,
      "ke": 72,
      "ut": 73,
      "hat": 74,
      "ted": 75,
      "ac": 76,
      "so": 77,
      "ld": 78,
      "his": 79,
      "ir": 80,
      "ve": 81,
      "ow": 82,
      "ver": 83,
      "pl": 84,
      "go": 85,
      "wit": 86,
      "with": 87,
      "ri": 88,
      "they": 89,
      "that": 90,
      "at": 91,
      "of": 92,
      "wan": 93,
      "ne": 94,
      "ome": 95,
      "ent": 96,
      "but": 97,
      "ad": 98,
      "pp": 99,
      "ked": 100,
      "ig": 101,
      "all": 102,
      "play": 103,
      "ic": 104,
      "un": 105,
      "as": 106,
      "day": 107,
      "said": 108,
      "am": 109,
      "ge": 110,
      "ould": 111,
      "had": 112,
      "wanted": 113,
      "for": 114,
      "we": 115,
      "ake": 116,
      "mom": 117,
      "ec": 118,
      "you": 119,
      "tim": 120,
      "out": 121,
      "very": 122,
      "oun": 123,
      "ho": 124,
      "el": 125,
      "way": 126,
      "li": 127,
      "end": 128,
      "no": 129,
      "bo": 130,
      "one": 131,
      "ack": 132,
      "ly": 133,
      "went": 134,
      "ound": 135,
      "ch": 136,
      "up": 137,
      "ro": 138,
      "thing": 139,
      "my": 140,
      "es": 141,
      "some": 142,
      "happ": 143,
      "ther": 144,
      "ily": 145,
      "him": 146,
      "ab": 147,
      "ok": 148,
      "itt": 149,
      "do": 150,
      "ul": 151,
      "sh": 152,
      "ex": 153,
      "ry": 154,
      "ht": 155,
      "star": 156,
      "fri": 157,
      "happy": 158,
      "friend": 159,
      "ind": 160,
      "ca": 161,
      "sp": 162,
      "big": 163,
      "ide": 164,
      "ved": 165,
      "back": 166,
      "whe": 167,
      "lily": 168,
      "litt": 169,
      "little": 170,
      "dec": 171,
      "ter": 172,
      "started": 173,
      "hel": 174,
      "ful": 175,
      "ided": 176,
      "mo": 177,
      "decided": 178,
      "saw": 179,
      "su": 180,
      "have": 181,
      "not": 182,
      "new": 183,
      "help": 184,
      "see": 185,
      "could": 186,
      "ra": 187,
      "were": 188,
      "fe": 189,
      "me": 190,
      "rom": 191,
      "ran": 192,
      "make": 193,
      "gr": 194,
      "them": 195,
      "sm": 196,
      "their": 197,
      "time": 198,
      "would": 199,
      "irl": 200,
      "ways": 201,
      "girl": 202,
      "get": 203,
      "car": 204,
      "ame": 205,
      "ug": 206,
      "always": 207,
      "co": 208,
      "od": 209,
      "ag": 210,
      "loved": 211,
      "when": 212,
      "friends": 213,
      "ill": 214,
      "pe": 215,
      "take": 216,
      "par": 217,
      "put": 218,
      "ited": 219,
      "side": 220,
      "who": 221,
      "um": 222,
      "around": 223,
      "what": 224,
      "fo": 225,
      "own": 226,
      "from": 227,
      "ur": 228,
      "there": 229,
      "did": 230,
      "oug": 231,
      "ck": 232,
      "want": 233,
      "jo": 234,
      "sto": 235,
      "exc": 236,
      "ep": 237,
      "every": 238,
      "man": 239,
      "find": 240,
      "ried": 241,
      "low": 242,
      "something": 243,
      "ain": 244,
      "came": 245,
      "other": 246,
      "excited": 247,
      "then": 248,
      "use": 249,
      "wor": 250,
      "can": 251,
      "ree": 252,
      "asked": 253,
      "wal": 254,
      "got": 255,
      "now": 256,
      "look": 257,
      "care": 258,
      "home": 259,
      "park": 260,
      "ts": 261,
      "ure": 262,
      "ick": 263,
      "toy": 264,
      "if": 265,
      "by": 266,
      "bir": 267,
      "like": 268,
      "how": 269,
      "too": 270,
      "ard": 271,
      "pr": 272,
      "ade": 273,
      "boy": 274,
      "fun": 275,
      "op": 276,
      "are": 277,
      "bird": 278,
      "ach": 279,
      "ce": 280,
      "ace": 281,
      "che": 282,
      "fel": 283,
      "bu": 284,
      "show": 285,
      "things": 286,
      "tried": 287,
      "good": 288,
      "ice": 289,
      "able": 290,
      "made": 291,
      "try": 292,
      "clo": 293,
      "timmy": 294,
      "ma": 295,
      "ong": 296,
      "ant": 297,
      "away": 298,
      "ave": 299,
      "ust": 300,
      "toge": 301,
      "together": 302,
      "pped": 303,
      "liked": 304,
      "lu": 305,
      "more": 306,
      "down": 307,
      "qu": 308,
      "than": 309,
      "dad": 310,
      "mommy": 311,
      "ight": 312,
      "ist": 313,
      "found": 314,
      "us": 315,
      "spec": 316,
      "never": 317,
      "exp": 318,
      "come": 319,
      "didn": 320,
      "careful": 321,
      "loo": 322,
      "ss": 323,
      "lear": 324,
      "knew": 325,
      "king": 326,
      "sha": 327,
      "looked": 328,
      "ally": 329,
      "wh": 330,
      "ll": 331,
      "tom": 332,
      "explo": 333,
      "felt": 334,
      "ile": 335,
      "learn": 336,
      "ial": 337,
      "ru": 338,
      "off": 339,
      "ben": 340,
      "ret": 341,
      "special": 342,
      "need": 343,
      "ought": 344,
      "feel": 345,
      "po": 346,
      "la": 347,
      "outside": 348,
      "ouse": 349,
      "let": 350,
      "old": 351,
      "over": 352,
      "ber": 353,
      "about": 354,
      "ive": 355,
      "ous": 356,
      "bed": 357,
      "ie": 358,
      "playing": 359,
      "ate": 360,
      "took": 361,
      "ite": 362,
      "ort": 363,
      "der": 364,
      "fa": 365,
      "tree": 366,
      "list": 367,
      "unt": 368,
      "listen": 369,
      "told": 370,
      "cat": 371,
      "our": 372,
      "uch": 373,
      "wo": 374,
      "cause": 375,
      "iled": 376,
      "because": 377,
      "going": 378,
      "te": 379,
      "room": 380,
      "imp": 381,
      "explore": 382,
      "ev": 383,
      "hed": 384,
      "until": 385,
      "just": 386,
      "lf": 387,
      "dre": 388,
      "ny": 389,
      "eat": 390,
      "rd": 391,
      "stay": 392,
      "read": 393,
      "br": 394,
      "oud": 395,
      "know": 396,
      "couldn": 397,
      "fore": 398,
      "per": 399,
      "amed": 400,
      "smiled": 401,
      "this": 402,
      "your": 403,
      "cl": 404,
      "ion": 405,
      "run": 406,
      "sure": 407,
      "again": 408,
      "gan": 409,
      "ough": 410,
      "gave": 411,
      "ket": 412,
      "sun": 413,
      "sad": 414,
      "house": 415,
      "ish": 416,
      "sw": 417,
      "keep": 418,
      "scar": 419,
      "pa": 420,
      "say": 421,
      "named": 422,
      "import": 423,
      "red": 424,
      "fly": 425,
      "ise": 426,
      "ta": 427,
      "sk": 428,
      "dy": 429,
      "pic": 430,
      "toys": 431,
      "important": 432,
      "wat": 433,
      "ear": 434,
      "self": 435,
      "urn": 436,
      "mem": 437,
      "water": 438,
      "where": 439,
      "into": 440,
      "hand": 441,
      "wait": 442,
      "ers": 443,
      "bit": 444,
      "began": 445,
      "ised": 446,
      "long": 447,
      "even": 448,
      "ty": 449,
      "cle": 450,
      "thought": 451,
      "ell": 452,
      "member": 453,
      "remember": 454,
      "share": 455,
      "each": 456,
      "con": 457,
      "kind": 458,
      "fin": 459,
      "hug": 460,
      "spo": 461,
      "give": 462,
      "its": 463,
      "ght": 464,
      "lad": 465,
      "com": 466,
      "scared": 467,
      "inside": 468,
      "much": 469,
      "everyone": 470,
      "vent": 471,
      "right": 472,
      "de": 473,
      "jack": 474,
      "bye": 475,
      "don": 476,
      "ink": 477,
      "ump": 478,
      "gard": 479,
      "garden": 480,
      "ser": 481,
      "af": 482,
      "pret": 483,
      "goodbye": 484,
      "ground": 485,
      "yes": 486,
      "soon": 487,
      "ball": 488,
      "dd": 489,
      "dog": 490,
      "ine": 491,
      "ving": 492,
      "set": 493,
      "small": 494,
      "ople": 495,
      "people": 496,
      "bet": 497,
      "any": 498,
      "cre": 499,
      "mar": 500,
      "sho": 501,
      "pt": 502,
      "anim": 503,
      "animal": 504,
      "flow": 505,
      "na": 506,
      "sur": 507,
      "mum": 508,
      "used": 509,
      "advent": 510,
      "open": 511,
      "cy": 512,
      "ged": 513,
      "box": 514,
      "will": 515,
      "et": 516,
      "tin": 517,
      "learned": 518,
      "best": 519,
      "place": 520,
      "ass": 521,
      "led": 522,
      "lew": 523,
      "ning": 524,
      "ol": 525,
      "joy": 526,
      "nice": 527,
      "fam": 528,
      "better": 529,
      "bra": 530,
      "tal": 531,
      "bear": 532,
      "ft": 533,
      "hard": 534,
      "smile": 535,
      "lots": 536,
      "jump": 537,
      "pu": 538,
      "adventure": 539,
      "store": 540,
      "many": 541,
      "ang": 542,
      "igh": 543,
      "kept": 544,
      "walk": 545,
      "gre": 546,
      "ting": 547,
      "proud": 548,
      "iz": 549,
      "fi": 550,
      "trying": 551,
      "ara": 552,
      "pick": 553,
      "xt": 554,
      "played": 555,
      "ready": 556,
      "mi": 557,
      "ched": 558,
      "tell": 559,
      "family": 560,
      "flew": 561,
      "ild": 562,
      "next": 563,
      "thanked": 564,
      "cu": 565,
      "showed": 566,
      "bea": 567,
      "ble": 568,
      "sam": 569,
      "animals": 570,
      "closer": 571,
      "call": 572,
      "close": 573,
      "max": 574,
      "bro": 575,
      "feeling": 576,
      "brave": 577,
      "thank": 578,
      "work": 579,
      "surpr": 580,
      "prom": 581,
      "raw": 582,
      "watch": 583,
      "two": 584,
      "far": 585,
      "been": 586,
      "before": 587,
      "lucy": 588,
      "clim": 589,
      "beaut": 590,
      "walked": 591,
      "spot": 592,
      "contin": 593,
      "continu": 594,
      "leave": 595,
      "sky": 596,
      "rab": 597,
      "still": 598,
      "clean": 599,
      "sara": 600,
      "iced": 601,
      "iful": 602,
      "fast": 603,
      "beautiful": 604,
      "quick": 605,
      "war": 606,
      "turn": 607,
      "laug": 608,
      "after": 609,
      "ask": 610,
      "bl": 611,
      "tre": 612,
      "safe": 613,
      "both": 614,
      "love": 615,
      "boat": 616,
      "noticed": 617,
      "thr": 618,
      "heard": 619,
      "ama": 620,
      "rain": 621,
      "continued": 622,
      "sor": 623,
      "cha": 624,
      "shin": 625,
      "rabbit": 626,
      "looking": 627,
      "quickly": 628,
      "str": 629,
      "vis": 630,
      "grab": 631,
      "promised": 632,
      "ste": 633,
      "tru": 634,
      "while": 635,
      "dan": 636,
      "buy": 637,
      "year": 638,
      "catch": 639,
      "ture": 640,
      "lue": 641,
      "ught": 642,
      "del": 643,
      "pi": 644,
      "ak": 645,
      "door": 646,
      "swing": 647,
      "dis": 648,
      "wind": 649,
      "upon": 650,
      "face": 651,
      "won": 652,
      "enjoy": 653,
      "cks": 654,
      "top": 655,
      "needed": 656,
      "da": 657,
      "hugged": 658,
      "fish": 659,
      "ren": 660,
      "leep": 661,
      "called": 662,
      "app": 663,
      "cho": 664,
      "being": 665,
      "doll": 666,
      "should": 667,
      "hear": 668,
      "pain": 669,
      "book": 670,
      "grand": 671,
      "ip": 672,
      "food": 673,
      "walking": 674,
      "why": 675,
      "ph": 676,
      "sudd": 677,
      "sudden": 678,
      "tr": 679,
      "pare": 680,
      "bob": 681,
      "himself": 682,
      "under": 683,
      "pretend": 684,
      "picture": 685,
      "rest": 686,
      "enough": 687,
      "dress": 688,
      "bal": 689,
      "age": 690,
      "real": 691,
      "hn": 692,
      "john": 693,
      "lly": 694,
      "lor": 695,
      "ash": 696,
      "remembered": 697,
      "ect": 698,
      "sat": 699,
      "mag": 700,
      "ane": 701,
      "wr": 702,
      "cket": 703,
      "night": 704,
      "ess": 705,
      "blue": 706,
      "stopped": 707,
      "shiny": 708,
      "move": 709,
      "curi": 710,
      "less": 711,
      "hands": 712,
      "ired": 713,
      "ath": 714,
      "lot": 715,
      "forest": 716,
      "visit": 717,
      "paren": 718,
      "hopped": 719,
      "suddenly": 720,
      "says": 721,
      "finally": 722,
      "ious": 723,
      "illy": 724,
      "butter": 725,
      "wear": 726,
      "climb": 727,
      "dif": 728,
      "med": 729,
      "game": 730,
      "llow": 731,
      "near": 732,
      "world": 733,
      "amaz": 734,
      "sorry": 735,
      "curious": 736,
      "ark": 737,
      "ward": 738,
      "ient": 739,
      "ished": 740,
      "lived": 741,
      "draw": 742,
      "light": 743,
      "talk": 744,
      "bor": 745,
      "also": 746,
      "follow": 747,
      "color": 748,
      "parents": 749,
      "flo": 750,
      "sl": 751,
      "flowers": 752,
      "squ": 753,
      "cry": 754,
      "stu": 755,
      "act": 756,
      "cr": 757,
      "waved": 758,
      "became": 759,
      "magic": 760,
      "bright": 761,
      "col": 762,
      "picked": 763,
      "pre": 764,
      "someone": 765,
      "hur": 766,
      "daddy": 767,
      "ond": 768,
      "through": 769,
      "eyes": 770,
      "stick": 771,
      "tired": 772,
      "bre": 773,
      "tri": 774,
      "land": 775,
      "tor": 776,
      "high": 777,
      "ple": 778,
      "sleep": 779,
      "fill": 780,
      "glad": 781,
      "listened": 782,
      "touch": 783,
      "once": 784,
      "times": 785,
      "lie": 786,
      "truck": 787,
      "stand": 788,
      "three": 789,
      "grass": 790,
      "fav": 791,
      "brother": 792,
      "anna": 793,
      "swim": 794,
      "ring": 795,
      "fir": 796,
      "wonder": 797,
      "happen": 798,
      "bow": 799,
      "ange": 800,
      "ase": 801,
      "bug": 802,
      "em": 803,
      "join": 804,
      "piec": 805,
      "warm": 806,
      "mon": 807,
      "itche": 808,
      "flower": 809,
      "ized": 810,
      "pro": 811,
      "joe": 812,
      "kitche": 813,
      "feren": 814,
      "lady": 815,
      "kitchen": 816,
      "really": 817,
      "hop": 818,
      "worked": 819,
      "differen": 820,
      "sing": 821,
      "opened": 822,
      "sit": 823,
      "watched": 824,
      "min": 825,
      "ster": 826,
      "beach": 827,
      "grabbed": 828,
      "head": 829,
      "cover": 830,
      "different": 831,
      "story": 832,
      "first": 833,
      "prin": 834,
      "ather": 835,
      "ride": 836,
      "pretty": 837,
      "helped": 838,
      "laughed": 839,
      "here": 840,
      "build": 841,
      "mia": 842,
      "okay": 843,
      "pond": 844,
      "ppy": 845,
      "sue": 846,
      "fell": 847,
      "running": 848,
      "mind": 849,
      "isy": 850,
      "jumped": 851,
      "blo": 852,
      "pat": 853,
      "shed": 854,
      "plain": 855,
      "pet": 856,
      "fix": 857,
      "molly": 858,
      "surprise": 859,
      "strong": 860,
      "sed": 861,
      "brought": 862,
      "les": 863,
      "vo": 864,
      "others": 865,
      "bring": 866,
      "bad": 867,
      "river": 868,
      "carefully": 869,
      "dream": 870,
      "bab": 871,
      "think": 872,
      "mer": 873,
      "ull": 874,
      "stop": 875,
      "birds": 876,
      "mor": 877,
      "ached": 878,
      "fire": 879,
      "daisy": 880,
      "du": 881,
      "mouse": 882,
      "dro": 883,
      "ied": 884,
      "table": 885,
      "ign": 886,
      "wood": 887,
      "sarah": 888,
      "butterfly": 889,
      "sand": 890,
      "perf": 891,
      "grandma": 892,
      "jane": 893,
      "sometimes": 894,
      "coun": 895,
      "mat": 896,
      "slow": 897,
      "fr": 898,
      "ger": 899,
      "ner": 900,
      "add": 901,
      "mean": 902,
      "baby": 903,
      "having": 904,
      "only": 905,
      "great": 906,
      "bath": 907,
      "ered": 908,
      "seen": 909,
      "green": 910,
      "ation": 911,
      "slide": 912,
      "favor": 913,
      "cut": 914,
      "ff": 915,
      "herself": 916,
      "favorite": 917,
      "oney": 918,
      "ries": 919,
      "years": 920,
      "bar": 921,
      "weet": 922,
      "mis": 923,
      "everything": 924,
      "surprised": 925,
      "ies": 926,
      "kid": 927,
      "another": 928,
      "chil": 929,
      "fl": 930,
      "explain": 931,
      "dren": 932,
      "children": 933,
      "cor": 934,
      "ever": 935,
      "tle": 936,
      "ummy": 937,
      "cake": 938,
      "sy": 939,
      "stran": 940,
      "ung": 941,
      "forgot": 942,
      "fro": 943,
      "puppy": 944,
      "bun": 945,
      "zy": 946,
      "realized": 947,
      "most": 948,
      "perfect": 949,
      "din": 950,
      "acc": 951,
      "trees": 952,
      "ken": 953,
      "key": 954,
      "aces": 955,
      "bran": 956,
      "loud": 957,
      "sally": 958,
      "floor": 959,
      "enny": 960,
      "board": 961,
      "hide": 962,
      "tw": 963,
      "idea": 964,
      "paint": 965,
      "tra": 966,
      "rel": 967,
      "arm": 968,
      "sear": 969,
      "mother": 970,
      "cook": 971,
      "worry": 972,
      "filled": 973,
      "plan": 974,
      "wall": 975,
      "return": 976,
      "cream": 977,
      "reached": 978,
      "ons": 979,
      "att": 980,
      "dance": 981,
      "cou": 982,
      "hole": 983,
      "start": 984,
      "gu": 985,
      "bot": 986,
      "magical": 987,
      "spl": 988,
      "blan": 989,
      "tow": 990,
      "hold": 991,
      "such": 992,
      "wasn": 993,
      "seemed": 994,
      "ins": 995,
      "has": 996,
      "hurt": 997,
      "mus": 998,
      "left": 999,
      "soft": 1000,
      "que": 1001,
      "event": 1002,
      "delic": 1003,
      "enjoyed": 1004,
      "morning": 1005,
      "gent": 1006,
      "full": 1007,
      "lesson": 1008,
      "voice": 1009,
      "cked": 1010,
      "asure": 1011,
      "ield": 1012,
      "leaves": 1013,
      "wonderful": 1014,
      "frog": 1015,
      "kitt": 1016,
      "waited": 1017,
      "ney": 1018,
      "lve": 1019,
      "ually": 1020,
      "making": 1021,
      "air": 1022,
      "hill": 1023,
      "held": 1024,
      "kids": 1025,
      "yel": 1026,
      "poin": 1027,
      "adventures": 1028,
      "noise": 1029,
      "cold": 1030,
      "shoes": 1031,
      "yummy": 1032,
      "without": 1033,
      "rock": 1034,
      "coming": 1035,
      "irt": 1036,
      "friendly": 1037,
      "bunny": 1038,
      "yellow": 1039,
      "dark": 1040,
      "sn": 1041,
      "ross": 1042,
      "slowly": 1043,
      "ike": 1044,
      "lake": 1045,
      "getting": 1046,
      "taking": 1047,
      "sound": 1048,
      "ze": 1049,
      "ich": 1050,
      "roll": 1051,
      "gon": 1052,
      "may": 1053,
      "ance": 1054,
      "ings": 1055,
      "hello": 1056,
      "av": 1057,
      "bag": 1058,
      "jim": 1059,
      "kno": 1060,
      "row": 1061,
      "cky": 1062,
      "window": 1063,
      "pping": 1064,
      "eventually": 1065,
      "amazing": 1066,
      "woods": 1067,
      "hair": 1068,
      "rub": 1069,
      "des": 1070,
      "jour": 1071,
      "scho": 1072,
      "tall": 1073,
      "tight": 1074,
      "reed": 1075,
      "word": 1076,
      "stepped": 1077,
      "school": 1078,
      "ced": 1079,
      "ek": 1080,
      "ely": 1081,
      "else": 1082,
      "finished": 1083,
      "ballo": 1084,
      "music": 1085,
      "ot": 1086,
      "whenever": 1087,
      "blanket": 1088,
      "fig": 1089,
      "belong": 1090,
      "fox": 1091,
      "deep": 1092,
      "branch": 1093,
      "done": 1094,
      "money": 1095,
      "sent": 1096,
      "whis": 1097,
      "agreed": 1098,
      "white": 1099,
      "turned": 1100,
      "cess": 1101,
      "few": 1102,
      "sec": 1103,
      "cast": 1104,
      "cool": 1105,
      "stayed": 1106,
      "mummy": 1107,
      "teddy": 1108,
      "zo": 1109,
      "laugh": 1110,
      "bble": 1111,
      "sail": 1112,
      "bucket": 1113,
      "creat": 1114,
      "itting": 1115,
      "ment": 1116,
      "must": 1117,
      "pass": 1118,
      "andy": 1119,
      "repl": 1120,
      "reach": 1121,
      "leph": 1122,
      "gi": 1123,
      "ten": 1124,
      "remind": 1125,
      "lec": 1126,
      "cla": 1127,
      "pink": 1128,
      "teach": 1129,
      "black": 1130,
      "fight": 1131,
      "kn": 1132,
      "funny": 1133,
      "paper": 1134,
      "eag": 1135,
      "cars": 1136,
      "anything": 1137,
      "journey": 1138,
      "dri": 1139,
      "field": 1140,
      "sitting": 1141,
      "bigger": 1142,
      "helping": 1143,
      "icy": 1144,
      "bike": 1145,
      "hid": 1146,
      "inv": 1147,
      "erous": 1148,
      "orange": 1149,
      "same": 1150,
      "exploring": 1151,
      "pictures": 1152,
      "write": 1153,
      "hind": 1154,
      "pow": 1155,
      "pur": 1156,
      "sweet": 1157,
      "grate": 1158,
      "eager": 1159,
      "grateful": 1160,
      "boun": 1161,
      "yard": 1162,
      "nodd": 1163,
      "mix": 1164,
      "colors": 1165,
      "break": 1166,
      "figure": 1167,
      "dry": 1168,
      "hor": 1169,
      "rink": 1170,
      "forward": 1171,
      "blocks": 1172,
      "happily": 1173,
      "heav": 1174,
      "meet": 1175,
      "replied": 1176,
      "race": 1177,
      "neigh": 1178,
      "grow": 1179,
      "aged": 1180,
      "managed": 1181,
      "benny": 1182,
      "farmer": 1183,
      "pieces": 1184,
      "strange": 1185,
      "oup": 1186,
      "wants": 1187,
      "fair": 1188,
      "thes": 1189,
      "termin": 1190,
      "carry": 1191,
      "party": 1192,
      "determin": 1193,
      "please": 1194,
      "tain": 1195,
      "wash": 1196,
      "child": 1197,
      "angry": 1198,
      "ize": 1199,
      "climbed": 1200,
      "squir": 1201,
      "delicious": 1202,
      "arri": 1203,
      "behind": 1204,
      "sea": 1205,
      "amy": 1206,
      "clothes": 1207,
      "swings": 1208,
      "secret": 1209,
      "mu": 1210,
      "search": 1211,
      "balloon": 1212,
      "determined": 1213,
      "squirrel": 1214,
      "cir": 1215,
      "name": 1216,
      "sign": 1217,
      "ister": 1218,
      "ugg": 1219,
      "which": 1220,
      "broken": 1221,
      "fur": 1222,
      "ju": 1223,
      "youn": 1224,
      "pol": 1225,
      "market": 1226,
      "followed": 1227,
      "happened": 1228,
      "nodded": 1229,
      "tu": 1230,
      "ary": 1231,
      "mail": 1232,
      "shop": 1233,
      "castle": 1234,
      "dra": 1235,
      "gather": 1236,
      "ling": 1237,
      "rush": 1238,
      "chair": 1239,
      "owl": 1240,
      "part": 1241,
      "imag": 1242,
      "moment": 1243,
      "tommy": 1244,
      "ours": 1245,
      "cloud": 1246,
      "piece": 1247,
      "explained": 1248,
      "craw": 1249,
      "free": 1250,
      "met": 1251,
      "hi": 1252,
      "understand": 1253,
      "amazed": 1254,
      "cup": 1255,
      "ming": 1256,
      "ence": 1257,
      "living": 1258,
      "pocket": 1259,
      "path": 1260,
      "tast": 1261,
      "appear": 1262,
      "dolls": 1263,
      "patient": 1264,
      "eleph": 1265,
      "ose": 1266,
      "sister": 1267,
      "ven": 1268,
      "does": 1269,
      "might": 1270,
      "wise": 1271,
      "nothing": 1272,
      "wrong": 1273,
      "gentle": 1274,
      "wand": 1275,
      "owner": 1276,
      "lucky": 1277,
      "jimmy": 1278,
      "young": 1279,
      "sc": 1280,
      "wel": 1281,
      "teac": 1282,
      "collec": 1283,
      "present": 1284,
      "trip": 1285,
      "arrived": 1286,
      "hung": 1287,
      "check": 1288,
      "books": 1289,
      "dinner": 1290,
      "alone": 1291,
      "cave": 1292,
      "stone": 1293,
      "epend": 1294,
      "discover": 1295,
      "elephant": 1296,
      "billy": 1297,
      "jill": 1298,
      "iting": 1299,
      "lead": 1300,
      "bee": 1301,
      "carried": 1302,
      "fold": 1303,
      "anymore": 1304,
      "nap": 1305,
      "cray": 1306,
      "princess": 1307,
      "kitty": 1308,
      "cal": 1309,
      "fall": 1310,
      "train": 1311,
      "log": 1312,
      "flying": 1313,
      "returned": 1314,
      "gone": 1315,
      "nic": 1316,
      "pull": 1317,
      "zz": 1318,
      "ens": 1319,
      "elly": 1320,
      "quie": 1321,
      "push": 1322,
      "drove": 1323,
      "heavy": 1324,
      "teacher": 1325,
      "hang": 1326,
      "silly": 1327,
      "har": 1328,
      "throw": 1329,
      "ughter": 1330,
      "daughter": 1331,
      "ctor": 1332,
      "lon": 1333,
      "sie": 1334,
      "vill": 1335,
      "outed": 1336,
      "places": 1337,
      "spin": 1338,
      "wards": 1339,
      "wished": 1340,
      "hes": 1341,
      "step": 1342,
      "ames": 1343,
      "doctor": 1344,
      "spark": 1345,
      "tiny": 1346,
      "swa": 1347,
      "thy": 1348,
      "across": 1349,
      "swam": 1350,
      "song": 1351,
      "today": 1352,
      "colorful": 1353,
      "hig": 1354,
      "thre": 1355,
      "shouted": 1356,
      "spe": 1357,
      "longer": 1358,
      "power": 1359,
      "wings": 1360,
      "shine": 1361,
      "peace": 1362,
      "eating": 1363,
      "faster": 1364,
      "quiet": 1365,
      "gy": 1366,
      "pay": 1367,
      "ton": 1368,
      "res": 1369,
      "lion": 1370,
      "carro": 1371,
      "umber": 1372,
      "job": 1373,
      "pers": 1374,
      "landed": 1375,
      "circle": 1376,
      "bite": 1377,
      "bush": 1378,
      "pointed": 1379,
      "dragon": 1380,
      "bought": 1381,
      "fused": 1382,
      "wra": 1383,
      "though": 1384,
      "nee": 1385,
      "spread": 1386,
      "shared": 1387,
      "count": 1388,
      "maybe": 1389,
      "words": 1390,
      "jake": 1391,
      "pig": 1392,
      "ident": 1393,
      "ater": 1394,
      "lift": 1395,
      "cape": 1396,
      "test": 1397,
      "mary": 1398,
      "pretended": 1399,
      "ffy": 1400,
      "relie": 1401,
      "art": 1402,
      "ats": 1403,
      "live": 1404,
      "wouldn": 1405,
      "nearby": 1406,
      "duck": 1407,
      "lonely": 1408,
      "flu": 1409,
      "iver": 1410,
      "along": 1411,
      "stood": 1412,
      "ions": 1413,
      "prot": 1414,
      "accep": 1415,
      "clu": 1416,
      "drink": 1417,
      "net": 1418,
      "everywhere": 1419,
      "thankful": 1420,
      "monster": 1421,
      "village": 1422,
      "threw": 1423,
      "idge": 1424,
      "bel": 1425,
      "plane": 1426,
      "body": 1427,
      "joke": 1428,
      "spect": 1429,
      "past": 1430,
      "spoon": 1431,
      "balance": 1432,
      "splash": 1433,
      "invited": 1434,
      "lar": 1435,
      "mama": 1436,
      "penny": 1437,
      "tro": 1438,
      "amp": 1439,
      "mark": 1440,
      "coura": 1441,
      "higher": 1442,
      "relieved": 1443,
      "fluffy": 1444,
      "cing": 1445,
      "dang": 1446,
      "gg": 1447,
      "snow": 1448,
      "moved": 1449,
      "bus": 1450,
      "kis": 1451,
      "pack": 1452,
      "hot": 1453,
      "reet": 1454,
      "chest": 1455,
      "bedroom": 1456,
      "ladder": 1457,
      "miss": 1458,
      "known": 1459,
      "horse": 1460,
      "jenny": 1461,
      "pan": 1462,
      "scre": 1463,
      "win": 1464,
      "tail": 1465,
      "finish": 1466,
      "town": 1467,
      "ipped": 1468,
      "ned": 1469,
      "lost": 1470,
      "aced": 1471,
      "ular": 1472,
      "comfor": 1473,
      "treasure": 1474,
      "accident": 1475,
      "ated": 1476,
      "bas": 1477,
      "pul": 1478,
      "heal": 1479,
      "wee": 1480,
      "rope": 1481,
      "pulled": 1482,
      "band": 1483,
      "fru": 1484,
      "je": 1485,
      "wave": 1486,
      "smell": 1487,
      "colour": 1488,
      "match": 1489,
      "belonged": 1490,
      "drive": 1491,
      "brush": 1492,
      "cer": 1493,
      "fit": 1494,
      "fence": 1495,
      "gen": 1496,
      "kite": 1497,
      "lay": 1498,
      "mil": 1499,
      "pes": 1500,
      "organ": 1501,
      "case": 1502,
      "stead": 1503,
      "imagin": 1504,
      "eas": 1505,
      "ob": 1506,
      "gest": 1507,
      "wet": 1508,
      "using": 1509,
      "protect": 1510,
      "allow": 1511,
      "sack": 1512,
      "forget": 1513,
      "rocks": 1514,
      "doing": 1515,
      "shy": 1516,
      "caught": 1517,
      "swimming": 1518,
      "couch": 1519,
      "lil": 1520,
      "sup": 1521,
      "solve": 1522,
      "well": 1523,
      "backyard": 1524,
      "jog": 1525,
      "stories": 1526,
      "woke": 1527,
      "thanks": 1528,
      "minut": 1529,
      "neighbor": 1530,
      "lila": 1531,
      "candy": 1532,
      "val": 1533,
      "answ": 1534,
      "instead": 1535,
      "street": 1536,
      "asleep": 1537,
      "shirt": 1538,
      "extra": 1539,
      "closed": 1540,
      "picnic": 1541,
      "naught": 1542,
      "basket": 1543,
      "respect": 1544,
      "onto": 1545,
      "save": 1546,
      "become": 1547,
      "often": 1548,
      "myster": 1549,
      "exciting": 1550,
      "bubble": 1551,
      "anyone": 1552,
      "number": 1553,
      "tie": 1554,
      "stret": 1555,
      "button": 1556,
      "sug": 1557,
      "measure": 1558,
      "pract": 1559,
      "letter": 1560,
      "brown": 1561,
      "taught": 1562,
      "emma": 1563,
      "cord": 1564,
      "appeared": 1565,
      "ast": 1566,
      "ped": 1567,
      "playground": 1568,
      "days": 1569,
      "upset": 1570,
      "takes": 1571,
      "pot": 1572,
      "sunny": 1573,
      "bowl": 1574,
      "hungry": 1575,
      "pill": 1576,
      "feather": 1577,
      "reminded": 1578,
      "accidentally": 1579,
      "naughty": 1580,
      "di": 1581,
      "ible": 1582,
      "sees": 1583,
      "adow": 1584,
      "ountain": 1585,
      "meadow": 1586,
      "scary": 1587,
      "dangerous": 1588,
      "fing": 1589,
      "ray": 1590,
      "sco": 1591,
      "spit": 1592,
      "likes": 1593,
      "cele": 1594,
      "bench": 1595,
      "talking": 1596,
      "turns": 1597,
      "phone": 1598,
      "trust": 1599,
      "ban": 1600,
      "bled": 1601,
      "driver": 1602,
      "fan": 1603,
      "towards": 1604,
      "anut": 1605,
      "shell": 1606,
      "life": 1607,
      "nose": 1608,
      "lying": 1609,
      "cage": 1610,
      "feet": 1611,
      "peanut": 1612,
      "foot": 1613,
      "chew": 1614,
      "knowing": 1615,
      "farm": 1616,
      "apple": 1617,
      "arms": 1618,
      "quest": 1619,
      "large": 1620,
      "hu": 1621,
      "record": 1622,
      "sage": 1623,
      "aser": 1624,
      "rushed": 1625,
      "knocked": 1626,
      "creature": 1627,
      "huge": 1628,
      "ap": 1629,
      "smo": 1630,
      "reg": 1631,
      "lock": 1632,
      "thin": 1633,
      "rose": 1634,
      "group": 1635,
      "card": 1636,
      "worried": 1637,
      "pool": 1638,
      "heart": 1639,
      "monkey": 1640,
      "purple": 1641,
      "gif": 1642,
      "mou": 1643,
      "mess": 1644,
      "stars": 1645,
      "spend": 1646,
      "grace": 1647,
      "shore": 1648,
      "danced": 1649,
      "bounce": 1650,
      "collect": 1651,
      "mouth": 1652,
      "tv": 1653,
      "ont": 1654,
      "vel": 1655,
      "hospit": 1656,
      "makes": 1657,
      "talked": 1658,
      "smiles": 1659,
      "matter": 1660,
      "front": 1661,
      "zoo": 1662,
      "person": 1663,
      "hospital": 1664,
      "ail": 1665,
      "egg": 1666,
      "hours": 1667,
      "usu": 1668,
      "bell": 1669,
      "seed": 1670,
      "plant": 1671,
      "exam": 1672,
      "perfor": 1673,
      "spotted": 1674,
      "breath": 1675,
      "dir": 1676,
      "pen": 1677,
      "wild": 1678,
      "refused": 1679,
      "vest": 1680,
      "unch": 1681,
      "escape": 1682,
      "decor": 1683,
      "looks": 1684,
      "shar": 1685,
      "offered": 1686,
      "waiting": 1687,
      "rainbow": 1688,
      "dropped": 1689,
      "cookies": 1690,
      "accept": 1691,
      "dirty": 1692,
      "blow": 1693,
      "cher": 1694,
      "cur": 1695,
      "hit": 1696,
      "jac": 1697,
      "edge": 1698,
      "peek": 1699,
      "busy": 1700,
      "added": 1701,
      "zoom": 1702,
      "mach": 1703,
      "tun": 1704,
      "rec": 1705,
      "wake": 1706,
      "island": 1707,
      "pper": 1708,
      "robot": 1709,
      "helpful": 1710,
      "pushed": 1711,
      "study": 1712,
      "clapped": 1713,
      "speed": 1714,
      "milk": 1715,
      "usual": 1716,
      "vide": 1717,
      "lip": 1718,
      "spicy": 1719,
      "coat": 1720,
      "shining": 1721,
      "tower": 1722,
      "crawled": 1723,
      "clear": 1724,
      "dle": 1725,
      "ier": 1726,
      "late": 1727,
      "later": 1728,
      "wish": 1729,
      "shelf": 1730,
      "belie": 1731,
      "hopping": 1732,
      "spid": 1733,
      "loves": 1734,
      "stuck": 1735,
      "desk": 1736,
      "peaceful": 1737,
      "depend": 1738,
      "gl": 1739,
      "hive": 1740,
      "vi": 1741,
      "inte": 1742,
      "ises": 1743,
      "nest": 1744,
      "igg": 1745,
      "rank": 1746,
      "angel": 1747,
      "snack": 1748,
      "juice": 1749,
      "minutes": 1750,
      "interest": 1751,
      "fred": 1752,
      "tou": 1753,
      "plate": 1754,
      "smart": 1755,
      "shake": 1756,
      "wore": 1757,
      "fairy": 1758,
      "clouds": 1759,
      "crayons": 1760,
      "tid": 1761,
      "vine": 1762,
      "leg": 1763,
      "stir": 1764,
      "sau": 1765,
      "iling": 1766,
      "goat": 1767,
      "week": 1768,
      "ult": 1769,
      "feed": 1770,
      "coin": 1771,
      "cheer": 1772,
      "shapes": 1773,
      "tape": 1774,
      "building": 1775,
      "cow": 1776,
      "ire": 1777,
      "mad": 1778,
      "pour": 1779,
      "rid": 1780,
      "isa": 1781,
      "sailed": 1782,
      "skip": 1783,
      "wrap": 1784,
      "celebr": 1785,
      "dependable": 1786,
      "nut": 1787,
      "pec": 1788,
      "round": 1789,
      "sour": 1790,
      "tweet": 1791,
      "road": 1792,
      "seek": 1793,
      "berries": 1794,
      "listening": 1795,
      "dest": 1796,
      "hoping": 1797,
      "rolled": 1798,
      "furry": 1799,
      "believe": 1800,
      "blew": 1801,
      "jar": 1802,
      "mask": 1803,
      "lea": 1804,
      "dove": 1805,
      "spray": 1806,
      "cozy": 1807,
      "law": 1808,
      "strugg": 1809,
      "circles": 1810,
      "touched": 1811,
      "bone": 1812,
      "pile": 1813,
      "leo": 1814,
      "thday": 1815,
      "neck": 1816,
      "motor": 1817,
      "supp": 1818,
      "note": 1819,
      "whole": 1820,
      "birthday": 1821,
      "father": 1822,
      "surren": 1823,
      "promise": 1824,
      "char": 1825,
      "wearing": 1826,
      "wander": 1827,
      "tidy": 1828,
      "surrender": 1829,
      "cross": 1830,
      "den": 1831,
      "glow": 1832,
      "jam": 1833,
      "these": 1834,
      "rib": 1835,
      "asking": 1836,
      "boss": 1837,
      "clay": 1838,
      "blem": 1839,
      "string": 1840,
      "problem": 1841,
      "tasty": 1842,
      "celebrate": 1843,
      "cus": 1844,
      "knee": 1845,
      "mid": 1846,
      "mir": 1847,
      "mmer": 1848,
      "obed": 1849,
      "port": 1850,
      "tied": 1851,
      "twee": 1852,
      "leaf": 1853,
      "sell": 1854,
      "uni": 1855,
      "post": 1856,
      "ief": 1857,
      "pudd": 1858,
      "hurry": 1859,
      "corner": 1860,
      "gathered": 1861,
      "calm": 1862,
      "generous": 1863,
      "mysterious": 1864,
      "interesting": 1865,
      "middle": 1866,
      "obedient": 1867,
      "tweety": 1868,
      "cried": 1869,
      "dist": 1870,
      "ife": 1871,
      "kick": 1872,
      "lunch": 1873,
      "tent": 1874,
      "wide": 1875,
      "rela": 1876,
      "wagon": 1877,
      "acked": 1878,
      "soar": 1879,
      "witch": 1880,
      "ugly": 1881,
      "pete": 1882,
      "berry": 1883,
      "tear": 1884,
      "class": 1885,
      "serve": 1886,
      "sticks": 1887,
      "bugs": 1888,
      "ducks": 1889,
      "bottle": 1890,
      "purse": 1891,
      "courage": 1892,
      "colourful": 1893,
      "allowed": 1894,
      "practice": 1895,
      "jacket": 1896,
      "machine": 1897,
      "relax": 1898,
      "cand": 1899,
      "line": 1900,
      "zip": 1901,
      "admi": 1902,
      "icine": 1903,
      "paw": 1904,
      "walks": 1905,
      "medicine": 1906,
      "crying": 1907,
      "brightly": 1908,
      "mud": 1909,
      "smoo": 1910,
      "admire": 1911,
      "mitt": 1912,
      "soup": 1913,
      "wom": 1914,
      "anc": 1915,
      "safel": 1916,
      "roof": 1917,
      "comes": 1918,
      "taken": 1919,
      "skin": 1920,
      "skipped": 1921,
      "compet": 1922,
      "warned": 1923,
      "twins": 1924,
      "knob": 1925,
      "giant": 1926,
      "valu": 1927,
      "fancy": 1928,
      "woman": 1929,
      "safely": 1930,
      "competit": 1931,
      "pir": 1932,
      "ror": 1933,
      "ye": 1934,
      "yell": 1935,
      "ity": 1936,
      "itch": 1937,
      "eng": 1938,
      "lean": 1939,
      "almost": 1940,
      "kets": 1941,
      "boo": 1942,
      "seem": 1943,
      "showing": 1944,
      "sunshine": 1945,
      "settle": 1946,
      "gently": 1947,
      "carrot": 1948,
      "kiss": 1949,
      "organize": 1950,
      "easy": 1951,
      "spider": 1952,
      "ancient": 1953,
      "bake": 1954,
      "tur": 1955,
      "task": 1956,
      "lemon": 1957,
      "stair": 1958,
      "smelly": 1959,
      "ches": 1960,
      "create": 1961,
      "pretending": 1962,
      "slid": 1963,
      "emily": 1964,
      "sandw": 1965,
      "searched": 1966,
      "kitten": 1967,
      "comfortable": 1968,
      "answer": 1969,
      "smooth": 1970,
      "faces": 1971,
      "oce": 1972,
      "pin": 1973,
      "packed": 1974,
      "shad": 1975,
      "send": 1976,
      "yal": 1977,
      "loyal": 1978,
      "beg": 1979,
      "ased": 1980,
      "spent": 1981,
      "wheel": 1982,
      "mole": 1983,
      "urge": 1984,
      "cloth": 1985,
      "lazy": 1986,
      "march": 1987,
      "true": 1988,
      "barber": 1989,
      "giving": 1990,
      "stones": 1991,
      "fruit": 1992,
      "suppl": 1993,
      "regular": 1994,
      "reci": 1995,
      "ocean": 1996,
      "glue": 1997,
      "jung": 1998,
      "wow": 1999,
      "ouble": 2000,
      "those": 2001,
      "ness": 2002,
      "rosie": 2003,
      "raid": 2004,
      "afraid": 2005,
      "sorts": 2006,
      "appreci": 2007,
      "choose": 2008,
      "bossy": 2009,
      "mirror": 2010,
      "jungle": 2011,
      "games": 2012,
      "kin": 2013,
      "stre": 2014,
      "illow": 2015,
      "seat": 2016,
      "unusual": 2017,
      "weak": 2018,
      "hope": 2019,
      "chick": 2020,
      "change": 2021,
      "starting": 2022,
      "susie": 2023,
      "smiling": 2024,
      "watching": 2025,
      "lovely": 2026,
      "favour": 2027,
      "bathroom": 2028,
      "cute": 2029,
      "holding": 2030,
      "creative": 2031,
      "stairs": 2032,
      "lend": 2033,
      "mountain": 2034,
      "vie": 2035,
      "ince": 2036,
      "era": 2037,
      "already": 2038,
      "stru": 2039,
      "orn": 2040,
      "veget": 2041,
      "nel": 2042,
      "suit": 2043,
      "pebble": 2044,
      "puts": 2045,
      "stor": 2046,
      "manage": 2047,
      "tea": 2048,
      "team": 2049,
      "clum": 2050,
      "early": 2051,
      "selfish": 2052,
      "nail": 2053,
      "picking": 2054,
      "tries": 2055,
      "singing": 2056,
      "covered": 2057,
      "flut": 2058,
      "stranger": 2059,
      "queen": 2060,
      "finger": 2061,
      "gift": 2062,
      "perform": 2063,
      "mittens": 2064,
      "favourite": 2065,
      "vegetable": 2066,
      "gum": 2067,
      "mic": 2068,
      "reli": 2069,
      "sock": 2070,
      "ature": 2071,
      "ention": 2072,
      "gem": 2073,
      "ones": 2074,
      "chur": 2075,
      "roar": 2076,
      "ship": 2077,
      "meant": 2078,
      "runs": 2079,
      "realised": 2080,
      "float": 2081,
      "stuff": 2082,
      "print": 2083,
      "flash": 2084,
      "attention": 2085,
      "healthy": 2086,
      "stretch": 2087,
      "clumsy": 2088,
      "church": 2089,
      "au": 2090,
      "fic": 2091,
      "furn": 2092,
      "honey": 2093,
      "muse": 2094,
      "ana": 2095,
      "iture": 2096,
      "erpill": 2097,
      "arrow": 2098,
      "ses": 2099,
      "ents": 2100,
      "lies": 2101,
      "noises": 2102,
      "decide": 2103,
      "moder": 2104,
      "caterpill": 2105,
      "bridge": 2106,
      "smaller": 2107,
      "deliver": 2108,
      "borrow": 2109,
      "wondered": 2110,
      "ignor": 2111,
      "whisper": 2112,
      "whistle": 2113,
      "storm": 2114,
      "furniture": 2115,
      "museum": 2116,
      "modern": 2117,
      "caterpillar": 2118,
      "ann": 2119,
      "urous": 2120,
      "cane": 2121,
      "office": 2122,
      "pair": 2123,
      "adventurous": 2124,
      "apples": 2125,
      "happening": 2126,
      "fixed": 2127,
      "passed": 2128,
      "neighb": 2129,
      "tasted": 2130,
      "discovered": 2131,
      "decorate": 2132,
      "vegetables": 2133,
      "reliable": 2134,
      "cab": 2135,
      "hone": 2136,
      "ially": 2137,
      "pillow": 2138,
      "toug": 2139,
      "ert": 2140,
      "ener": 2141,
      "station": 2142,
      "fork": 2143,
      "independ": 2144,
      "grown": 2145,
      "fool": 2146,
      "cheered": 2147,
      "needs": 2148,
      "last": 2149,
      "serious": 2150,
      "patch": 2151,
      "attach": 2152,
      "knife": 2153,
      "crayon": 2154,
      "carrots": 2155,
      "bubbles": 2156,
      "feathers": 2157,
      "viol": 2158,
      "competitive": 2159,
      "supply": 2160,
      "honest": 2161,
      "foolish": 2162,
      "athe": 2163,
      "apo": 2164,
      "eye": 2165,
      "gara": 2166,
      "hum": 2167,
      "lid": 2168,
      "sang": 2169,
      "ank": 2170,
      "eraser": 2171,
      "goes": 2172,
      "hood": 2173,
      "espec": 2174,
      "sport": 2175,
      "cop": 2176,
      "sharing": 2177,
      "rude": 2178,
      "poor": 2179,
      "taste": 2180,
      "handle": 2181,
      "grew": 2182,
      "dancing": 2183,
      "painter": 2184,
      "diffic": 2185,
      "squash": 2186,
      "standing": 2187,
      "moral": 2188,
      "fridge": 2189,
      "dino": 2190,
      "travel": 2191,
      "spla": 2192,
      "delicate": 2193,
      "lves": 2194,
      "sounds": 2195,
      "hiding": 2196,
      "hidden": 2197,
      "searching": 2198,
      "independent": 2199,
      "violin": 2200,
      "apolog": 2201,
      "garage": 2202,
      "especially": 2203,
      "difficult": 2204,
      "dig": 2205,
      "ese": 2206,
      "ia": 2207,
      "jet": 2208,
      "mit": 2209,
      "mine": 2210,
      "pop": 2211,
      "rug": 2212,
      "sick": 2213,
      "tory": 2214,
      "saur": 2215,
      "behave": 2216,
      "fear": 2217,
      "meal": 2218,
      "cheese": 2219,
      "map": 2220,
      "offer": 2221,
      "keeper": 2222,
      "willing": 2223,
      "chase": 2224,
      "bored": 2225,
      "crown": 2226,
      "press": 2227,
      "blackboard": 2228,
      "sparkly": 2229,
      "screen": 2230,
      "sugar": 2231,
      "sauce": 2232,
      "leaving": 2233,
      "stream": 2234,
      "tough": 2235,
      "dinosaur": 2236,
      "ct": 2237,
      "cact": 2238,
      "oven": 2239,
      "sil": 2240,
      "sort": 2241,
      "repe": 2242,
      "rece": 2243,
      "placed": 2244,
      "rice": 2245,
      "adi": 2246,
      "spill": 2247,
      "raise": 2248,
      "ured": 2249,
      "tool": 2250,
      "quit": 2251,
      "learning": 2252,
      "handed": 2253,
      "cush": 2254,
      "visited": 2255,
      "pilot": 2256,
      "chocol": 2257,
      "bald": 2258,
      "drawing": 2259,
      "crack": 2260,
      "dreaming": 2261,
      "walls": 2262,
      "attic": 2263,
      "tightly": 2264,
      "polite": 2265,
      "tweetie": 2266,
      "chocolate": 2267,
      "bull": 2268,
      "ian": 2269,
      "oh": 2270,
      "olive": 2271,
      "scr": 2272,
      "iness": 2273,
      "intro": 2274,
      "shes": 2275,
      "load": 2276,
      "separ": 2277,
      "sold": 2278,
      "chan": 2279,
      "shut": 2280,
      "moon": 2281,
      "marble": 2282,
      "jumping": 2283,
      "ighted": 2284,
      "delighted": 2285,
      "dishes": 2286,
      "enjoying": 2287,
      "trouble": 2288,
      "square": 2289,
      "sandy": 2290,
      "barn": 2291,
      "bottom": 2292,
      "cupboard": 2293,
      "harbor": 2294,
      "obj": 2295,
      "introdu": 2296,
      "dirt": 2297,
      "flies": 2298,
      "gain": 2299,
      "mel": 2300,
      "reve": 2301,
      "leash": 2302,
      "alert": 2303,
      "orm": 2304,
      "order": 2305,
      "orrow": 2306,
      "weigh": 2307,
      "suc": 2308,
      "tomorrow": 2309,
      "broke": 2310,
      "grandpa": 2311,
      "counter": 2312,
      "twirl": 2313,
      "design": 2314,
      "pants": 2315,
      "imagined": 2316,
      "examine": 2317,
      "unique": 2318,
      "flashlight": 2319,
      "energy": 2320,
      "reveal": 2321,
      "bing": 2322,
      "bread": 2323,
      "main": 2324,
      "sli": 2325,
      "snee": 2326,
      "vice": 2327,
      "wro": 2328,
      "rever": 2329,
      "remain": 2330,
      "stum": 2331,
      "stamp": 2332,
      "illi": 2333,
      "thief": 2334,
      "advice": 2335,
      "ech": 2336,
      "parade": 2337,
      "finding": 2338,
      "brilli": 2339,
      "yourself": 2340,
      "shook": 2341,
      "shoot": 2342,
      "puzz": 2343,
      "telling": 2344,
      "hoped": 2345,
      "laughing": 2346,
      "mailbox": 2347,
      "belt": 2348,
      "nuts": 2349,
      "micro": 2350,
      "wrote": 2351,
      "brilliant": 2352,
      "dive": 2353,
      "fac": 2354,
      "lit": 2355,
      "vous": 2356,
      "hey": 2357,
      "towel": 2358,
      "icked": 2359,
      "robe": 2360,
      "rode": 2361,
      "shout": 2362,
      "raft": 2363,
      "coins": 2364,
      "stove": 2365,
      "pray": 2366,
      "permit": 2367,
      "ears": 2368,
      "famous": 2369,
      "tells": 2370,
      "stub": 2371,
      "cookie": 2372,
      "shells": 2373,
      "curtain": 2374,
      "splashed": 2375,
      "cactus": 2376,
      "dar": 2377,
      "dull": 2378,
      "lisa": 2379,
      "mech": 2380,
      "rum": 2381,
      "wis": 2382,
      "zi": 2383,
      "anic": 2384,
      "argu": 2385,
      "isted": 2386,
      "stri": 2387,
      "lose": 2388,
      "weal": 2389,
      "moving": 2390,
      "excitedly": 2391,
      "forever": 2392,
      "spoke": 2393,
      "comp": 2394,
      "compass": 2395,
      "treat": 2396,
      "treats": 2397,
      "chased": 2398,
      "joey": 2399,
      "frust": 2400,
      "clap": 2401,
      "polish": 2402,
      "tutor": 2403,
      "mission": 2404,
      "seeds": 2405,
      "neckl": 2406,
      "candle": 2407,
      "changed": 2408,
      "mechanic": 2409,
      "fre": 2410,
      "fake": 2411,
      "fla": 2412,
      "gas": 2413,
      "inc": 2414,
      "stage": 2415,
      "veil": 2416,
      "web": 2417,
      "rocket": 2418,
      "sub": 2419,
      "rated": 2420,
      "shape": 2421,
      "needle": 2422,
      "tem": 2423,
      "impro": 2424,
      "clever": 2425,
      "kinds": 2426,
      "boats": 2427,
      "chain": 2428,
      "shoulder": 2429,
      "tray": 2430,
      "sleepy": 2431,
      "block": 2432,
      "stronger": 2433,
      "mixed": 2434,
      "pirate": 2435,
      "engine": 2436,
      "neighbour": 2437,
      "frustrated": 2438,
      "aid": 2439,
      "bul": 2440,
      "cour": 2441,
      "gth": 2442,
      "mr": 2443,
      "por": 2444,
      "pas": 2445,
      "scare": 2446,
      "vase": 2447,
      "yer": 2448,
      "zer": 2449,
      "ined": 2450,
      "lex": 2451,
      "stren": 2452,
      "thick": 2453,
      "sol": 2454,
      "igate": 2455,
      "hadn": 2456,
      "dol": 2457,
      "shroom": 2458,
      "wanting": 2459,
      "excite": 2460,
      "nowhere": 2461,
      "comm": 2462,
      "steal": 2463,
      "born": 2464,
      "bloom": 2465,
      "patter": 2466,
      "nervous": 2467,
      "flag": 2468,
      "corn": 2469,
      "mushroom": 2470,
      "crawl": 2471,
      "treasures": 2472,
      "bandage": 2473,
      "shark": 2474,
      "lawyer": 2475,
      "ornam": 2476,
      "suitcase": 2477,
      "passport": 2478,
      "strength": 2479,
      "excitement": 2480,
      "avo": 2481,
      "cil": 2482,
      "fil": 2483,
      "james": 2484,
      "oin": 2485,
      "sal": 2486,
      "ress": 2487,
      "alous": 2488,
      "unite": 2489,
      "chir": 2490,
      "raz": 2491,
      "coco": 2492,
      "umb": 2493,
      "skirt": 2494,
      "memor": 2495,
      "angle": 2496,
      "cube": 2497,
      "provide": 2498,
      "split": 2499,
      "powerful": 2500,
      "jealous": 2501,
      "buttons": 2502,
      "suggest": 2503,
      "eggs": 2504,
      "pencil": 2505,
      "puddle": 2506,
      "sandwich": 2507,
      "flute": 2508,
      "stubborn": 2509,
      "wealthy": 2510,
      "dolph": 2511,
      "burn": 2512,
      "cam": 2513,
      "est": 2514,
      "glove": 2515,
      "mill": 2516,
      "rise": 2517,
      "tig": 2518,
      "invest": 2519,
      "encoura": 2520,
      "iron": 2521,
      "velve": 2522,
      "icop": 2523,
      "space": 2524,
      "helicop": 2525,
      "peter": 2526,
      "working": 2527,
      "trade": 2528,
      "understood": 2529,
      "prevent": 2530,
      "mistakes": 2531,
      "snugg": 2532,
      "rescu": 2533,
      "comfort": 2534,
      "fruits": 2535,
      "graceful": 2536,
      "necklace": 2537,
      "pattern": 2538,
      "investigate": 2539,
      "velvet": 2540,
      "helicopter": 2541,
      "bent": 2542,
      "ee": 2543,
      "fu": 2544,
      "gate": 2545,
      "gigg": 2546,
      "ilor": 2547,
      "jen": 2548,
      "men": 2549,
      "raced": 2550,
      "tank": 2551,
      "inclu": 2552,
      "itself": 2553,
      "ingred": 2554,
      "sailor": 2555,
      "weep": 2556,
      "nosy": 2557,
      "rot": 2558,
      "shone": 2559,
      "suff": 2560,
      "rare": 2561,
      "raven": 2562,
      "pear": 2563,
      "putting": 2564,
      "comet": 2565,
      "wolf": 2566,
      "drew": 2567,
      "runk": 2568,
      "pale": 2569,
      "gives": 2570,
      "sammy": 2571,
      "delight": 2572,
      "disapp": 2573,
      "lights": 2574,
      "active": 2575,
      "triangle": 2576,
      "drop": 2577,
      "guard": 2578,
      "given": 2579,
      "imagine": 2580,
      "mighty": 2581,
      "harm": 2582,
      "club": 2583,
      "package": 2584,
      "cherry": 2585,
      "appreciate": 2586,
      "subway": 2587,
      "ingredient": 2588,
      "disappoin": 2589,
      "aking": 2590,
      "crab": 2591,
      "frank": 2592,
      "mes": 2593,
      "rake": 2594,
      "sne": 2595,
      "yac": 2596,
      "repair": 2597,
      "ery": 2598,
      "arian": 2599,
      "spa": 2600,
      "spun": 2601,
      "movie": 2602,
      "newspa": 2603,
      "rant": 2604,
      "makeup": 2605,
      "gets": 2606,
      "boys": 2607,
      "paid": 2608,
      "trucks": 2609,
      "disappeared": 2610,
      "bobby": 2611,
      "pleased": 2612,
      "horn": 2613,
      "doesn": 2614,
      "banana": 2615,
      "turtle": 2616,
      "repeat": 2617,
      "compassion": 2618,
      "course": 2619,
      "cocoa": 2620,
      "yacht": 2621,
      "dish": 2622,
      "ga": 2623,
      "oc": 2624,
      "pty": 2625,
      "sca": 2626,
      "scat": 2627,
      "since": 2628,
      "rele": 2629,
      "orge": 2630,
      "rick": 2631,
      "undry": 2632,
      "libr": 2633,
      "noon": 2634,
      "shr": 2635,
      "explored": 2636,
      "polly": 2637,
      "laundry": 2638,
      "comput": 2639,
      "ips": 2640,
      "embar": 2641,
      "empty": 2642,
      "prince": 2643,
      "dreams": 2644,
      "airport": 2645,
      "pointing": 2646,
      "rubbed": 2647,
      "whist": 2648,
      "fighting": 2649,
      "songs": 2650,
      "resist": 2651,
      "pastry": 2652,
      "pedal": 2653,
      "tunnel": 2654,
      "video": 2655,
      "struggled": 2656,
      "boots": 2657,
      "silver": 2658,
      "spilled": 2659,
      "tools": 2660,
      "slipped": 2661,
      "stumbled": 2662,
      "puzzle": 2663,
      "factory": 2664,
      "rescue": 2665,
      "disappointed": 2666,
      "scatter": 2667,
      "embarr": 2668,
      "bby": 2669,
      "cof": 2670,
      "eld": 2671,
      "fted": 2672,
      "kay": 2673,
      "lamp": 2674,
      "mas": 2675,
      "oy": 2676,
      "oak": 2677,
      "pump": 2678,
      "rough": 2679,
      "tion": 2680,
      "toast": 2681,
      "inal": 2682,
      "alice": 2683,
      "orig": 2684,
      "imney": 2685,
      "weather": 2686,
      "hoop": 2687,
      "chimney": 2688,
      "itter": 2689,
      "fee": 2690,
      "agree": 2691,
      "buzz": 2692,
      "rules": 2693,
      "pole": 2694,
      "closely": 2695,
      "swinging": 2696,
      "plants": 2697,
      "fields": 2698,
      "freezer": 2699,
      "wrapped": 2700,
      "thinking": 2701,
      "tuna": 2702,
      "legs": 2703,
      "ribb": 2704,
      "chicken": 2705,
      "receive": 2706,
      "improve": 2707,
      "razor": 2708,
      "shrimp": 2709,
      "coffee": 2710,
      "original": 2711,
      "ax": 2712,
      "bill": 2713,
      "gun": 2714,
      "laser": 2715,
      "nature": 2716,
      "osed": 2717,
      "rh": 2718,
      "rac": 2719,
      "swee": 2720,
      "inarian": 2721,
      "replace": 2722,
      "waist": 2723,
      "enve": 2724,
      "bey": 2725,
      "beet": 2726,
      "ilty": 2727,
      "ird": 2728,
      "veter": 2729,
      "gear": 2730,
      "ending": 2731,
      "biggest": 2732,
      "summer": 2733,
      "metal": 2734,
      "gray": 2735,
      "quar": 2736,
      "against": 2737,
      "page": 2738,
      "dead": 2739,
      "boxes": 2740,
      "warning": 2741,
      "discus": 2742,
      "fishing": 2743,
      "phy": 2744,
      "restau": 2745,
      "johnny": 2746,
      "squee": 2747,
      "frown": 2748,
      "barked": 2749,
      "twig": 2750,
      "guess": 2751,
      "guilty": 2752,
      "snake": 2753,
      "folder": 2754,
      "steps": 2755,
      "trophy": 2756,
      "super": 2757,
      "diary": 2758,
      "scope": 2759,
      "sharp": 2760,
      "cheerful": 2761,
      "support": 2762,
      "supposed": 2763,
      "valuable": 2764,
      "shadow": 2765,
      "scrat": 2766,
      "wishes": 2767,
      "argue": 2768,
      "incred": 2769,
      "dolphin": 2770,
      "encouraged": 2771,
      "ingredients": 2772,
      "message": 2773,
      "pumpkin": 2774,
      "envelo": 2775,
      "beetle": 2776,
      "veterinarian": 2777,
      "restaurant": 2778,
      "cran": 2779,
      "clow": 2780,
      "hun": 2781,
      "knight": 2782,
      "pho": 2783,
      "scream": 2784,
      "trunk": 2785,
      "toes": 2786,
      "ines": 2787,
      "recomm": 2788,
      "env": 2789,
      "selves": 2790,
      "thumb": 2791,
      "ates": 2792,
      "ighed": 2793,
      "playful": 2794,
      "unknown": 2795,
      "unlock": 2796,
      "endar": 2797,
      "chance": 2798,
      "grump": 2799,
      "pared": 2800,
      "perched": 2801,
      "saying": 2802,
      "hugs": 2803,
      "deer": 2804,
      "izzy": 2805,
      "trum": 2806,
      "trap": 2807,
      "attached": 2808,
      "calendar": 2809,
      "speak": 2810,
      "astic": 2811,
      "football": 2812,
      "begin": 2813,
      "ignorant": 2814,
      "cushion": 2815,
      "separate": 2816,
      "porch": 2817,
      "camera": 2818,
      "tiger": 2819,
      "library": 2820,
      "computer": 2821,
      "clown": 2822,
      "photo": 2823,
      "drum": 2824,
      "fountain": 2825,
      "gn": 2826,
      "jelly": 2827,
      "tag": 2828,
      "reco": 2829,
      "hammer": 2830,
      "below": 2831,
      "soap": 2832,
      "holid": 2833,
      "helmet": 2834,
      "pard": 2835,
      "useful": 2836,
      "bud": 2837,
      "buck": 2838,
      "learnt": 2839,
      "feels": 2840,
      "poppy": 2841,
      "brace": 2842,
      "skill": 2843,
      "earth": 2844,
      "confused": 2845,
      "assed": 2846,
      "cudd": 2847,
      "continue": 2848,
      "cleaning": 2849,
      "chose": 2850,
      "painted": 2851,
      "counted": 2852,
      "ations": 2853,
      "branches": 2854,
      "bags": 2855,
      "rubbing": 2856,
      "balloons": 2857,
      "powder": 2858,
      "police": 2859,
      "shopkeeper": 2860,
      "gym": 2861,
      "jokes": 2862,
      "jewel": 2863,
      "waves": 2864,
      "observe": 2865,
      "glass": 2866,
      "riding": 2867,
      "leopard": 2868,
      "leaned": 2869,
      "humble": 2870,
      "complet": 2871,
      "chirp": 2872,
      "newspaper": 2873,
      "embarrassed": 2874,
      "recogn": 2875,
      "holiday": 2876,
      "aunt": 2877,
      "base": 2878,
      "gust": 2879,
      "hic": 2880,
      "mare": 2881,
      "padd": 2882,
      "tummy": 2883,
      "ue": 2884,
      "inked": 2885,
      "intell": 2886,
      "request": 2887,
      "hay": 2888,
      "stat": 2889,
      "vehic": 2890,
      "fort": 2891,
      "ella": 2892,
      "nobody": 2893,
      "ups": 2894,
      "rob": 2895,
      "inde": 2896,
      "rag": 2897,
      "covery": 2898,
      "birdie": 2899,
      "birdcage": 2900,
      "older": 2901,
      "impress": 2902,
      "maria": 2903,
      "proudly": 2904,
      "sors": 2905,
      "discovery": 2906,
      "nightmare": 2907,
      "prepare": 2908,
      "stickers": 2909,
      "lands": 2910,
      "sity": 2911,
      "zebra": 2912,
      "mention": 2913,
      "tub": 2914,
      "collecting": 2915,
      "pushing": 2916,
      "kissed": 2917,
      "tears": 2918,
      "paws": 2919,
      "neighbourhood": 2920,
      "snuggled": 2921,
      "fuel": 2922,
      "suffer": 2923,
      "quarrel": 2924,
      "incredible": 2925,
      "crane": 2926,
      "grumpy": 2927,
      "trumpet": 2928,
      "buckle": 2929,
      "bracelet": 2930,
      "intellig": 2931,
      "statue": 2932,
      "bitter": 2933,
      "hut": 2934,
      "norm": 2935,
      "obey": 2936,
      "pit": 2937,
      "pri": 2938,
      "wed": 2939,
      "inf": 2940,
      "issors": 2941,
      "attr": 2942,
      "unk": 2943,
      "uncle": 2944,
      "spring": 2945,
      "spike": 2946,
      "ideas": 2947,
      "carpet": 2948,
      "exper": 2949,
      "teleph": 2950,
      "hedge": 2951,
      "sunset": 2952,
      "thoughtful": 2953,
      "kindness": 2954,
      "aff": 2955,
      "setting": 2956,
      "izz": 2957,
      "boring": 2958,
      "stud": 2959,
      "means": 2960,
      "barrel": 2961,
      "scur": 2962,
      "scissors": 2963,
      "welcome": 2964,
      "hanging": 2965,
      "numbers": 2966,
      "stretched": 2967,
      "questions": 2968,
      "axe": 2969,
      "intelligent": 2970,
      "normal": 2971,
      "telephone": 2972,
      "abo": 2973,
      "dizzy": 2974,
      "lilly": 2975,
      "oat": 2976,
      "oting": 2977,
      "sla": 2978,
      "ume": 2979,
      "wi": 2980,
      "wha": 2981,
      "ley": 2982,
      "ppo": 2983,
      "forgive": 2984,
      "chu": 2985,
      "happiness": 2986,
      "dolly": 2987,
      "helps": 2988,
      "cart": 2989,
      "pepper": 2990,
      "uring": 2991,
      "everyday": 2992,
      "ssible": 2993,
      "possible": 2994,
      "dreamed": 2995,
      "scarf": 2996,
      "papa": 2997,
      "comb": 2998,
      "danny": 2999,
      "balan": 3000,
      "blueberry": 3001,
      "butterflies": 3002,
      "colours": 3003,
      "joined": 3004,
      "headed": 3005,
      "perfume": 3006,
      "point": 3007,
      "breakfast": 3008,
      "growing": 3009,
      "spinning": 3010,
      "imagination": 3011,
      "respectful": 3012,
      "fingers": 3013,
      "bank": 3014,
      "freddy": 3015,
      "notebook": 3016,
      "cabin": 3017,
      "popular": 3018,
      "object": 3019,
      "success": 3020,
      "sneak": 3021,
      "compassionate": 3022,
      "scale": 3023,
      "elder": 3024,
      "massage": 3025,
      "envelope": 3026,
      "buddy": 3027,
      "infant": 3028,
      "above": 3029,
      "apr": 3030,
      "cone": 3031,
      "ded": 3032,
      "jug": 3033,
      "lk": 3034,
      "lou": 3035,
      "uli": 3036,
      "yo": 3037,
      "ans": 3038,
      "resp": 3039,
      "leak": 3040,
      "stack": 3041,
      "owed": 3042,
      "rich": 3043,
      "ately": 3044,
      "ado": 3045,
      "igno": 3046,
      "player": 3047,
      "univer": 3048,
      "asses": 3049,
      "urged": 3050,
      "reef": 3051,
      "checked": 3052,
      "closet": 3053,
      "calling": 3054,
      "chalk": 3055,
      "delay": 3056,
      "painting": 3057,
      "track": 3058,
      "climbing": 3059,
      "thinks": 3060,
      "insisted": 3061,
      "sounded": 3062,
      "knock": 3063,
      "bounced": 3064,
      "further": 3065,
      "hippo": 3066,
      "leader": 3067,
      "screamed": 3068,
      "organized": 3069,
      "letters": 3070,
      "creatures": 3071,
      "bella": 3072,
      "glasses": 3073,
      "isabel": 3074,
      "charming": 3075,
      "yelled": 3076,
      "dared": 3077,
      "salad": 3078,
      "landscape": 3079,
      "wipe": 3080,
      "chubby": 3081,
      "bur": 3082,
      "bathe": 3083,
      "ging": 3084,
      "glo": 3085,
      "gro": 3086,
      "iers": 3087,
      "knot": 3088,
      "milly": 3089,
      "sink": 3090,
      "vend": 3091,
      "restore": 3092,
      "reinde": 3093,
      "ense": 3094,
      "washed": 3095,
      "isn": 3096,
      "hero": 3097,
      "stup": 3098,
      "straw": 3099,
      "saving": 3100,
      "sofa": 3101,
      "soph": 3102,
      "vet": 3103,
      "rior": 3104,
      "igail": 3105,
      "hose": 3106,
      "somewhere": 3107,
      "abigail": 3108,
      "itten": 3109,
      "shrink": 3110,
      "starts": 3111,
      "modest": 3112,
      "news": 3113,
      "illa": 3114,
      "petal": 3115,
      "careless": 3116,
      "bury": 3117,
      "conv": 3118,
      "content": 3119,
      "compl": 3120,
      "warn": 3121,
      "warrior": 3122,
      "dancer": 3123,
      "hears": 3124,
      "written": 3125,
      "blueberries": 3126,
      "sleeping": 3127,
      "frame": 3128,
      "avail": 3129,
      "rubber": 3130,
      "taller": 3131,
      "belongs": 3132,
      "whisk": 3133,
      "cooler": 3134,
      "oranges": 3135,
      "quietly": 3136,
      "pastel": 3137,
      "easier": 3138,
      "scoo": 3139,
      "maddy": 3140,
      "poured": 3141,
      "whispered": 3142,
      "reverse": 3143,
      "microscope": 3144,
      "fresh": 3145,
      "ornaments": 3146,
      "suggested": 3147,
      "whistling": 3148,
      "kayak": 3149,
      "skills": 3150,
      "vehicle": 3151,
      "whale": 3152,
      "elderly": 3153,
      "ignore": 3154,
      "grocer": 3155,
      "vendor": 3156,
      "reindeer": 3157,
      "stupid": 3158,
      "available": 3159,
      "apart": 3160,
      "alex": 3161,
      "brick": 3162,
      "crib": 3163,
      "drank": 3164,
      "gho": 3165,
      "gary": 3166,
      "jail": 3167,
      "swan": 3168,
      "size": 3169,
      "theater": 3170,
      "onion": 3171,
      "stadi": 3172,
      "loop": 3173,
      "nemo": 3174,
      "ices": 3175,
      "united": 3176,
      "george": 3177,
      "ween": 3178,
      "weird": 3179,
      "hook": 3180,
      "ended": 3181,
      "rod": 3182,
      "roy": 3183,
      "cap": 3184,
      "themselves": 3185,
      "chess": 3186,
      "bushes": 3187,
      "shows": 3188,
      "maze": 3189,
      "istent": 3190,
      "poke": 3191,
      "permission": 3192,
      "tap": 3193,
      "evening": 3194,
      "complain": 3195,
      "between": 3196,
      "bling": 3197,
      "trash": 3198,
      "flour": 3199,
      "otter": 3200,
      "wandered": 3201,
      "beef": 3202,
      "clearing": 3203,
      "destroy": 3204,
      "charlie": 3205,
      "stuffed": 3206,
      "soldiers": 3207,
      "harmless": 3208,
      "oyster": 3209,
      "apron": 3210,
      "gloom": 3211,
      "sophie": 3212,
      "whiskers": 3213,
      "ghost": 3214,
      "stadium": 3215,
      "aw": 3216,
      "bin": 3217,
      "bicy": 3218,
      "cado": 3219,
      "kang": 3220,
      "nie": 3221,
      "oo": 3222,
      "ox": 3223,
      "ti": 3224,
      "ygen": 3225,
      "incre": 3226,
      "remy": 3227,
      "ened": 3228,
      "aroo": 3229,
      "waste": 3230,
      "stra": 3231,
      "staff": 3232,
      "locked": 3233,
      "bees": 3234,
      "irit": 3235,
      "golf": 3236,
      "enter": 3237,
      "amond": 3238,
      "short": 3239,
      "shiver": 3240,
      "spirit": 3241,
      "notice": 3242,
      "costu": 3243,
      "umbre": 3244,
      "quite": 3245,
      "lla": 3246,
      "deaf": 3247,
      "marry": 3248,
      "beak": 3249,
      "blinked": 3250,
      "display": 3251,
      "dressed": 3252,
      "wardrobe": 3253,
      "breathe": 3254,
      "warmth": 3255,
      "bringing": 3256,
      "cooking": 3257,
      "blankets": 3258,
      "reminder": 3259,
      "presents": 3260,
      "persistent": 3261,
      "mystery": 3262,
      "diamond": 3263,
      "distant": 3264,
      "struct": 3265,
      "pillows": 3266,
      "sneeze": 3267,
      "stamps": 3268,
      "curtains": 3269,
      "avocado": 3270,
      "memories": 3271,
      "squeeze": 3272,
      "scratch": 3273,
      "attractive": 3274,
      "petals": 3275,
      "gloomy": 3276,
      "bicycle": 3277,
      "kangaroo": 3278,
      "oxygen": 3279,
      "straight": 3280,
      "costume": 3281,
      "umbrella": 3282,
      "ator": 3283,
      "cel": 3284,
      "ef": 3285,
      "gor": 3286,
      "gged": 3287,
      "gloves": 3288,
      "ience": 3289,
      "mand": 3290,
      "mome": 3291,
      "pal": 3292,
      "radi": 3293,
      "tilly": 3294,
      "tti": 3295,
      "wip": 3296,
      "yar": 3297,
      "zig": 3298,
      "zag": 3299,
      "hetti": 3300,
      "ano": 3301,
      "stable": 3302,
      "lola": 3303,
      "hats": 3304,
      "ache": 3305,
      "goal": 3306,
      "atter": 3307,
      "nes": 3308,
      "entered": 3309,
      "ason": 3310,
      "form": 3311,
      "forth": 3312,
      "weighed": 3313,
      "lizz": 3314,
      "thermome": 3315,
      "cauli": 3316,
      "spag": 3317,
      "spaces": 3318,
      "terri": 3319,
      "model": 3320,
      "seeing": 3321,
      "grin": 3322,
      "owners": 3323,
      "opera": 3324,
      "cheek": 3325,
      "cats": 3326,
      "sadly": 3327,
      "dogs": 3328,
      "inet": 3329,
      "surface": 3330,
      "trem": 3331,
      "piano": 3332,
      "paints": 3333,
      "bookcase": 3334,
      "dreamt": 3335,
      "fireman": 3336,
      "sailing": 3337,
      "driving": 3338,
      "eagerly": 3339,
      "bouncing": 3340,
      "mixer": 3341,
      "circus": 3342,
      "hanger": 3343,
      "screw": 3344,
      "jeep": 3345,
      "answered": 3346,
      "snacks": 3347,
      "masks": 3348,
      "classroom": 3349,
      "turkey": 3350,
      "struc": 3351,
      "cabinet": 3352,
      "apologized": 3353,
      "zipper": 3354,
      "mrs": 3355,
      "complete": 3356,
      "respons": 3357,
      "scooter": 3358,
      "gorilla": 3359,
      "radio": 3360,
      "yarn": 3361,
      "zigzag": 3362,
      "lizzie": 3363,
      "thermometer": 3364,
      "spaghetti": 3365,
      "ahead": 3366,
      "bree": 3367,
      "bump": 3368,
      "batter": 3369,
      "cra": 3370,
      "camp": 3371,
      "mber": 3372,
      "oats": 3373,
      "ris": 3374,
      "rust": 3375,
      "sight": 3376,
      "vol": 3377,
      "vowed": 3378,
      "yield": 3379,
      "zed": 3380,
      "zzy": 3381,
      "toby": 3382,
      "hamed": 3383,
      "ides": 3384,
      "sty": 3385,
      "beat": 3386,
      "beans": 3387,
      "gold": 3388,
      "ashamed": 3389,
      "ects": 3390,
      "lifted": 3391,
      "chor": 3392,
      "cano": 3393,
      "luck": 3394,
      "expens": 3395,
      "laid": 3396,
      "iest": 3397,
      "spoil": 3398,
      "demand": 3399,
      "married": 3400,
      "ledge": 3401,
      "beauty": 3402,
      "cleaned": 3403,
      "chamber": 3404,
      "pipe": 3405,
      "doors": 3406,
      "choice": 3407,
      "foods": 3408,
      "brothers": 3409,
      "missed": 3410,
      "explaining": 3411,
      "loudly": 3412,
      "twist": 3413,
      "hills": 3414,
      "windows": 3415,
      "mustache": 3416,
      "zooming": 3417,
      "sausage": 3418,
      "slides": 3419,
      "shade": 3420,
      "chickens": 3421,
      "apologize": 3422,
      "fearful": 3423,
      "twirled": 3424,
      "revealed": 3425,
      "bulb": 3426,
      "envious": 3427,
      "increase": 3428,
      "breeze": 3429,
      "volcano": 3430,
      "expensive": 3431,
      "aked": 3432,
      "cin": 3433,
      "cind": 3434,
      "ding": 3435,
      "fas": 3436,
      "file": 3437,
      "four": 3438,
      "gra": 3439,
      "gran": 3440,
      "ib": 3441,
      "iv": 3442,
      "kate": 3443,
      "licked": 3444,
      "nation": 3445,
      "pizz": 3446,
      "rat": 3447,
      "van": 3448,
      "vac": 3449,
      "wigg": 3450,
      "yaw": 3451,
      "hen": 3452,
      "tony": 3453,
      "encourage": 3454,
      "saved": 3455,
      "beep": 3456,
      "immed": 3457,
      "ilt": 3458,
      "plastic": 3459,
      "nod": 3460,
      "chip": 3461,
      "wheat": 3462,
      "cob": 3463,
      "coats": 3464,
      "worm": 3465,
      "wherever": 3466,
      "crept": 3467,
      "shooting": 3468,
      "bears": 3469,
      "jumps": 3470,
      "picks": 3471,
      "fastest": 3472,
      "afternoon": 3473,
      "topus": 3474,
      "restless": 3475,
      "magnet": 3476,
      "hurried": 3477,
      "badly": 3478,
      "country": 3479,
      "counting": 3480,
      "mistake": 3481,
      "forgotten": 3482,
      "planted": 3483,
      "muscle": 3484,
      "meeting": 3485,
      "washing": 3486,
      "understanding": 3487,
      "logs": 3488,
      "struggling": 3489,
      "jamas": 3490,
      "floating": 3491,
      "introduced": 3492,
      "octopus": 3493,
      "beginning": 3494,
      "recognize": 3495,
      "loops": 3496,
      "structure": 3497,
      "cindy": 3498,
      "fascin": 3499,
      "pizza": 3500,
      "bark": 3501,
      "cree": 3502,
      "cous": 3503,
      "dug": 3504,
      "equ": 3505,
      "hunt": 3506,
      "ker": 3507,
      "knel": 3508,
      "lul": 3509,
      "lick": 3510,
      "lumber": 3511,
      "mild": 3512,
      "ral": 3513,
      "sword": 3514,
      "tip": 3515,
      "vas": 3516,
      "wing": 3517,
      "zipped": 3518,
      "anchor": 3519,
      "sheep": 3520,
      "ordin": 3521,
      "icing": 3522,
      "iches": 3523,
      "weight": 3524,
      "weap": 3525,
      "bol": 3526,
      "chief": 3527,
      "capt": 3528,
      "pee": 3529,
      "worries": 3530,
      "canvas": 3531,
      "shaking": 3532,
      "popped": 3533,
      "reading": 3534,
      "knowledge": 3535,
      "pajamas": 3536,
      "remembers": 3537,
      "jacky": 3538,
      "sett": 3539,
      "shocked": 3540,
      "appro": 3541,
      "chores": 3542,
      "ipment": 3543,
      "action": 3544,
      "firm": 3545,
      "ducky": 3546,
      "armchair": 3547,
      "insist": 3548,
      "rolling": 3549,
      "hairy": 3550,
      "teaching": 3551,
      "bikes": 3552,
      "sparkles": 3553,
      "minute": 3554,
      "chewed": 3555,
      "blowing": 3556,
      "curled": 3557,
      "weeks": 3558,
      "relaxed": 3559,
      "value": 3560,
      "sandwiches": 3561,
      "begged": 3562,
      "introduce": 3563,
      "zipping": 3564,
      "release": 3565,
      "ribbons": 3566,
      "jellyfish": 3567,
      "louder": 3568,
      "convince": 3569,
      "celery": 3570,
      "terrible": 3571,
      "henry": 3572,
      "creek": 3573,
      "equipment": 3574,
      "knelt": 3575,
      "lulu": 3576,
      "ralph": 3577,
      "ordinary": 3578,
      "weapon": 3579,
      "bru": 3580,
      "chat": 3581,
      "ccer": 3582,
      "ele": 3583,
      "jer": 3584,
      "os": 3585,
      "ocer": 3586,
      "pun": 3587,
      "son": 3588,
      "simp": 3589,
      "sna": 3590,
      "slip": 3591,
      "tic": 3592,
      "tug": 3593,
      "tire": 3594,
      "vator": 3595,
      "xu": 3596,
      "heel": 3597,
      "inocer": 3598,
      "remove": 3599,
      "onwards": 3600,
      "washer": 3601,
      "local": 3602,
      "soccer": 3603,
      "atient": 3604,
      "neat": 3605,
      "ads": 3606,
      "igloo": 3607,
      "asing": 3608,
      "backpack": 3609,
      "rail": 3610,
      "ranch": 3611,
      "parts": 3612,
      "achie": 3613,
      "built": 3614,
      "luxu": 3615,
      "bene": 3616,
      "impatient": 3617,
      "sunglasses": 3618,
      "skull": 3619,
      "cond": 3620,
      "fine": 3621,
      "compared": 3622,
      "created": 3623,
      "marched": 3624,
      "safety": 3625,
      "lotion": 3626,
      "parent": 3627,
      "bathrobe": 3628,
      "missing": 3629,
      "towers": 3630,
      "lecture": 3631,
      "clapping": 3632,
      "june": 3633,
      "mailman": 3634,
      "napkin": 3635,
      "accepted": 3636,
      "markers": 3637,
      "missile": 3638,
      "coloured": 3639,
      "recording": 3640,
      "smoke": 3641,
      "messy": 3642,
      "source": 3643,
      "problems": 3644,
      "uniform": 3645,
      "puddles": 3646,
      "pirates": 3647,
      "view": 3648,
      "pressed": 3649,
      "objects": 3650,
      "ordered": 3651,
      "patterns": 3652,
      "dishwasher": 3653,
      "rhinocer": 3654,
      "twigs": 3655,
      "impressed": 3656,
      "scurried": 3657,
      "yawned": 3658,
      "peeked": 3659,
      "settled": 3660,
      "elevator": 3661,
      "jerry": 3662,
      "simple": 3663,
      "rhinoceros": 3664,
      "awe": 3665,
      "cell": 3666,
      "during": 3667,
      "fer": 3668,
      "frag": 3669,
      "jon": 3670,
      "mist": 3671,
      "nal": 3672,
      "sse": 3673,
      "ske": 3674,
      "vid": 3675,
      "xious": 3676,
      "zing": 3677,
      "ants": 3678,
      "anxious": 3679,
      "ination": 3680,
      "rex": 3681,
      "ented": 3682,
      "leton": 3683,
      "sheet": 3684,
      "ution": 3685,
      "socks": 3686,
      "unhappy": 3687,
      "uncomfortable": 3688,
      "liqu": 3689,
      "ults": 3690,
      "cannot": 3691,
      "area": 3692,
      "ceed": 3693,
      "whip": 3694,
      "ruined": 3695,
      "poem": 3696,
      "tease": 3697,
      "keeping": 3698,
      "shot": 3699,
      "chasing": 3700,
      "dresser": 3701,
      "writing": 3702,
      "bowed": 3703,
      "bathtub": 3704,
      "journal": 3705,
      "castles": 3706,
      "invit": 3707,
      "invite": 3708,
      "bouncy": 3709,
      "mule": 3710,
      "tube": 3711,
      "cups": 3712,
      "patiently": 3713,
      "falls": 3714,
      "fallen": 3715,
      "gging": 3716,
      "panic": 3717,
      "smelled": 3718,
      "imagining": 3719,
      "trusted": 3720,
      "question": 3721,
      "decorations": 3722,
      "cherries": 3723,
      "wheels": 3724,
      "copy": 3725,
      "succeed": 3726,
      "film": 3727,
      "filthy": 3728,
      "include": 3729,
      "drops": 3730,
      "cuddle": 3731,
      "paddle": 3732,
      "wiped": 3733,
      "granny": 3734,
      "vacation": 3735,
      "fascinated": 3736,
      "firmly": 3737,
      "snapped": 3738,
      "fragile": 3739,
      "skeleton": 3740,
      "liquid": 3741,
      "bbled": 3742,
      "ces": 3743,
      "cise": 3744,
      "ckets": 3745,
      "dave": 3746,
      "ffin": 3747,
      "hon": 3748,
      "iately": 3749,
      "kne": 3750,
      "lic": 3751,
      "lugg": 3752,
      "llip": 3753,
      "mired": 3754,
      "mbol": 3755,
      "none": 3756,
      "pup": 3757,
      "si": 3758,
      "snail": 3759,
      "tide": 3760,
      "uce": 3761,
      "yet": 3762,
      "inst": 3763,
      "enorm": 3764,
      "sters": 3765,
      "lollip": 3766,
      "orable": 3767,
      "beam": 3768,
      "beads": 3769,
      "neare": 3770,
      "admired": 3771,
      "adorable": 3772,
      "plays": 3773,
      "moms": 3774,
      "lier": 3775,
      "lions": 3776,
      "exer": 3777,
      "spear": 3778,
      "sprink": 3779,
      "parrot": 3780,
      "fog": 3781,
      "finds": 3782,
      "shower": 3783,
      "teasing": 3784,
      "knows": 3785,
      "perature": 3786,
      "earlier": 3787,
      "comed": 3788,
      "inky": 3789,
      "shovel": 3790,
      "bravely": 3791,
      "truth": 3792,
      "chop": 3793,
      "hearts": 3794,
      "grandparents": 3795,
      "sticker": 3796,
      "trick": 3797,
      "tripped": 3798,
      "prove": 3799,
      "covering": 3800,
      "firemen": 3801,
      "adding": 3802,
      "symbol": 3803,
      "mayor": 3804,
      "breaks": 3805,
      "muffin": 3806,
      "signed": 3807,
      "crawling": 3808,
      "welcomed": 3809,
      "nicely": 3810,
      "millie": 3811,
      "valley": 3812,
      "gifted": 3813,
      "pengu": 3814,
      "studying": 3815,
      "lips": 3816,
      "destination": 3817,
      "candles": 3818,
      "melt": 3819,
      "temperature": 3820,
      "gaze": 3821,
      "rachel": 3822,
      "sweets": 3823,
      "recommend": 3824,
      "successful": 3825,
      "university": 3826,
      "pastels": 3827,
      "effort": 3828,
      "palm": 3829,
      "spacesh": 3830,
      "crazy": 3831,
      "immediately": 3832,
      "cobweb": 3833,
      "luxury": 3834,
      "license": 3835,
      "luggage": 3836,
      "enormous": 3837,
      "lollipop": 3838,
      "azz": 3839,
      "bie": 3840,
      "binky": 3841,
      "city": 3842,
      "dust": 3843,
      "fis": 3844,
      "fat": 3845,
      "five": 3846,
      "flex": 3847,
      "jay": 3848,
      "jazz": 3849,
      "lang": 3850,
      "mall": 3851,
      "nor": 3852,
      "pitch": 3853,
      "swe": 3854,
      "sway": 3855,
      "sides": 3856,
      "tick": 3857,
      "uck": 3858,
      "uage": 3859,
      "wil": 3860,
      "toma": 3861,
      "refre": 3862,
      "alive": 3863,
      "god": 3864,
      "nec": 3865,
      "players": 3866,
      "myself": 3867,
      "exit": 3868,
      "hter": 3869,
      "fright": 3870,
      "spell": 3871,
      "helpless": 3872,
      "raised": 3873,
      "rang": 3874,
      "grill": 3875,
      "parked": 3876,
      "owned": 3877,
      "josh": 3878,
      "pru": 3879,
      "buzzy": 3880,
      "mailed": 3881,
      "llen": 3882,
      "fauce": 3883,
      "brand": 3884,
      "sunflower": 3885,
      "conf": 3886,
      "contro": 3887,
      "connec": 3888,
      "betty": 3889,
      "cycle": 3890,
      "brated": 3891,
      "angled": 3892,
      "workers": 3893,
      "laughter": 3894,
      "disgust": 3895,
      "grandmother": 3896,
      "moves": 3897,
      "drawer": 3898,
      "lightning": 3899,
      "floated": 3900,
      "fireplace": 3901,
      "flame": 3902,
      "twink": 3903,
      "drift": 3904,
      "juicy": 3905,
      "gathering": 3906,
      "falling": 3907,
      "harsh": 3908,
      "harder": 3909,
      "lively": 3910,
      "clues": 3911,
      "snowy": 3912,
      "neighborhood": 3913,
      "practiced": 3914,
      "celebrated": 3915,
      "peanuts": 3916,
      "appl": 3917,
      "doves": 3918,
      "lawn": 3919,
      "motorcycle": 3920,
      "glowing": 3921,
      "distance": 3922,
      "lemonade": 3923,
      "flutter": 3924,
      "cushions": 3925,
      "microphone": 3926,
      "avoid": 3927,
      "memory": 3928,
      "shadows": 3929,
      "prize": 3930,
      "experience": 3931,
      "students": 3932,
      "slap": 3933,
      "cauliflower": 3934,
      "responsib": 3935,
      "beneath": 3936,
      "exercise": 3937,
      "flexible": 3938,
      "language": 3939,
      "refreshed": 3940,
      "faucet": 3941,
      "control": 3942,
      "disgusting": 3943,
      "cco": 3944,
      "cable": 3945,
      "die": 3946,
      "dough": 3947,
      "eth": 3948,
      "kicked": 3949,
      "lines": 3950,
      "names": 3951,
      "switch": 3952,
      "vin": 3953,
      "wire": 3954,
      "instruct": 3955,
      "half": 3956,
      "herb": 3957,
      "herman": 3958,
      "alarm": 3959,
      "sting": 3960,
      "safar": 3961,
      "safer": 3962,
      "beside": 3963,
      "sever": 3964,
      "season": 3965,
      "hate": 3966,
      "accompl": 3967,
      "soil": 3968,
      "soak": 3969,
      "entire": 3970,
      "unpack": 3971,
      "elf": 3972,
      "ellie": 3973,
      "liz": 3974,
      "shield": 3975,
      "decis": 3976,
      "carto": 3977,
      "lower": 3978,
      "master": 3979,
      "letting": 3980,
      "teeth": 3981,
      "rooms": 3982,
      "houses": 3983,
      "swung": 3984,
      "spoiled": 3985,
      "mike": 3986,
      "brocco": 3987,
      "challen": 3988,
      "disagreed": 3989,
      "shouldn": 3990,
      "grandbaby": 3991,
      "amazem": 3992,
      "brighter": 3993,
      "torn": 3994,
      "happens": 3995,
      "printer": 3996,
      "arrive": 3997,
      "moments": 3998,
      "collected": 3999,
      "discovering": 4000,
      "folded": 4001,
      "sparkle": 4002,
      "sparkled": 4003,
      "pige": 4004,
      "brownie": 4005,
      "potion": 4006,
      "scoop": 4007,
      "regret": 4008,
      "cardboard": 4009,
      "spending": 4010,
      "zoomed": 4011,
      "surrendered": 4012,
      "seems": 4013,
      "pinch": 4014,
      "arrows": 4015,
      "annie": 4016,
      "separated": 4017,
      "soldier": 4018,
      "shouting": 4019,
      "ornament": 4020,
      "menu": 4021,
      "pearl": 4022,
      "released": 4023,
      "ribbon": 4024,
      "rhy": 4025,
      "discuss": 4026,
      "baseball": 4027,
      "balancing": 4028,
      "yoga": 4029,
      "strawberry": 4030,
      "grocery": 4031,
      "bumped": 4032,
      "risk": 4033,
      "captain": 4034,
      "penguin": 4035,
      "fisherman": 4036,
      "frightened": 4037,
      "applau": 4038,
      "instructions": 4039,
      "safari": 4040,
      "several": 4041,
      "broccoli": 4042,
      "amazement": 4043,
      "dom": 4044,
      "gie": 4045,
      "ivery": 4046,
      "ived": 4047,
      "ival": 4048,
      "kim": 4049,
      "mandy": 4050,
      "osity": 4051,
      "ps": 4052,
      "wine": 4053,
      "wiz": 4054,
      "xi": 4055,
      "anas": 4056,
      "ining": 4057,
      "ites": 4058,
      "reas": 4059,
      "reaction": 4060,
      "ham": 4061,
      "levis": 4062,
      "stal": 4063,
      "stare": 4064,
      "stitch": 4065,
      "stival": 4066,
      "shelves": 4067,
      "becky": 4068,
      "seal": 4069,
      "second": 4070,
      "thread": 4071,
      "sore": 4072,
      "goose": 4073,
      "nect": 4074,
      "ppers": 4075,
      "ambled": 4076,
      "forgetting": 4077,
      "outfit": 4078,
      "upstairs": 4079,
      "stared": 4080,
      "spade": 4081,
      "mosqu": 4082,
      "festival": 4083,
      "meas": 4084,
      "coll": 4085,
      "agers": 4086,
      "paring": 4087,
      "mance": 4088,
      "iff": 4089,
      "oper": 4090,
      "buried": 4091,
      "clock": 4092,
      "antly": 4093,
      "downstairs": 4094,
      "lettu": 4095,
      "televis": 4096,
      "paul": 4097,
      "importance": 4098,
      "taxi": 4099,
      "handker": 4100,
      "contest": 4101,
      "balls": 4102,
      "marvin": 4103,
      "famil": 4104,
      "raining": 4105,
      "stron": 4106,
      "delivery": 4107,
      "pretends": 4108,
      "curiosity": 4109,
      "prepared": 4110,
      "preparing": 4111,
      "tricks": 4112,
      "ringing": 4113,
      "ladybug": 4114,
      "buildings": 4115,
      "cutting": 4116,
      "softly": 4117,
      "figured": 4118,
      "papers": 4119,
      "judy": 4120,
      "tucked": 4121,
      "scrubbing": 4122,
      "throws": 4123,
      "villagers": 4124,
      "danger": 4125,
      "snowman": 4126,
      "pancake": 4127,
      "allowing": 4128,
      "bananas": 4129,
      "performance": 4130,
      "blows": 4131,
      "spiders": 4132,
      "itchy": 4133,
      "received": 4134,
      "crackers": 4135,
      "scrambled": 4136,
      "giggle": 4137,
      "giggled": 4138,
      "billboard": 4139,
      "wedding": 4140,
      "balanced": 4141,
      "ivity": 4142,
      "muscles": 4143,
      "cousins": 4144,
      "invitation": 4145,
      "nearest": 4146,
      "spaceship": 4147,
      "nora": 4148,
      "wizard": 4149,
      "nectar": 4150,
      "mosqui": 4151,
      "lettuce": 4152,
      "television": 4153,
      "handkerchief": 4154,
      "cro": 4155,
      "dic": 4156,
      "fut": 4157,
      "fash": 4158,
      "gur": 4159,
      "gers": 4160,
      "lim": 4161,
      "lun": 4162,
      "munk": 4163,
      "oked": 4164,
      "wife": 4165,
      "hest": 4166,
      "heat": 4167,
      "ina": 4168,
      "waving": 4169,
      "erce": 4170,
      "erial": 4171,
      "stan": 4172,
      "loe": 4173,
      "bets": 4174,
      "becoming": 4175,
      "seag": 4176,
      "thm": 4177,
      "acted": 4178,
      "plent": 4179,
      "necess": 4180,
      "ected": 4181,
      "holes": 4182,
      "chloe": 4183,
      "staring": 4184,
      "suzy": 4185,
      "weren": 4186,
      "peel": 4187,
      "stom": 4188,
      "worth": 4189,
      "gotten": 4190,
      "however": 4191,
      "cheap": 4192,
      "goodnight": 4193,
      "math": 4194,
      "thanking": 4195,
      "kings": 4196,
      "label": 4197,
      "paused": 4198,
      "remembering": 4199,
      "sert": 4200,
      "anyway": 4201,
      "shopping": 4202,
      "fierce": 4203,
      "works": 4204,
      "blings": 4205,
      "tress": 4206,
      "disappear": 4207,
      "iously": 4208,
      "following": 4209,
      "crow": 4210,
      "breaking": 4211,
      "touching": 4212,
      "emer": 4213,
      "prints": 4214,
      "sandbox": 4215,
      "material": 4216,
      "mattress": 4217,
      "strangers": 4218,
      "perfectly": 4219,
      "frogs": 4220,
      "dessert": 4221,
      "creating": 4222,
      "drifted": 4223,
      "scrub": 4224,
      "folding": 4225,
      "nicer": 4226,
      "pulling": 4227,
      "throwing": 4228,
      "network": 4229,
      "matching": 4230,
      "cows": 4231,
      "bones": 4232,
      "glowed": 4233,
      "tasks": 4234,
      "appreciation": 4235,
      "delivered": 4236,
      "offering": 4237,
      "sneezed": 4238,
      "strike": 4239,
      "gasped": 4240,
      "solved": 4241,
      "included": 4242,
      "tionary": 4243,
      "pages": 4244,
      "slapped": 4245,
      "yogur": 4246,
      "cheeks": 4247,
      "trembling": 4248,
      "chipmunk": 4249,
      "honking": 4250,
      "siblings": 4251,
      "pigeon": 4252,
      "rhythm": 4253,
      "collar": 4254,
      "mosquito": 4255,
      "dictionary": 4256,
      "future": 4257,
      "fashion": 4258,
      "luna": 4259,
      "betsy": 4260,
      "seagull": 4261,
      "plenty": 4262,
      "yogurt": 4263,
      "bare": 4264,
      "drain": 4265,
      "fy": 4266,
      "iel": 4267,
      "iastic": 4268,
      "oil": 4269,
      "oli": 4270,
      "sip": 4271,
      "sweep": 4272,
      "tis": 4273,
      "ude": 4274,
      "hesit": 4275,
      "toile": 4276,
      "ith": 4277,
      "itude": 4278,
      "wagged": 4279,
      "havi": 4280,
      "onward": 4281,
      "enth": 4282,
      "losing": 4283,
      "orts": 4284,
      "sale": 4285,
      "behavi": 4286,
      "plug": 4287,
      "gobbled": 4288,
      "aded": 4289,
      "forced": 4290,
      "novel": 4291,
      "caut": 4292,
      "mop": 4293,
      "smith": 4294,
      "cot": 4295,
      "copper": 4296,
      "cereal": 4297,
      "ceiling": 4298,
      "usiastic": 4299,
      "overjoy": 4300,
      "yours": 4301,
      "clar": 4302,
      "sunlight": 4303,
      "sunscreen": 4304,
      "spots": 4305,
      "comfy": 4306,
      "ventured": 4307,
      "brain": 4308,
      "anger": 4309,
      "bravest": 4310,
      "faraway": 4311,
      "steve": 4312,
      "daniel": 4313,
      "david": 4314,
      "realize": 4315,
      "crash": 4316,
      "grassy": 4317,
      "printing": 4318,
      "voices": 4319,
      "brings": 4320,
      "wooden": 4321,
      "points": 4322,
      "snuck": 4323,
      "deeper": 4324,
      "ments": 4325,
      "nodding": 4326,
      "dragged": 4327,
      "freeze": 4328,
      "pays": 4329,
      "spoonful": 4330,
      "hotel": 4331,
      "cards": 4332,
      "machines": 4333,
      "speeding": 4334,
      "wraps": 4335,
      "struggle": 4336,
      "crossed": 4337,
      "lemons": 4338,
      "gems": 4339,
      "ignored": 4340,
      "human": 4341,
      "silent": 4342,
      "loaded": 4343,
      "marbles": 4344,
      "remained": 4345,
      "strip": 4346,
      "company": 4347,
      "flapped": 4348,
      "temp": 4349,
      "solution": 4350,
      "supermarket": 4351,
      "chirpy": 4352,
      "strawberries": 4353,
      "complim": 4354,
      "groceries": 4355,
      "destroyed": 4356,
      "battery": 4357,
      "wiggle": 4358,
      "punish": 4359,
      "jonas": 4360,
      "kneel": 4361,
      "prunes": 4362,
      "lizard": 4363,
      "challenge": 4364,
      "barely": 4365,
      "oliver": 4366,
      "toilet": 4367,
      "enthusiastic": 4368,
      "overjoyed": 4369,
      "bak": 4370,
      "brushed": 4371,
      "cli": 4372,
      "cries": 4373,
      "dip": 4374,
      "double": 4375,
      "fought": 4376,
      "gorge": 4377,
      "ither": 4378,
      "ipping": 4379,
      "ler": 4380,
      "len": 4381,
      "mm": 4382,
      "mug": 4383,
      "mice": 4384,
      "nur": 4385,
      "opp": 4386,
      "pite": 4387,
      "rad": 4388,
      "rup": 4389,
      "sle": 4390,
      "tles": 4391,
      "tips": 4392,
      "tangled": 4393,
      "vic": 4394,
      "tonight": 4395,
      "theart": 4396,
      "intri": 4397,
      "ouch": 4398,
      "oubled": 4399,
      "eral": 4400,
      "ene": 4401,
      "lest": 4402,
      "impossible": 4403,
      "ility": 4404,
      "thunder": 4405,
      "acorn": 4406,
      "entran": 4407,
      "address": 4408,
      "ppies": 4409,
      "unpacked": 4410,
      "ambul": 4411,
      "west": 4412,
      "bobo": 4413,
      "rockets": 4414,
      "starfish": 4415,
      "friendship": 4416,
      "spide": 4417,
      "sured": 4418,
      "meow": 4419,
      "smar": 4420,
      "carries": 4421,
      "stolen": 4422,
      "everybody": 4423,
      "otherwise": 4424,
      "wallet": 4425,
      "opin": 4426,
      "poked": 4427,
      "posse": 4428,
      "ortun": 4429,
      "wobble": 4430,
      "brad": 4431,
      "sunrise": 4432,
      "skipping": 4433,
      "fins": 4434,
      "izon": 4435,
      "feelings": 4436,
      "turning": 4437,
      "afterwards": 4438,
      "blouse": 4439,
      "raincoat": 4440,
      "visits": 4441,
      "hearing": 4442,
      "troubled": 4443,
      "rested": 4444,
      "crystal": 4445,
      "actually": 4446,
      "hurts": 4447,
      "single": 4448,
      "situ": 4449,
      "minnie": 4450,
      "mineral": 4451,
      "firefight": 4452,
      "baths": 4453,
      "keys": 4454,
      "paintbrush": 4455,
      "trail": 4456,
      "planes": 4457,
      "gued": 4458,
      "bottles": 4459,
      "darkness": 4460,
      "sniff": 4461,
      "despite": 4462,
      "secure": 4463,
      "sweetie": 4464,
      "horizon": 4465,
      "drag": 4466,
      "leading": 4467,
      "highest": 4468,
      "cluck": 4469,
      "belts": 4470,
      "larry": 4471,
      "horses": 4472,
      "winter": 4473,
      "jogged": 4474,
      "neighbors": 4475,
      "practicing": 4476,
      "zookeeper": 4477,
      "wakes": 4478,
      "stirring": 4479,
      "rides": 4480,
      "denise": 4481,
      "distur": 4482,
      "kicking": 4483,
      "knobs": 4484,
      "competition": 4485,
      "leaning": 4486,
      "roaring": 4487,
      "bridges": 4488,
      "neighbours": 4489,
      "pops": 4490,
      "repeats": 4491,
      "gained": 4492,
      "melon": 4493,
      "reversed": 4494,
      "flav": 4495,
      "solving": 4496,
      "burning": 4497,
      "ironment": 4498,
      "sweetheart": 4499,
      "discussed": 4500,
      "environment": 4501,
      "thumbs": 4502,
      "recognized": 4503,
      "paddled": 4504,
      "mentioned": 4505,
      "wednes": 4506,
      "scurry": 4507,
      "leaks": 4508,
      "universe": 4509,
      "grinned": 4510,
      "demanded": 4511,
      "grape": 4512,
      "grapes": 4513,
      "approached": 4514,
      "insisting": 4515,
      "tickets": 4516,
      "achieve": 4517,
      "wilbur": 4518,
      "tomatoes": 4519,
      "cartoons": 4520,
      "measured": 4521,
      "complimented": 4522,
      "bakery": 4523,
      "gorgeous": 4524,
      "nurse": 4525,
      "opportun": 4526,
      "intrigued": 4527,
      "entrance": 4528,
      "ambulance": 4529,
      "spidey": 4530,
      "possess": 4531,
      "firefighters": 4532,
      "wednesday": 4533,
      "awake": 4534,
      "bon": 4535,
      "bang": 4536,
      "east": 4537,
      "fond": 4538,
      "flea": 4539,
      "gs": 4540,
      "greet": 4541,
      "hips": 4542,
      "junk": 4543,
      "lab": 4544,
      "lter": 4545,
      "lung": 4546,
      "mim": 4547,
      "mpo": 4548,
      "munch": 4549,
      "nick": 4550,
      "oas": 4551,
      "pours": 4552,
      "rit": 4553,
      "ract": 4554,
      "som": 4555,
      "sighed": 4556,
      "sense": 4557,
      "tar": 4558,
      "till": 4559,
      "vided": 4560,
      "ws": 4561,
      "zen": 4562,
      "toed": 4563,
      "todd": 4564,
      "reward": 4565,
      "haust": 4566,
      "onge": 4567,
      "ering": 4568,
      "iding": 4569,
      "hers": 4570,
      "although": 4571,
      "shelter": 4572,
      "beth": 4573,
      "image": 4574,
      "secre": 4575,
      "thir": 4576,
      "thro": 4577,
      "aches": 4578,
      "riage": 4579,
      "adult": 4580,
      "adults": 4581,
      "unsure": 4582,
      "asht": 4583,
      "noisy": 4584,
      "somebody": 4585,
      "abby": 4586,
      "exhaust": 4587,
      "spr": 4588,
      "sports": 4589,
      "sponge": 4590,
      "helpers": 4591,
      "feast": 4592,
      "megan": 4593,
      "caring": 4594,
      "cope": 4595,
      "pets": 4596,
      "peppers": 4597,
      "jogging": 4598,
      "homes": 4599,
      "aren": 4600,
      "maid": 4601,
      "shampo": 4602,
      "overcome": 4603,
      "teles": 4604,
      "explorer": 4605,
      "tage": 4606,
      "waits": 4607,
      "construct": 4608,
      "venture": 4609,
      "doggy": 4610,
      "bravery": 4611,
      "talent": 4612,
      "izing": 4613,
      "surprises": 4614,
      "sora": 4615,
      "shined": 4616,
      "grabs": 4617,
      "grabbing": 4618,
      "winding": 4619,
      "writes": 4620,
      "drawings": 4621,
      "follows": 4622,
      "wonders": 4623,
      "mona": 4624,
      "provided": 4625,
      "sings": 4626,
      "fixing": 4627,
      "sandcastles": 4628,
      "frozen": 4629,
      "bunch": 4630,
      "twisted": 4631,
      "trave": 4632,
      "holds": 4633,
      "desire": 4634,
      "creativity": 4635,
      "claire": 4636,
      "claws": 4637,
      "heavier": 4638,
      "scra": 4639,
      "sparkling": 4640,
      "acceptor": 4641,
      "planets": 4642,
      "kisses": 4643,
      "winnie": 4644,
      "healing": 4645,
      "answers": 4646,
      "basketball": 4647,
      "register": 4648,
      "gifts": 4649,
      "planting": 4650,
      "examined": 4651,
      "jackets": 4652,
      "stirs": 4653,
      "stirred": 4654,
      "tidying": 4655,
      "distract": 4656,
      "relaxing": 4657,
      "muddy": 4658,
      "sliding": 4659,
      "marching": 4660,
      "hopeful": 4661,
      "sorting": 4662,
      "permitted": 4663,
      "bloomed": 4664,
      "suggestion": 4665,
      "gracefully": 4666,
      "giggling": 4667,
      "repeating": 4668,
      "whistled": 4669,
      "videos": 4670,
      "scattered": 4671,
      "oysters": 4672,
      "agreement": 4673,
      "warnings": 4674,
      "superhero": 4675,
      "hunter": 4676,
      "cuddled": 4677,
      "jewels": 4678,
      "chirping": 4679,
      "robbie": 4680,
      "golden": 4681,
      "sausages": 4682,
      "bruce": 4683,
      "tugged": 4684,
      "sweater": 4685,
      "confident": 4686,
      "connected": 4687,
      "twinkling": 4688,
      "applaud": 4689,
      "necessary": 4690,
      "cautiously": 4691,
      "cottage": 4692,
      "radish": 4693,
      "slept": 4694,
      "dragons": 4695,
      "bongo": 4696,
      "lungs": 4697,
      "mimi": 4698,
      "oasis": 4699,
      "rita": 4700,
      "secrets": 4701,
      "thirsty": 4702,
      "throat": 4703,
      "ashtray": 4704,
      "exhausted": 4705,
      "shampoo": 4706,
      "telescope": 4707,
      "construction": 4708,
      "athing": 4709,
      "baking": 4710,
      "cri": 4711,
      "cas": 4712,
      "dare": 4713,
      "dear": 4714,
      "fion": 4715,
      "flight": 4716,
      "flec": 4717,
      "faced": 4718,
      "gig": 4719,
      "glitt": 4720,
      "gina": 4721,
      "jugg": 4722,
      "lined": 4723,
      "rus": 4724,
      "sen": 4725,
      "sses": 4726,
      "sank": 4727,
      "ucky": 4728,
      "vies": 4729,
      "wid": 4730,
      "xie": 4731,
      "yum": 4732,
      "yucky": 4733,
      "tore": 4734,
      "tour": 4735,
      "itely": 4736,
      "reflec": 4737,
      "waff": 4738,
      "onions": 4739,
      "ists": 4740,
      "ali": 4741,
      "sel": 4742,
      "third": 4743,
      "acy": 4744,
      "plates": 4745,
      "ripe": 4746,
      "ricane": 4747,
      "atched": 4748,
      "attemp": 4749,
      "playroom": 4750,
      "unic": 4751,
      "ecting": 4752,
      "ounced": 4753,
      "holly": 4754,
      "lyn": 4755,
      "chips": 4756,
      "dot": 4757,
      "ryan": 4758,
      "moo": 4759,
      "movies": 4760,
      "rather": 4761,
      "fet": 4762,
      "grat": 4763,
      "cared": 4764,
      "cooked": 4765,
      "peered": 4766,
      "sidewalk": 4767,
      "whose": 4768,
      "whatever": 4769,
      "focus": 4770,
      "jolly": 4771,
      "homeless": 4772,
      "express": 4773,
      "pota": 4774,
      "beds": 4775,
      "dresses": 4776,
      "perch": 4777,
      "percy": 4778,
      "pause": 4779,
      "comple": 4780,
      "prettie": 4781,
      "shoe": 4782,
      "surround": 4783,
      "opens": 4784,
      "xture": 4785,
      "mixture": 4786,
      "rainy": 4787,
      "strum": 4788,
      "piper": 4789,
      "pixie": 4790,
      "grandchild": 4791,
      "floppy": 4792,
      "squish": 4793,
      "hurricane": 4794,
      "bows": 4795,
      "proj": 4796,
      "difference": 4797,
      "sterday": 4798,
      "storybook": 4799,
      "blood": 4800,
      "riverbank": 4801,
      "mermaid": 4802,
      "stops": 4803,
      "fires": 4804,
      "matt": 4805,
      "bars": 4806,
      "coral": 4807,
      "syrup": 4808,
      "plans": 4809,
      "planet": 4810,
      "planning": 4811,
      "returning": 4812,
      "snatched": 4813,
      "haircut": 4814,
      "inviting": 4815,
      "tastes": 4816,
      "beehive": 4817,
      "trains": 4818,
      "doctors": 4819,
      "swamp": 4820,
      "threat": 4821,
      "lives": 4822,
      "splashing": 4823,
      "winning": 4824,
      "tails": 4825,
      "smells": 4826,
      "easily": 4827,
      "picnics": 4828,
      "diving": 4829,
      "score": 4830,
      "collection": 4831,
      "wishing": 4832,
      "interested": 4833,
      "skips": 4834,
      "sprayed": 4835,
      "piles": 4836,
      "selling": 4837,
      "soaring": 4838,
      "valued": 4839,
      "yesterday": 4840,
      "mountains": 4841,
      "struck": 4842,
      "roared": 4843,
      "stretching": 4844,
      "ignoring": 4845,
      "melting": 4846,
      "reversing": 4847,
      "wisdom": 4848,
      "flap": 4849,
      "incts": 4850,
      "tempt": 4851,
      "chirped": 4852,
      "snuggle": 4853,
      "occas": 4854,
      "pedals": 4855,
      "pedaled": 4856,
      "discussing": 4857,
      "recommended": 4858,
      "studied": 4859,
      "screwdriver": 4860,
      "rustle": 4861,
      "ticket": 4862,
      "igloos": 4863,
      "instantly": 4864,
      "instincts": 4865,
      "fluttering": 4866,
      "responsibility": 4867,
      "accomplish": 4868,
      "pancakes": 4869,
      "materials": 4870,
      "tissue": 4871,
      "kneeled": 4872,
      "fondly": 4873,
      "fiona": 4874,
      "gigi": 4875,
      "russel": 4876,
      "completed": 4877,
      "prettiest": 4878,
      "occasion": 4879,
      "ah": 4880,
      "ais": 4881,
      "aut": 4882,
      "astron": 4883,
      "cash": 4884,
      "cious": 4885,
      "dev": 4886,
      "digg": 4887,
      "fed": 4888,
      "fade": 4889,
      "groom": 4890,
      "hanna": 4891,
      "ien": 4892,
      "iar": 4893,
      "jigg": 4894,
      "lent": 4895,
      "nana": 4896,
      "oscope": 4897,
      "prank": 4898,
      "praised": 4899,
      "pounced": 4900,
      "shave": 4901,
      "swo": 4902,
      "sented": 4903,
      "anda": 4904,
      "edy": 4905,
      "inch": 4906,
      "inspect": 4907,
      "ities": 4908,
      "respec": 4909,
      "ware": 4910,
      "stree": 4911,
      "lored": 4912,
      "loving": 4913,
      "locks": 4914,
      "beli": 4915,
      "beloved": 4916,
      "imed": 4917,
      "immer": 4918,
      "thoscope": 4919,
      "kelly": 4920,
      "hated": 4921,
      "acting": 4922,
      "soaked": 4923,
      "history": 4924,
      "vesse": 4925,
      "admir": 4926,
      "unable": 4927,
      "unlocked": 4928,
      "aming": 4929,
      "ford": 4930,
      "outdoors": 4931,
      "ching": 4932,
      "chunk": 4933,
      "root": 4934,
      "esca": 4935,
      "escap": 4936,
      "dots": 4937,
      "exact": 4938,
      "spices": 4939,
      "fulfill": 4940,
      "seesaw": 4941,
      "meat": 4942,
      "carriage": 4943,
      "coal": 4944,
      "colored": 4945,
      "peach": 4946,
      "foal": 4947,
      "urging": 4948,
      "eption": 4949,
      "shall": 4950,
      "offic": 4951,
      "pots": 4952,
      "posit": 4953,
      "popper": 4954,
      "eaten": 4955,
      "scaring": 4956,
      "pap": 4957,
      "taped": 4958,
      "bites": 4959,
      "kindly": 4960,
      "final": 4961,
      "afford": 4962,
      "doggie": 4963,
      "marc": 4964,
      "shoo": 4965,
      "nav": 4966,
      "surf": 4967,
      "tallest": 4968,
      "puppies": 4969,
      "greedy": 4970,
      "mies": 4971,
      "mikey": 4972,
      "workshop": 4973,
      "turnip": 4974,
      "strings": 4975,
      "stethoscope": 4976,
      "buyer": 4977,
      "disagree": 4978,
      "flopped": 4979,
      "floats": 4980,
      "activ": 4981,
      "crumb": 4982,
      "magician": 4983,
      "precious": 4984,
      "presented": 4985,
      "wondering": 4986,
      "monsters": 4987,
      "heads": 4988,
      "printed": 4989,
      "patience": 4990,
      "babies": 4991,
      "meri": 4992,
      "dining": 4993,
      "twice": 4994,
      "creamy": 4995,
      "attitude": 4996,
      "reply": 4997,
      "seashells": 4998,
      "squirrels": 4999,
      "signs": 5000,
      "ugging": 5001,
      "julie": 5002,
      "politely": 5003,
      "tune": 5004,
      "tues": 5005,
      "cupine": 5006,
      "appears": 5007,
      "scrubbed": 5008,
      "quietest": 5009,
      "piggy": 5010,
      "protected": 5011,
      "healed": 5012,
      "gency": 5013,
      "organizing": 5014,
      "obser": 5015,
      "direc": 5016,
      "monkeys": 5017,
      "examining": 5018,
      "performing": 5019,
      "decorated": 5020,
      "rainbows": 5021,
      "reception": 5022,
      "feeding": 5023,
      "charge": 5024,
      "calmly": 5025,
      "engage": 5026,
      "whispering": 5027,
      "olives": 5028,
      "stamped": 5029,
      "puzzles": 5030,
      "prayers": 5031,
      "argued": 5032,
      "porcupine": 5033,
      "cubes": 5034,
      "including": 5035,
      "scales": 5036,
      "frowned": 5037,
      "snakes": 5038,
      "hunger": 5039,
      "recommending": 5040,
      "soapy": 5041,
      "basement": 5042,
      "experien": 5043,
      "sneaks": 5044,
      "louise": 5045,
      "burrow": 5046,
      "otters": 5047,
      "cauliflowers": 5048,
      "responsible": 5049,
      "rusty": 5050,
      "sights": 5051,
      "luckily": 5052,
      "nods": 5053,
      "brushes": 5054,
      "punished": 5055,
      "sprinkles": 5056,
      "cobwebs": 5057,
      "responsibly": 5058,
      "decision": 5059,
      "decisions": 5060,
      "operate": 5061,
      "familiar": 5062,
      "emergency": 5063,
      "situation": 5064,
      "flavor": 5065,
      "scurrying": 5066,
      "possessions": 5067,
      "explorers": 5068,
      "juggle": 5069,
      "fetch": 5070,
      "temptation": 5071,
      "aisle": 5072,
      "astronaut": 5073,
      "digging": 5074,
      "hannah": 5075,
      "respected": 5076,
      "streets": 5077,
      "believ": 5078,
      "vessel": 5079,
      "admiring": 5080,
      "escaped": 5081,
      "escaping": 5082,
      "exactly": 5083,
      "activities": 5084,
      "crumbs": 5085,
      "aer": 5086,
      "ago": 5087,
      "blast": 5088,
      "bathing": 5089,
      "crun": 5090,
      "fid": 5091,
      "fab": 5092,
      "fain": 5093,
      "fie": 5094,
      "gut": 5095,
      "gall": 5096,
      "gree": 5097,
      "grain": 5098,
      "ggy": 5099,
      "jana": 5100,
      "kar": 5101,
      "karen": 5102,
      "lind": 5103,
      "lacy": 5104,
      "ms": 5105,
      "ni": 5106,
      "nan": 5107,
      "nif": 5108,
      "nies": 5109,
      "oink": 5110,
      "oplane": 5111,
      "pry": 5112,
      "pine": 5113,
      "rin": 5114,
      "rist": 5115,
      "sno": 5116,
      "swal": 5117,
      "snap": 5118,
      "tugging": 5119,
      "vroom": 5120,
      "zie": 5121,
      "zizz": 5122,
      "intent": 5123,
      "instrum": 5124,
      "requ": 5125,
      "repa": 5126,
      "reunited": 5127,
      "reaches": 5128,
      "ersa": 5129,
      "erable": 5130,
      "ison": 5131,
      "isies": 5132,
      "allo": 5133,
      "alfie": 5134,
      "beard": 5135,
      "belly": 5136,
      "iment": 5137,
      "ths": 5138,
      "acie": 5139,
      "actor": 5140,
      "ric": 5141,
      "ripped": 5142,
      "bute": 5143,
      "addressed": 5144,
      "icular": 5145,
      "icia": 5146,
      "uncover": 5147,
      "uniting": 5148,
      "uncovering": 5149,
      "unwinding": 5150,
      "assm": 5151,
      "amoun": 5152,
      "among": 5153,
      "forts": 5154,
      "fortun": 5155,
      "timer": 5156,
      "ends": 5157,
      "christ": 5158,
      "rosy": 5159,
      "rocked": 5160,
      "happier": 5161,
      "happiest": 5162,
      "abide": 5163,
      "abbie": 5164,
      "oking": 5165,
      "shann": 5166,
      "caution": 5167,
      "spic": 5168,
      "declar": 5169,
      "deciding": 5170,
      "helle": 5171,
      "sawing": 5172,
      "suzie": 5173,
      "raked": 5174,
      "grouch": 5175,
      "gracie": 5176,
      "carol": 5177,
      "coon": 5178,
      "cocked": 5179,
      "illed": 5180,
      "jose": 5181,
      "excuse": 5182,
      "excla": 5183,
      "lowed": 5184,
      "uses": 5185,
      "cans": 5186,
      "byes": 5187,
      "tooth": 5188,
      "oped": 5189,
      "goodies": 5190,
      "goodbyes": 5191,
      "mae": 5192,
      "quack": 5193,
      "dads": 5194,
      "expect": 5195,
      "shaun": 5196,
      "whipped": 5197,
      "leticia": 5198,
      "items": 5199,
      "catcher": 5200,
      "wool": 5201,
      "sunday": 5202,
      "keeps": 5203,
      "type": 5204,
      "contri": 5205,
      "spoons": 5206,
      "compete": 5207,
      "served": 5208,
      "markings": 5209,
      "opening": 5210,
      "ollie": 5211,
      "joyful": 5212,
      "hardest": 5213,
      "pushes": 5214,
      "farther": 5215,
      "quicker": 5216,
      "asks": 5217,
      "blink": 5218,
      "thrilled": 5219,
      "rabbits": 5220,
      "stepping": 5221,
      "daisies": 5222,
      "bookshelf": 5223,
      "bookshelves": 5224,
      "granddad": 5225,
      "grandparent": 5226,
      "tractor": 5227,
      "satis": 5228,
      "sation": 5229,
      "maggie": 5230,
      "nightstand": 5231,
      "climbs": 5232,
      "tricky": 5233,
      "proper": 5234,
      "mint": 5235,
      "heading": 5236,
      "minding": 5237,
      "blocked": 5238,
      "patrick": 5239,
      "firefly": 5240,
      "fireflies": 5241,
      "sandcastle": 5242,
      "matty": 5243,
      "miserable": 5244,
      "sylve": 5245,
      "frosting": 5246,
      "twin": 5247,
      "guided": 5248,
      "queens": 5249,
      "froggy": 5250,
      "kittens": 5251,
      "darker": 5252,
      "rolls": 5253,
      "maya": 5254,
      "rubs": 5255,
      "figuring": 5256,
      "secured": 5257,
      "zoe": 5258,
      "sailboat": 5259,
      "reaching": 5260,
      "sweetly": 5261,
      "drying": 5262,
      "heaven": 5263,
      "juli": 5264,
      "chairs": 5265,
      "particular": 5266,
      "gentleman": 5267,
      "checkout": 5268,
      "leads": 5269,
      "result": 5270,
      "dragonfly": 5271,
      "pigs": 5272,
      "drinks": 5273,
      "business": 5274,
      "ulars": 5275,
      "gesture": 5276,
      "stretches": 5277,
      "measures": 5278,
      "banged": 5279,
      "cherished": 5280,
      "lipstick": 5281,
      "glimmer": 5282,
      "freddie": 5283,
      "peck": 5284,
      "seeker": 5285,
      "sprays": 5286,
      "spraying": 5287,
      "surrendering": 5288,
      "portion": 5289,
      "pudding": 5290,
      "soared": 5291,
      "mitten": 5292,
      "engines": 5293,
      "supplied": 5294,
      "appreciated": 5295,
      "pebbles": 5296,
      "nails": 5297,
      "michelle": 5298,
      "flashing": 5299,
      "splashes": 5300,
      "popcorn": 5301,
      "loading": 5302,
      "introducing": 5303,
      "twirling": 5304,
      "sneezing": 5305,
      "stumble": 5306,
      "facing": 5307,
      "flapping": 5308,
      "webcam": 5309,
      "improved": 5310,
      "mushrooms": 5311,
      "bandages": 5312,
      "dolphins": 5313,
      "tigers": 5314,
      "fuzzy": 5315,
      "clubs": 5316,
      "oculars": 5317,
      "scattering": 5318,
      "elders": 5319,
      "kayaking": 5320,
      "buzzing": 5321,
      "racing": 5322,
      "raccoon": 5323,
      "squeezing": 5324,
      "frowning": 5325,
      "scratched": 5326,
      "knights": 5327,
      "completely": 5328,
      "auntie": 5329,
      "experiment": 5330,
      "tracks": 5331,
      "burst": 5332,
      "ginger": 5333,
      "convin": 5334,
      "ghosts": 5335,
      "binoculars": 5336,
      "efforts": 5337,
      "palace": 5338,
      "yielded": 5339,
      "vanish": 5340,
      "wiggly": 5341,
      "countryside": 5342,
      "cousin": 5343,
      "tiptoed": 5344,
      "neatly": 5345,
      "achieved": 5346,
      "sweat": 5347,
      "swayed": 5348,
      "accomplished": 5349,
      "scooped": 5350,
      "risks": 5351,
      "reassured": 5352,
      "hamster": 5353,
      "operation": 5354,
      "families": 5355,
      "strongest": 5356,
      "stomped": 5357,
      "crowd": 5358,
      "crowded": 5359,
      "behavior": 5360,
      "clarice": 5361,
      "cliff": 5362,
      "victory": 5363,
      "opinion": 5364,
      "disturbed": 5365,
      "opportunity": 5366,
      "somersa": 5367,
      "sprinked": 5368,
      "waffles": 5369,
      "dotty": 5370,
      "accomplishment": 5371,
      "jiggly": 5372,
      "swooped": 5373,
      "officer": 5374,
      "tuesday": 5375,
      "believing": 5376,
      "aeroplane": 5377,
      "fabric": 5378,
      "gallery": 5379,
      "greeted": 5380,
      "kari": 5381,
      "linda": 5382,
      "swallowed": 5383,
      "instruments": 5384,
      "repaired": 5385,
      "amount": 5386,
      "christmas": 5387,
      "shannon": 5388,
      "declared": 5389,
      "grouchy": 5390,
      "exclaimed": 5391,
      "contribute": 5392,
      "sylvester": 5393,
      "glimmering": 5394,
      "3rd": 5395,
      "az": 5396,
      "broom": 5397,
      "clue": 5398,
      "craft": 5399,
      "dried": 5400,
      "dred": 5401,
      "dies": 5402,
      "dipped": 5403,
      "drin": 5404,
      "either": 5405,
      "fs": 5406,
      "faction": 5407,
      "faded": 5408,
      "gir": 5409,
      "graz": 5410,
      "ium": 5411,
      "itor": 5412,
      "mac": 5413,
      "mend": 5414,
      "mallow": 5415,
      "oar": 5416,
      "ostri": 5417,
      "pon": 5418,
      "ping": 5419,
      "pod": 5420,
      "pie": 5421,
      "pouted": 5422,
      "panda": 5423,
      "swat": 5424,
      "sigh": 5425,
      "scold": 5426,
      "sens": 5427,
      "swell": 5428,
      "tum": 5429,
      "vant": 5430,
      "willow": 5431,
      "yay": 5432,
      "yage": 5433,
      "ands": 5434,
      "insec": 5435,
      "infla": 5436,
      "iten": 5437,
      "rejo": 5438,
      "reason": 5439,
      "wags": 5440,
      "hall": 5441,
      "ences": 5442,
      "issa": 5443,
      "aled": 5444,
      "stac": 5445,
      "stall": 5446,
      "stro": 5447,
      "stain": 5448,
      "bean": 5449,
      "sew": 5450,
      "seas": 5451,
      "thist": 5452,
      "thous": 5453,
      "utching": 5454,
      "hatched": 5455,
      "sob": 5456,
      "hissed": 5457,
      "ves": 5458,
      "ating": 5459,
      "neither": 5460,
      "ading": 5461,
      "adjust": 5462,
      "admit": 5463,
      "playtime": 5464,
      "unfortun": 5465,
      "amper": 5466,
      "ampol": 5467,
      "hoo": 5468,
      "hollow": 5469,
      "elt": 5470,
      "eline": 5471,
      "elsie": 5472,
      "eliness": 5473,
      "endings": 5474,
      "boot": 5475,
      "roo": 5476,
      "oky": 5477,
      "oken": 5478,
      "shrunk": 5479,
      "shmallow": 5480,
      "causing": 5481,
      "spat": 5482,
      "spied": 5483,
      "decides": 5484,
      "helme": 5485,
      "suits": 5486,
      "newfound": 5487,
      "helpamy": 5488,
      "meowed": 5489,
      "grily": 5490,
      "grum": 5491,
      "smelt": 5492,
      "peering": 5493,
      "foc": 5494,
      "footing": 5495,
      "jojo": 5496,
      "lowered": 5497,
      "wally": 5498,
      "lookout": 5499,
      "parking": 5500,
      "prof": 5501,
      "birdseed": 5502,
      "chefs": 5503,
      "expected": 5504,
      "expecting": 5505,
      "ssom": 5506,
      "kingdom": 5507,
      "ruining": 5508,
      "launch": 5509,
      "untangled": 5510,
      "catty": 5511,
      "teased": 5512,
      "stays": 5513,
      "clara": 5514,
      "clutching": 5515,
      "sunk": 5516,
      "swum": 5517,
      "waters": 5518,
      "handy": 5519,
      "contr": 5520,
      "spooky": 5521,
      "marshmallow": 5522,
      "flowing": 5523,
      "suring": 5524,
      "braved": 5525,
      "hardly": 5526,
      "izes": 5527,
      "fied": 5528,
      "custom": 5529,
      "beaver": 5530,
      "continues": 5531,
      "treated": 5532,
      "rained": 5533,
      "visitor": 5534,
      "steam": 5535,
      "truly": 5536,
      "buying": 5537,
      "choo": 5538,
      "grandfather": 5539,
      "trampol": 5540,
      "magaz": 5541,
      "wrist": 5542,
      "nights": 5543,
      "lightest": 5544,
      "coloring": 5545,
      "flood": 5546,
      "slices": 5547,
      "squirt": 5548,
      "pleaded": 5549,
      "gladly": 5550,
      "emmy": 5551,
      "hops": 5552,
      "singer": 5553,
      "blossom": 5554,
      "petted": 5555,
      "voyage": 5556,
      "matches": 5557,
      "ffic": 5558,
      "flat": 5559,
      "flames": 5560,
      "dina": 5561,
      "floors": 5562,
      "boards": 5563,
      "traffic": 5564,
      "creams": 5565,
      "guest": 5566,
      "insists": 5567,
      "airplane": 5568,
      "desper": 5569,
      "tighten": 5570,
      "passeng": 5571,
      "replaced": 5572,
      "powers": 5573,
      "heaviest": 5574,
      "meetings": 5575,
      "younger": 5576,
      "youngest": 5577,
      "elephants": 5578,
      "scent": 5579,
      "scamper": 5580,
      "welcoming": 5581,
      "teaches": 5582,
      "trainers": 5583,
      "pulls": 5584,
      "loneliness": 5585,
      "paying": 5586,
      "results": 5587,
      "wrapping": 5588,
      "lifting": 5589,
      "duckling": 5590,
      "marker": 5591,
      "snowstorm": 5592,
      "panicked": 5593,
      "accidents": 5594,
      "smelling": 5595,
      "drives": 5596,
      "certain": 5597,
      "lays": 5598,
      "obstac": 5599,
      "measurements": 5600,
      "curly": 5601,
      "zoomy": 5602,
      "islands": 5603,
      "clearly": 5604,
      "angels": 5605,
      "shakes": 5606,
      "cheering": 5607,
      "madeline": 5608,
      "pouring": 5609,
      "riddle": 5610,
      "rounds": 5611,
      "roads": 5612,
      "leapt": 5613,
      "crossing": 5614,
      "jamie": 5615,
      "seller": 5616,
      "streak": 5617,
      "teapot": 5618,
      "gemma": 5619,
      "supplying": 5620,
      "humans": 5621,
      "cracker": 5622,
      "melted": 5623,
      "designs": 5624,
      "prayed": 5625,
      "daring": 5626,
      "rumble": 5627,
      "temple": 5628,
      "burned": 5629,
      "encouraging": 5630,
      "suffered": 5631,
      "newspapers": 5632,
      "silverware": 5633,
      "sweetest": 5634,
      "envelopes": 5635,
      "hunts": 5636,
      "hundred": 5637,
      "screaming": 5638,
      "jewelry": 5639,
      "requests": 5640,
      "nightmares": 5641,
      "pitcher": 5642,
      "priate": 5643,
      "prices": 5644,
      "apartment": 5645,
      "avocados": 5646,
      "models": 5647,
      "tremble": 5648,
      "batteries": 5649,
      "appropriate": 5650,
      "condit": 5651,
      "films": 5652,
      "knees": 5653,
      "pupil": 5654,
      "dusty": 5655,
      "tickling": 5656,
      "tomato": 5657,
      "fluttered": 5658,
      "applauded": 5659,
      "reassuring": 5660,
      "crop": 5661,
      "limes": 5662,
      "emerged": 5663,
      "hesitated": 5664,
      "behaviour": 5665,
      "clarissa": 5666,
      "mmm": 5667,
      "acorns": 5668,
      "target": 5669,
      "travell": 5670,
      "glittered": 5671,
      "sensation": 5672,
      "attempts": 5673,
      "expression": 5674,
      "potato": 5675,
      "project": 5676,
      "device": 5677,
      "navy": 5678,
      "observant": 5679,
      "faint": 5680,
      "nibble": 5681,
      "satisfaction": 5682,
      "properly": 5683,
      "julia": 5684,
      "sweaters": 5685,
      "drinking": 5686,
      "ostrich": 5687,
      "pods": 5688,
      "sensible": 5689,
      "inflated": 5690,
      "iteness": 5691,
      "thistle": 5692,
      "unfortunately": 5693,
      "helmets": 5694,
      "contract": 5695,
      "marshmallows": 5696,
      "customers": 5697,
      "trampoline": 5698,
      "magazine": 5699,
      "guests": 5700,
      "passengers": 5701,
      "scampered": 5702,
      "10": 5703,
      "ait": 5704,
      "aim": 5705,
      "awhile": 5706,
      "awoke": 5707,
      "bil": 5708,
      "bend": 5709,
      "bond": 5710,
      "dor": 5711,
      "dep": 5712,
      "dles": 5713,
      "fts": 5714,
      "fate": 5715,
      "fits": 5716,
      "freed": 5717,
      "gallo": 5718,
      "hh": 5719,
      "hus": 5720,
      "jured": 5721,
      "jax": 5722,
      "ki": 5723,
      "kins": 5724,
      "kait": 5725,
      "lings": 5726,
      "mick": 5727,
      "mitting": 5728,
      "miest": 5729,
      "nth": 5730,
      "pis": 5731,
      "pad": 5732,
      "pout": 5733,
      "pandy": 5734,
      "price": 5735,
      "prick": 5736,
      "poking": 5737,
      "sir": 5738,
      "sill": 5739,
      "site": 5740,
      "sits": 5741,
      "scor": 5742,
      "sitter": 5743,
      "tive": 5744,
      "tise": 5745,
      "tara": 5746,
      "tipped": 5747,
      "tia": 5748,
      "une": 5749,
      "xpec": 5750,
      "toe": 5751,
      "tol": 5752,
      "toward": 5753,
      "andon": 5754,
      "injured": 5755,
      "rely": 5756,
      "relu": 5757,
      "recor": 5758,
      "waking": 5759,
      "halves": 5760,
      "haps": 5761,
      "onse": 5762,
      "enchan": 5763,
      "enee": 5764,
      "arom": 5765,
      "army": 5766,
      "arran": 5767,
      "lee": 5768,
      "lets": 5769,
      "idence": 5770,
      "ality": 5771,
      "alley": 5772,
      "beamed": 5773,
      "behaving": 5774,
      "sequ": 5775,
      "thier": 5776,
      "sole": 5777,
      "vertise": 5778,
      "plump": 5779,
      "rip": 5780,
      "riley": 5781,
      "neath": 5782,
      "neenee": 5783,
      "advertise": 5784,
      "igator": 5785,
      "alligator": 5786,
      "ict": 5787,
      "icle": 5788,
      "unloading": 5789,
      "aside": 5790,
      "assured": 5791,
      "amend": 5792,
      "ammed": 5793,
      "fortune": 5794,
      "outing": 5795,
      "elle": 5796,
      "liking": 5797,
      "nope": 5798,
      "bother": 5799,
      "chy": 5800,
      "chang": 5801,
      "roamed": 5802,
      "ropes": 5803,
      "robby": 5804,
      "roaming": 5805,
      "esha": 5806,
      "someplace": 5807,
      "abandon": 5808,
      "dock": 5809,
      "ulated": 5810,
      "shown": 5811,
      "exchanged": 5812,
      "extrem": 5813,
      "cafe": 5814,
      "caused": 5815,
      "littler": 5816,
      "fulfil": 5817,
      "mood": 5818,
      "motion": 5819,
      "notes": 5820,
      "raking": 5821,
      "fever": 5822,
      "melo": 5823,
      "ranger": 5824,
      "girls": 5825,
      "getic": 5826,
      "carving": 5827,
      "code": 5828,
      "peep": 5829,
      "peak": 5830,
      "peggy": 5831,
      "whoever": 5832,
      "excep": 5833,
      "pride": 5834,
      "opt": 5835,
      "birdy": 5836,
      "birdies": 5837,
      "buckets": 5838,
      "clothing": 5839,
      "maisy": 5840,
      "mabel": 5841,
      "quality": 5842,
      "istic": 5843,
      "loose": 5844,
      "whirl": 5845,
      "whiteness": 5846,
      "explor": 5847,
      "ruby": 5848,
      "dered": 5849,
      "untie": 5850,
      "listens": 5851,
      "teesha": 5852,
      "staying": 5853,
      "permitting": 5854,
      "perhaps": 5855,
      "yourselves": 5856,
      "clung": 5857,
      "sadie": 5858,
      "flyers": 5859,
      "pical": 5860,
      "handsome": 5861,
      "tyler": 5862,
      "thoughts": 5863,
      "members": 5864,
      "confl": 5865,
      "congrat": 5866,
      "consequ": 5867,
      "console": 5868,
      "compare": 5869,
      "compan": 5870,
      "compromise": 5871,
      "deal": 5872,
      "gardening": 5873,
      "affe": 5874,
      "anywhere": 5875,
      "nasty": 5876,
      "cynth": 5877,
      "stores": 5878,
      "worker": 5879,
      "cleanly": 5880,
      "visions": 5881,
      "steak": 5882,
      "pies": 5883,
      "windy": 5884,
      "fishy": 5885,
      "chopping": 5886,
      "dollhouse": 5887,
      "shoulders": 5888,
      "trimmed": 5889,
      "trading": 5890,
      "bobbing": 5891,
      "underneath": 5892,
      "visiting": 5893,
      "medal": 5894,
      "ientist": 5895,
      "drawn": 5896,
      "talks": 5897,
      "slammed": 5898,
      "studi": 5899,
      "activity": 5900,
      "sticky": 5901,
      "fills": 5902,
      "swims": 5903,
      "embark": 5904,
      "joining": 5905,
      "provid": 5906,
      "provisions": 5907,
      "ladybird": 5908,
      "patted": 5909,
      "merry": 5910,
      "firework": 5911,
      "counts": 5912,
      "babysitter": 5913,
      "bunbun": 5914,
      "brant": 5915,
      "hideout": 5916,
      "planned": 5917,
      "attack": 5918,
      "guide": 5919,
      "knocks": 5920,
      "hairs": 5921,
      "desert": 5922,
      "laughs": 5923,
      "saila": 5924,
      "reminding": 5925,
      "pinky": 5926,
      "eagle": 5927,
      "mixing": 5928,
      "dryer": 5929,
      "growl": 5930,
      "growled": 5931,
      "carrying": 5932,
      "circl": 5933,
      "rushing": 5934,
      "parties": 5935,
      "cupcake": 5936,
      "paths": 5937,
      "scientist": 5938,
      "napkins": 5939,
      "longest": 5940,
      "tested": 5941,
      "relief": 5942,
      "artist": 5943,
      "artwork": 5944,
      "tropical": 5945,
      "ladders": 5946,
      "pantry": 5947,
      "healthier": 5948,
      "laying": 5949,
      "naughtiness": 5950,
      "dience": 5951,
      "chews": 5952,
      "heartbroken": 5953,
      "curl": 5954,
      "jacob": 5955,
      "cleared": 5956,
      "believed": 5957,
      "vibrant": 5958,
      "touches": 5959,
      "pecked": 5960,
      "peculi": 5961,
      "wandering": 5962,
      "postmaster": 5963,
      "chooses": 5964,
      "audience": 5965,
      "energetic": 5966,
      "travels": 5967,
      "apologised": 5968,
      "willingness": 5969,
      "crowns": 5970,
      "ctantly": 5971,
      "cactuses": 5972,
      "attics": 5973,
      "moonlight": 5974,
      "troubles": 5975,
      "flashlights": 5976,
      "breadcrumbs": 5977,
      "slipping": 5978,
      "prayer": 5979,
      "stubbed": 5980,
      "darlings": 5981,
      "rumbling": 5982,
      "strive": 5983,
      "striking": 5984,
      "necklaces": 5985,
      "gasp": 5986,
      "subside": 5987,
      "bullies": 5988,
      "court": 5989,
      "zero": 5990,
      "communic": 5991,
      "corners": 5992,
      "salt": 5993,
      "salon": 5994,
      "suggestions": 5995,
      "burnt": 5996,
      "jennif": 5997,
      "rotted": 5998,
      "sneaking": 5999,
      "sneaked": 6000,
      "gazed": 6001,
      "embarrassm": 6002,
      "buzzed": 6003,
      "beyond": 6004,
      "guessing": 6005,
      "hungrily": 6006,
      "vehicles": 6007,
      "indeed": 6008,
      "impressive": 6009,
      "quarreling": 6010,
      "attracting": 6011,
      "spikes": 6012,
      "banks": 6013,
      "response": 6014,
      "chalks": 6015,
      "delayed": 6016,
      "shrinker": 6017,
      "entertain": 6018,
      "breathed": 6019,
      "bicycles": 6020,
      "bumps": 6021,
      "crashed": 6022,
      "rising": 6023,
      "rustled": 6024,
      "style": 6025,
      "twisting": 6026,
      "bulbs": 6027,
      "licks": 6028,
      "weightless": 6029,
      "capture": 6030,
      "chatter": 6031,
      "copying": 6032,
      "honk": 6033,
      "sprinkled": 6034,
      "sprinkling": 6035,
      "tickled": 6036,
      "spelling": 6037,
      "prune": 6038,
      "confidence": 6039,
      "cartoon": 6040,
      "contests": 6041,
      "lime": 6042,
      "plugged": 6043,
      "silently": 6044,
      "clippers": 6045,
      "enemy": 6046,
      "smarts": 6047,
      "opinions": 6048,
      "minerals": 6049,
      "disturb": 6050,
      "popsicle": 6051,
      "opportunistic": 6052,
      "nicknamed": 6053,
      "feasted": 6054,
      "cribed": 6055,
      "widened": 6056,
      "yummiest": 6057,
      "reflection": 6058,
      "reflective": 6059,
      "unicorn": 6060,
      "lynne": 6061,
      "gratitude": 6062,
      "surrounded": 6063,
      "inspection": 6064,
      "chunks": 6065,
      "position": 6066,
      "direction": 6067,
      "experiencing": 6068,
      "crunchy": 6069,
      "fido": 6070,
      "snoo": 6071,
      "intently": 6072,
      "convincing": 6073,
      "crafting": 6074,
      "giraffe": 6075,
      "pondered": 6076,
      "scolded": 6077,
      "tummies": 6078,
      "insects": 6079,
      "rejoicing": 6080,
      "stroking": 6081,
      "stains": 6082,
      "thousands": 6083,
      "sobbed": 6084,
      "grumbling": 6085,
      "focused": 6086,
      "choosing": 6087,
      "travelling": 6088,
      "aiming": 6089,
      "billie": 6090,
      "dory": 6091,
      "depths": 6092,
      "freedom": 6093,
      "galloping": 6094,
      "husband": 6095,
      "kaitlyn": 6096,
      "micky": 6097,
      "pistol": 6098,
      "scored": 6099,
      "unexpec": 6100,
      "reluctantly": 6101,
      "recorder": 6102,
      "enchanted": 6103,
      "aroma": 6104,
      "alleyways": 6105,
      "advertisement": 6106,
      "amendments": 6107,
      "changing": 6108,
      "abandoned": 6109,
      "extremely": 6110,
      "peeped": 6111,
      "except": 6112,
      "conflict": 6113,
      "congratulated": 6114,
      "consequences": 6115,
      "companion": 6116,
      "cynthia": 6117,
      "studio": 6118,
      "providing": 6119,
      "peculiar": 6120,
      "communicate": 6121,
      "jennifer": 6122,
      "embarrassment": 6123,
      "unexpected": 6124,
      "50": 6125,
      "bou": 6126,
      "bound": 6127,
      "baff": 6128,
      "baked": 6129,
      "cd": 6130,
      "cent": 6131,
      "ckey": 6132,
      "cended": 6133,
      "ds": 6134,
      "doug": 6135,
      "dips": 6136,
      "ey": 6137,
      "epe": 6138,
      "eight": 6139,
      "ease": 6140,
      "ealed": 6141,
      "fto": 6142,
      "flips": 6143,
      "gul": 6144,
      "glu": 6145,
      "grant": 6146,
      "glee": 6147,
      "grip": 6148,
      "hour": 6149,
      "ippy": 6150,
      "jan": 6151,
      "jin": 6152,
      "jason": 6153,
      "ks": 6154,
      "mun": 6155,
      "mur": 6156,
      "osh": 6157,
      "plo": 6158,
      "praise": 6159,
      "ras": 6160,
      "rash": 6161,
      "rises": 6162,
      "san": 6163,
      "sou": 6164,
      "slo": 6165,
      "sig": 6166,
      "swords": 6167,
      "sizes": 6168,
      "tha": 6169,
      "tted": 6170,
      "tex": 6171,
      "ties": 6172,
      "tment": 6173,
      "tier": 6174,
      "vit": 6175,
      "vate": 6176,
      "wn": 6177,
      "wound": 6178,
      "wink": 6179,
      "woken": 6180,
      "heed": 6181,
      "height": 6182,
      "tori": 6183,
      "tourn": 6184,
      "anny": 6185,
      "thest": 6186,
      "theat": 6187,
      "eds": 6188,
      "eday": 6189,
      "inter": 6190,
      "infan": 6191,
      "itar": 6192,
      "remo": 6193,
      "rebuild": 6194,
      "removing": 6195,
      "wade": 6196,
      "habit": 6197,
      "haired": 6198,
      "erve": 6199,
      "eric": 6200,
      "arily": 6201,
      "wasted": 6202,
      "ising": 6203,
      "omas": 6204,
      "leather": 6205,
      "lefto": 6206,
      "alright": 6207,
      "stella": 6208,
      "stiff": 6209,
      "begging": 6210,
      "besides": 6211,
      "imy": 6212,
      "ilst": 6213,
      "seth": 6214,
      "seats": 6215,
      "thomas": 6216,
      "keen": 6217,
      "ute": 6218,
      "utions": 6219,
      "soaking": 6220,
      "irts": 6221,
      "veling": 6222,
      "adam": 6223,
      "adopt": 6224,
      "ige": 6225,
      "unroll": 6226,
      "unwrap": 6227,
      "unity": 6228,
      "unwrapped": 6229,
      "unloaded": 6230,
      "unripe": 6231,
      "ament": 6232,
      "amins": 6233,
      "hadow": 6234,
      "formed": 6235,
      "akes": 6236,
      "echo": 6237,
      "youth": 6238,
      "outsmart": 6239,
      "outfits": 6240,
      "hog": 6241,
      "hockey": 6242,
      "eland": 6243,
      "lione": 6244,
      "nook": 6245,
      "bodies": 6246,
      "chie": 6247,
      "chilly": 6248,
      "chris": 6249,
      "upstream": 6250,
      "roger": 6251,
      "doe": 6252,
      "shrank": 6253,
      "shrug": 6254,
      "shhh": 6255,
      "exchange": 6256,
      "starling": 6257,
      "sparrow": 6258,
      "sprang": 6259,
      "backwards": 6260,
      "ters": 6261,
      "sues": 6262,
      "susan": 6263,
      "noticing": 6264,
      "rase": 6265,
      "raged": 6266,
      "raises": 6267,
      "feat": 6268,
      "carla": 6269,
      "cariously": 6270,
      "coo": 6271,
      "coach": 6272,
      "cosy": 6273,
      "costum": 6274,
      "cooperate": 6275,
      "agents": 6276,
      "peaked": 6277,
      "peaches": 6278,
      "parted": 6279,
      "parach": 6280,
      "whoosh": 6281,
      "urday": 6282,
      "urity": 6283,
      "stopping": 6284,
      "worthy": 6285,
      "cany": 6286,
      "careta": 6287,
      "ific": 6288,
      "bubbled": 6289,
      "maia": 6290,
      "maker": 6291,
      "downs": 6292,
      "quake": 6293,
      "quet": 6294,
      "speck": 6295,
      "specific": 6296,
      "whippy": 6297,
      "whilst": 6298,
      "ruin": 6299,
      "rule": 6300,
      "needles": 6301,
      "poppies": 6302,
      "poison": 6303,
      "lap": 6304,
      "ives": 6305,
      "bedtime": 6306,
      "treehouse": 6307,
      "catches": 6308,
      "ourselves": 6309,
      "justice": 6310,
      "bride": 6311,
      "brate": 6312,
      "foreshadow": 6313,
      "click": 6314,
      "clicked": 6315,
      "rungs": 6316,
      "surely": 6317,
      "sunrises": 6318,
      "saddle": 6319,
      "paige": 6320,
      "tapped": 6321,
      "tapping": 6322,
      "watering": 6323,
      "handling": 6324,
      "waiter": 6325,
      "finny": 6326,
      "spoiling": 6327,
      "spooked": 6328,
      "deepe": 6329,
      "deeds": 6330,
      "defeat": 6331,
      "gardens": 6332,
      "prettier": 6333,
      "marveling": 6334,
      "shock": 6335,
      "flown": 6336,
      "napping": 6337,
      "surged": 6338,
      "willed": 6339,
      "beartie": 6340,
      "puffy": 6341,
      "grey": 6342,
      "tinged": 6343,
      "fived": 6344,
      "ilda": 6345,
      "sample": 6346,
      "promises": 6347,
      "cleaner": 6348,
      "rains": 6349,
      "sorted": 6350,
      "chases": 6351,
      "stem": 6352,
      "steel": 6353,
      "steering": 6354,
      "doorway": 6355,
      "disobey": 6356,
      "dashed": 6357,
      "hearty": 6358,
      "bookmark": 6359,
      "grandad": 6360,
      "granddaughter": 6361,
      "phrase": 6362,
      "ashley": 6363,
      "saturday": 6364,
      "wears": 6365,
      "medium": 6366,
      "nearly": 6367,
      "draws": 6368,
      "lighter": 6369,
      "slur": 6370,
      "slimy": 6371,
      "squealed": 6372,
      "magically": 6373,
      "preschool": 6374,
      "prefer": 6375,
      "precariously": 6376,
      "eyeshadow": 6377,
      "pleas": 6378,
      "filling": 6379,
      "buggy": 6380,
      "month": 6381,
      "itches": 6382,
      "probab": 6383,
      "process": 6384,
      "prospect": 6385,
      "mini": 6386,
      "princes": 6387,
      "dreammaker": 6388,
      "fireworks": 6389,
      "tablecloth": 6390,
      "slower": 6391,
      "adds": 6392,
      "favorites": 6393,
      "cuts": 6394,
      "cutters": 6395,
      "missy": 6396,
      "mischie": 6397,
      "flick": 6398,
      "flaming": 6399,
      "startled": 6400,
      "guitar": 6401,
      "gonna": 6402,
      "ava": 6403,
      "rowing": 6404,
      "descended": 6405,
      "musician": 6406,
      "security": 6407,
      "sails": 6408,
      "knives": 6409,
      "drier": 6410,
      "invol": 6411,
      "figures": 6412,
      "determination": 6413,
      "seashell": 6414,
      "signature": 6415,
      "furthest": 6416,
      "dragging": 6417,
      "owls": 6418,
      "tasting": 6419,
      "venir": 6420,
      "scene": 6421,
      "trips": 6422,
      "discoveries": 6423,
      "naps": 6424,
      "calf": 6425,
      "harry": 6426,
      "jobs": 6427,
      "fluff": 6428,
      "protecting": 6429,
      "bellies": 6430,
      "trotted": 6431,
      "snowball": 6432,
      "panel": 6433,
      "based": 6434,
      "basis": 6435,
      "jeff": 6436,
      "mila": 6437,
      "scoot": 6438,
      "trusty": 6439,
      "trusting": 6440,
      "trustworthy": 6441,
      "fans": 6442,
      "chewing": 6443,
      "usually": 6444,
      "bells": 6445,
      "performed": 6446,
      "sharin": 6447,
      "curb": 6448,
      "edges": 6449,
      "ppery": 6450,
      "peacefully": 6451,
      "peacefulness": 6452,
      "glided": 6453,
      "gliding": 6454,
      "vibrate": 6455,
      "tidied": 6456,
      "irement": 6457,
      "charles": 6458,
      "charity": 6459,
      "glows": 6460,
      "bossed": 6461,
      "leafy": 6462,
      "candies": 6463,
      "boost": 6464,
      "answering": 6465,
      "shady": 6466,
      "seatbelts": 6467,
      "cutest": 6468,
      "ficial": 6469,
      "delivering": 6470,
      "forks": 6471,
      "pressing": 6472,
      "streamers": 6473,
      "spills": 6474,
      "spilling": 6475,
      "weighing": 6476,
      "slippery": 6477,
      "microwave": 6478,
      "praying": 6479,
      "darted": 6480,
      "stripes": 6481,
      "wealth": 6482,
      "engineer": 6483,
      "vases": 6484,
      "solutions": 6485,
      "community": 6486,
      "suitcases": 6487,
      "weeping": 6488,
      "pears": 6489,
      "mesmer": 6490,
      "librarian": 6491,
      "computers": 6492,
      "squeezed": 6493,
      "scratches": 6494,
      "incredib": 6495,
      "messages": 6496,
      "speaker": 6497,
      "earthquake": 6498,
      "cuddling": 6499,
      "holidays": 6500,
      "requested": 6501,
      "suffering": 6502,
      "private": 6503,
      "hedgehog": 6504,
      "studies": 6505,
      "combined": 6506,
      "richie": 6507,
      "scooted": 6508,
      "jailer": 6509,
      "hooks": 6510,
      "golfer": 6511,
      "shortcut": 6512,
      "shivering": 6513,
      "scratching": 6514,
      "wipes": 6515,
      "goals": 6516,
      "terrified": 6517,
      "operator": 6518,
      "zigzags": 6519,
      "camping": 6520,
      "campfire": 6521,
      "campsite": 6522,
      "demands": 6523,
      "granted": 6524,
      "vanished": 6525,
      "vanilla": 6526,
      "worms": 6527,
      "fascinating": 6528,
      "barks": 6529,
      "tiptoes": 6530,
      "bolt": 6531,
      "knowledgeable": 6532,
      "heels": 6533,
      "beneficial": 6534,
      "skulls": 6535,
      "lectures": 6536,
      "awesome": 6537,
      "six": 6538,
      "nearer": 6539,
      "spaceships": 6540,
      "swaying": 6541,
      "tickle": 6542,
      "willie": 6543,
      "connects": 6544,
      "connecting": 6545,
      "flamebird": 6546,
      "twinkle": 6547,
      "twinkled": 6548,
      "languages": 6549,
      "challenged": 6550,
      "tornado": 6551,
      "regretted": 6552,
      "stalks": 6553,
      "threads": 6554,
      "measuring": 6555,
      "croaked": 6556,
      "limits": 6557,
      "necessarily": 6558,
      "fashionable": 6559,
      "sweeping": 6560,
      "tissues": 6561,
      "hesitant": 6562,
      "tempted": 6563,
      "victori": 6564,
      "enemies": 6565,
      "smarter": 6566,
      "smartest": 6567,
      "situations": 6568,
      "sniffs": 6569,
      "sniffed": 6570,
      "flavours": 6571,
      "possession": 6572,
      "junkyard": 6573,
      "someday": 6574,
      "targets": 6575,
      "sprout": 6576,
      "scrap": 6577,
      "scrape": 6578,
      "cricket": 6579,
      "wider": 6580,
      "attempted": 6581,
      "potatoes": 6582,
      "squishy": 6583,
      "projects": 6584,
      "threatened": 6585,
      "cashier": 6586,
      "disagreeing": 6587,
      "piggybank": 6588,
      "direct": 6589,
      "experienced": 6590,
      "flavors": 6591,
      "required": 6592,
      "requirement": 6593,
      "spiciest": 6594,
      "spiceland": 6595,
      "gestures": 6596,
      "somersault": 6597,
      "somersaults": 6598,
      "grazed": 6599,
      "hooted": 6600,
      "rooster": 6601,
      "profits": 6602,
      "visitors": 6603,
      "blossoms": 6604,
      "desperately": 6605,
      "certainly": 6606,
      "obstacles": 6607,
      "hundreds": 6608,
      "condition": 6609,
      "pupils": 6610,
      "prickly": 6611,
      "arranging": 6612,
      "whirlpool": 6613,
      "circled": 6614,
      "snoozing": 6615,
      "bouquet": 6616,
      "baffled": 6617,
      "gulp": 6618,
      "gluing": 6619,
      "munched": 6620,
      "plopped": 6621,
      "souvenir": 6622,
      "signing": 6623,
      "thawed": 6624,
      "texture": 6625,
      "vitamins": 6626,
      "tournament": 6627,
      "theatre": 6628,
      "infants": 6629,
      "remote": 6630,
      "leftover": 6631,
      "lioness": 6632,
      "nooks": 6633,
      "shrugged": 6634,
      "costumes": 6635,
      "parachute": 6636,
      "caretaker": 6637,
      "foreshadowed": 6638,
      "deepest": 6639,
      "preferred": 6640,
      "probably": 6641,
      "princesses": 6642,
      "mischievous": 6643,
      "incredibly": 6644,
      "victorious": 6645,
      "aster": 6646,
      "athes": 6647,
      "ashes": 6648,
      "aquar": 6649,
      "bb": 6650,
      "bom": 6651,
      "boney": 6652,
      "bail": 6653,
      "chad": 6654,
      "cally": 6655,
      "cough": 6656,
      "cers": 6657,
      "cumber": 6658,
      "center": 6659,
      "dv": 6660,
      "dge": 6661,
      "dile": 6662,
      "dink": 6663,
      "dled": 6664,
      "died": 6665,
      "dates": 6666,
      "elec": 6667,
      "email": 6668,
      "fend": 6669,
      "flitt": 6670,
      "fif": 6671,
      "fare": 6672,
      "fact": 6673,
      "gic": 6674,
      "gare": 6675,
      "glec": 6676,
      "gripped": 6677,
      "hits": 6678,
      "hired": 6679,
      "hitting": 6680,
      "ii": 6681,
      "ikey": 6682,
      "jing": 6683,
      "joking": 6684,
      "kit": 6685,
      "kked": 6686,
      "lin": 6687,
      "lur": 6688,
      "lish": 6689,
      "lump": 6690,
      "lina": 6691,
      "mow": 6692,
      "mult": 6693,
      "macy": 6694,
      "nu": 6695,
      "nning": 6696,
      "nib": 6697,
      "nina": 6698,
      "oily": 6699,
      "ozer": 6700,
      "phe": 6701,
      "pid": 6702,
      "pant": 6703,
      "piled": 6704,
      "pens": 6705,
      "pberry": 6706,
      "pads": 6707,
      "praises": 6708,
      "rul": 6709,
      "ramp": 6710,
      "sid": 6711,
      "sim": 6712,
      "swit": 6713,
      "scan": 6714,
      "sion": 6715,
      "sized": 6716,
      "sary": 6717,
      "sizz": 6718,
      "tir": 6719,
      "tabby": 6720,
      "uh": 6721,
      "ush": 6722,
      "uced": 6723,
      "upper": 6724,
      "var": 6725,
      "vor": 6726,
      "wend": 6727,
      "ying": 6728,
      "yuck": 6729,
      "zes": 6730,
      "zara": 6731,
      "zier": 6732,
      "tock": 6733,
      "toss": 6734,
      "topic": 6735,
      "thed": 6736,
      "thesl": 6737,
      "andi": 6738,
      "infor": 6739,
      "insp": 6740,
      "rer": 6741,
      "reel": 6742,
      "resto": 6743,
      "regre": 6744,
      "react": 6745,
      "research": 6746,
      "rector": 6747,
      "recounted": 6748,
      "wary": 6749,
      "waded": 6750,
      "wagging": 6751,
      "waggy": 6752,
      "waii": 6753,
      "ouched": 6754,
      "halo": 6755,
      "hawaii": 6756,
      "erted": 6757,
      "ernie": 6758,
      "ergic": 6759,
      "archer": 6760,
      "arct": 6761,
      "ingin": 6762,
      "ayla": 6763,
      "alison": 6764,
      "alerted": 6765,
      "stur": 6766,
      "state": 6767,
      "steven": 6768,
      "stung": 6769,
      "stroll": 6770,
      "stacked": 6771,
      "stakes": 6772,
      "loat": 6773,
      "savor": 6774,
      "bellow": 6775,
      "ilure": 6776,
      "seize": 6777,
      "sewed": 6778,
      "tedly": 6779,
      "acle": 6780,
      "ldozer": 6781,
      "vegg": 6782,
      "owsed": 6783,
      "pluck": 6784,
      "plaster": 6785,
      "plush": 6786,
      "rier": 6787,
      "rips": 6788,
      "neglec": 6789,
      "adually": 6790,
      "ppin": 6791,
      "allergic": 6792,
      "playhouse": 6793,
      "icip": 6794,
      "unwanted": 6795,
      "unlucky": 6796,
      "unwell": 6797,
      "uncovered": 6798,
      "unfreeze": 6799,
      "unfamiliar": 6800,
      "asped": 6801,
      "amble": 6802,
      "amanda": 6803,
      "force": 6804,
      "forgives": 6805,
      "weed": 6806,
      "ece": 6807,
      "outcomes": 6808,
      "hooting": 6809,
      "lifts": 6810,
      "boom": 6811,
      "chill": 6812,
      "upside": 6813,
      "rover": 6814,
      "rops": 6815,
      "essor": 6816,
      "ability": 6817,
      "doze": 6818,
      "dozed": 6819,
      "shorts": 6820,
      "shirts": 6821,
      "indrops": 6822,
      "spy": 6823,
      "sped": 6824,
      "spice": 6825,
      "spine": 6826,
      "spies": 6827,
      "spank": 6828,
      "spoken": 6829,
      "spikey": 6830,
      "biggy": 6831,
      "backs": 6832,
      "decre": 6833,
      "declined": 6834,
      "terror": 6835,
      "suspend": 6836,
      "newly": 6837,
      "raising": 6838,
      "rapid": 6839,
      "raindrops": 6840,
      "meg": 6841,
      "gradually": 6842,
      "grasped": 6843,
      "cost": 6844,
      "cooperation": 6845,
      "codile": 6846,
      "cozier": 6847,
      "parcel": 6848,
      "whoop": 6849,
      "umble": 6850,
      "urry": 6851,
      "urately": 6852,
      "therese": 6853,
      "stool": 6854,
      "mane": 6855,
      "finders": 6856,
      "canes": 6857,
      "cares": 6858,
      "homemade": 6859,
      "homework": 6860,
      "option": 6861,
      "acey": 6862,
      "checks": 6863,
      "goods": 6864,
      "closing": 6865,
      "clothesl": 6866,
      "maple": 6867,
      "anticip": 6868,
      "lush": 6869,
      "downpour": 6870,
      "quiz": 6871,
      "quilt": 6872,
      "ssy": 6873,
      "shallow": 6874,
      "whined": 6875,
      "explode": 6876,
      "learns": 6877,
      "offers": 6878,
      "poster": 6879,
      "poles": 6880,
      "pockets": 6881,
      "laze": 6882,
      "failed": 6883,
      "failure": 6884,
      "untangle": 6885,
      "ourging": 6886,
      "wobbled": 6887,
      "wobb": 6888,
      "bras": 6889,
      "browsed": 6890,
      "bramble": 6891,
      "classm": 6892,
      "clingin": 6893,
      "runnning": 6894,
      "sundays": 6895,
      "sunbathing": 6896,
      "sunburnt": 6897,
      "sadder": 6898,
      "sadness": 6899,
      "ishly": 6900,
      "scariness": 6901,
      "reduced": 6902,
      "watches": 6903,
      "watered": 6904,
      "handled": 6905,
      "longed": 6906,
      "longing": 6907,
      "types": 6908,
      "conver": 6909,
      "conten": 6910,
      "contain": 6911,
      "conclu": 6912,
      "connie": 6913,
      "construc": 6914,
      "consid": 6915,
      "kinder": 6916,
      "combed": 6917,
      "compart": 6918,
      "debby": 6919,
      "details": 6920,
      "defend": 6921,
      "jackie": 6922,
      "serving": 6923,
      "afar": 6924,
      "afloat": 6925,
      "peoples": 6926,
      "anytime": 6927,
      "crew": 6928,
      "creation": 6929,
      "marking": 6930,
      "martin": 6931,
      "marlon": 6932,
      "marvel": 6933,
      "marriage": 6934,
      "margare": 6935,
      "ptied": 6936,
      "nailed": 6937,
      "tina": 6938,
      "talents": 6939,
      "smiley": 6940,
      "puff": 6941,
      "storekeeper": 6942,
      "grease": 6943,
      "pickles": 6944,
      "cucumber": 6945,
      "closest": 6946,
      "workman": 6947,
      "spotting": 6948,
      "warmed": 6949,
      "trekked": 6950,
      "thrown": 6951,
      "rainstorm": 6952,
      "steer": 6953,
      "dancers": 6954,
      "pippin": 6955,
      "doorstep": 6956,
      "displayed": 6957,
      "tops": 6958,
      "daily": 6959,
      "chopped": 6960,
      "grandkids": 6961,
      "iple": 6962,
      "tracey": 6963,
      "resting": 6964,
      "realizing": 6965,
      "realizes": 6966,
      "johnson": 6967,
      "magnif": 6968,
      "magcally": 6969,
      "nighttime": 6970,
      "nightlight": 6971,
      "bluey": 6972,
      "movements": 6973,
      "lessly": 6974,
      "curiously": 6975,
      "drawers": 6976,
      "flora": 6977,
      "slice": 6978,
      "squished": 6979,
      "crouched": 6980,
      "crumble": 6981,
      "brightened": 6982,
      "preven": 6983,
      "hurting": 6984,
      "sticking": 6985,
      "breathing": 6986,
      "breathes": 6987,
      "tricity": 6988,
      "highly": 6989,
      "sleepier": 6990,
      "fillings": 6991,
      "annabel": 6992,
      "swimmer": 6993,
      "rings": 6994,
      "bowling": 6995,
      "emilda": 6996,
      "emptied": 6997,
      "moni": 6998,
      "months": 6999,
      "produ": 7000,
      "hopes": 7001,
      "singers": 7002,
      "beachs": 7003,
      "blob": 7004,
      "patting": 7005,
      "petting": 7006,
      "dropping": 7007,
      "countries": 7008,
      "mation": 7009,
      "germ": 7010,
      "barrier": 7011,
      "mister": 7012,
      "flurry": 7013,
      "correc": 7014,
      "cakes": 7015,
      "frost": 7016,
      "froze": 7017,
      "frosty": 7018,
      "bunnies": 7019,
      "bundles": 7020,
      "accurately": 7021,
      "trapped": 7022,
      "relic": 7023,
      "searches": 7024,
      "guy": 7025,
      "splish": 7026,
      "blank": 7027,
      "inscribed": 7028,
      "hasn": 7029,
      "softness": 7030,
      "gentlly": 7031,
      "yelped": 7032,
      "colder": 7033,
      "snipped": 7034,
      "lakes": 7035,
      "zebras": 7036,
      "rowed": 7037,
      "rowboat": 7038,
      "hairdresser": 7039,
      "described": 7040,
      "deserve": 7041,
      "tightness": 7042,
      "schoolbag": 7043,
      "elsewhere": 7044,
      "drip": 7045,
      "sweeties": 7046,
      "gratefully": 7047,
      "forwards": 7048,
      "heavily": 7049,
      "heavens": 7050,
      "fairies": 7051,
      "squirmed": 7052,
      "seaweed": 7053,
      "secretly": 7054,
      "muffy": 7055,
      "polished": 7056,
      "tuck": 7057,
      "freezing": 7058,
      "hiked": 7059,
      "pathway": 7060,
      "scaled": 7061,
      "scourging": 7062,
      "checking": 7063,
      "zzled": 7064,
      "sparky": 7065,
      "speople": 7066,
      "speaking": 7067,
      "tongu": 7068,
      "resisted": 7069,
      "persisted": 7070,
      "bushy": 7071,
      "spreading": 7072,
      "tests": 7073,
      "iversary": 7074,
      "alongside": 7075,
      "clucked": 7076,
      "spectacle": 7077,
      "pasta": 7078,
      "larger": 7079,
      "marks": 7080,
      "marky": 7081,
      "dangers": 7082,
      "ggled": 7083,
      "snowmen": 7084,
      "hotter": 7085,
      "winner": 7086,
      "finishing": 7087,
      "townspeople": 7088,
      "matchbox": 7089,
      "driveway": 7090,
      "steady": 7091,
      "steadily": 7092,
      "imaginations": 7093,
      "protection": 7094,
      "shyly": 7095,
      "mysteries": 7096,
      "astated": 7097,
      "peddled": 7098,
      "dived": 7099,
      "director": 7100,
      "drivers": 7101,
      "cages": 7102,
      "groups": 7103,
      "messing": 7104,
      "pennies": 7105,
      "speedy": 7106,
      "clears": 7107,
      "vivid": 7108,
      "nestled": 7109,
      "weekend": 7110,
      "feeder": 7111,
      "cheery": 7112,
      "riddles": 7113,
      "celebration": 7114,
      "celebrating": 7115,
      "leaking": 7116,
      "ribbit": 7117,
      "postbox": 7118,
      "obediently": 7119,
      "distrac": 7120,
      "lunchtime": 7121,
      "petey": 7122,
      "zips": 7123,
      "smoothed": 7124,
      "yeah": 7125,
      "yelling": 7126,
      "itching": 7127,
      "staircase": 7128,
      "pinched": 7129,
      "sending": 7130,
      "begs": 7131,
      "begun": 7132,
      "strewn": 7133,
      "lending": 7134,
      "stormy": 7135,
      "manages": 7136,
      "teams": 7137,
      "mickey": 7138,
      "relied": 7139,
      "borrowing": 7140,
      "storms": 7141,
      "anniversary": 7142,
      "toughest": 7143,
      "ankle": 7144,
      "handlebars": 7145,
      "ction": 7146,
      "cupboards": 7147,
      "slither": 7148,
      "sneezes": 7149,
      "remains": 7150,
      "facts": 7151,
      "shouts": 7152,
      "darling": 7153,
      "rumbled": 7154,
      "arguing": 7155,
      "strict": 7156,
      "treating": 7157,
      "blocking": 7158,
      "aiding": 7159,
      "bully": 7160,
      "bulldozer": 7161,
      "nervously": 7162,
      "flags": 7163,
      "crawls": 7164,
      "ointment": 7165,
      "cocoons": 7166,
      "pencils": 7167,
      "rescued": 7168,
      "jenna": 7169,
      "menus": 7170,
      "sailors": 7171,
      "suffers": 7172,
      "delightful": 7173,
      "harmful": 7174,
      "packages": 7175,
      "kayla": 7176,
      "gears": 7177,
      "crannies": 7178,
      "screams": 7179,
      "unlocking": 7180,
      "grumpiest": 7181,
      "trumpets": 7182,
      "traps": 7183,
      "tagged": 7184,
      "policeman": 7185,
      "completing": 7186,
      "chirps": 7187,
      "paddling": 7188,
      "robin": 7189,
      "mariah": 7190,
      "springing": 7191,
      "hedgewit": 7192,
      "settings": 7193,
      "student": 7194,
      "whales": 7195,
      "sneaky": 7196,
      "aprons": 7197,
      "delaying": 7198,
      "awk": 7199,
      "wiping": 7200,
      "scootered": 7201,
      "bumpy": 7202,
      "rustling": 7203,
      "stylish": 7204,
      "fourth": 7205,
      "vacations": 7206,
      "wiggling": 7207,
      "yawn": 7208,
      "licking": 7209,
      "sheepishly": 7210,
      "approved": 7211,
      "approach": 7212,
      "bruise": 7213,
      "chatted": 7214,
      "slips": 7215,
      "tirelessly": 7216,
      "backpacks": 7217,
      "achieving": 7218,
      "luxuries": 7219,
      "impatiently": 7220,
      "invites": 7221,
      "invitations": 7222,
      "tubes": 7223,
      "succeeded": 7224,
      "symbols": 7225,
      "penguins": 7226,
      "north": 7227,
      "wilson": 7228,
      "confusing": 7229,
      "avoiding": 7230,
      "doughnuts": 7231,
      "halfway": 7232,
      "liza": 7233,
      "pigeons": 7234,
      "pinchy": 7235,
      "pinching": 7236,
      "rhyme": 7237,
      "crocodile": 7238,
      "disappearing": 7239,
      "drains": 7240,
      "hesitation": 7241,
      "cautious": 7242,
      "cotton": 7243,
      "crashing": 7244,
      "punishment": 7245,
      "rupt": 7246,
      "crystals": 7247,
      "munching": 7248,
      "toddler": 7249,
      "rewarding": 7250,
      "traveled": 7251,
      "traveling": 7252,
      "scraps": 7253,
      "superheroes": 7254,
      "glitter": 7255,
      "waffle": 7256,
      "mooed": 7257,
      "surrounding": 7258,
      "surroundings": 7259,
      "occasionally": 7260,
      "devastated": 7261,
      "positive": 7262,
      "navigate": 7263,
      "surfboard": 7264,
      "observing": 7265,
      "receptionist": 7266,
      "astronauts": 7267,
      "crunching": 7268,
      "fidget": 7269,
      "grains": 7270,
      "snores": 7271,
      "intention": 7272,
      "joseph": 7273,
      "quackers": 7274,
      "zoey": 7275,
      "convinced": 7276,
      "grazing": 7277,
      "stalls": 7278,
      "adjusting": 7279,
      "hooves": 7280,
      "professor": 7281,
      "desperate": 7282,
      "obstacle": 7283,
      "conditions": 7284,
      "kiki": 7285,
      "padlock": 7286,
      "bothered": 7287,
      "melody": 7288,
      "melodies": 7289,
      "exploration": 7290,
      "explorations": 7291,
      "medals": 7292,
      "attacking": 7293,
      "growls": 7294,
      "bounded": 7295,
      "centre": 7296,
      "janet": 7297,
      "mural": 7298,
      "raspberry": 7299,
      "slowest": 7300,
      "interrupt": 7301,
      "echoed": 7302,
      "coolest": 7303,
      "canyons": 7304,
      "slurp": 7305,
      "pleasant": 7306,
      "involved": 7307,
      "panels": 7308,
      "mesmerized": 7309,
      "textures": 7310,
      "aquarium": 7311,
      "bomb": 7312,
      "dvds": 7313,
      "electricity": 7314,
      "emails": 7315,
      "flitting": 7316,
      "farewell": 7317,
      "jingling": 7318,
      "linny": 7319,
      "lurking": 7320,
      "mower": 7321,
      "multiple": 7322,
      "nuzzled": 7323,
      "phew": 7324,
      "ruler": 7325,
      "ramps": 7326,
      "switched": 7327,
      "scanned": 7328,
      "tiring": 7329,
      "various": 7330,
      "wendy": 7331,
      "topics": 7332,
      "information": 7333,
      "inspired": 7334,
      "restored": 7335,
      "regreted": 7336,
      "archery": 7337,
      "arctic": 7338,
      "sturdy": 7339,
      "savored": 7340,
      "bellowed": 7341,
      "veggies": 7342,
      "neglected": 7343,
      "suspended": 7344,
      "rapidly": 7345,
      "whooping": 7346,
      "clothesline": 7347,
      "anticipation": 7348,
      "wobbly": 7349,
      "brambles": 7350,
      "classmates": 7351,
      "contentedly": 7352,
      "conclusion": 7353,
      "constructing": 7354,
      "compartment": 7355,
      "margaret": 7356,
      "puffing": 7357,
      "cucumbers": 7358,
      "magnifying": 7359,
      "prevented": 7360,
      "annabelle": 7361,
      "correct": 7362,
      "distracted": 7363,
      "aa": 7364,
      "ashed": 7365,
      "awaited": 7366,
      "ajar": 7367,
      "aware": 7368,
      "aimed": 7369,
      "bri": 7370,
      "bam": 7371,
      "bick": 7372,
      "bile": 7373,
      "bish": 7374,
      "blad": 7375,
      "batt": 7376,
      "backed": 7377,
      "bbling": 7378,
      "buses": 7379,
      "baa": 7380,
      "cs": 7381,
      "cul": 7382,
      "cts": 7383,
      "cine": 7384,
      "cises": 7385,
      "crank": 7386,
      "date": 7387,
      "dged": 7388,
      "dama": 7389,
      "dash": 7390,
      "daff": 7391,
      "eve": 7392,
      "ets": 7393,
      "eves": 7394,
      "fle": 7395,
      "fli": 7396,
      "fished": 7397,
      "fading": 7398,
      "gar": 7399,
      "gown": 7400,
      "glistened": 7401,
      "gized": 7402,
      "gav": 7403,
      "glistening": 7404,
      "hull": 7405,
      "iece": 7406,
      "js": 7407,
      "jas": 7408,
      "jum": 7409,
      "jess": 7410,
      "ky": 7411,
      "kat": 7412,
      "kered": 7413,
      "lw": 7414,
      "lers": 7415,
      "link": 7416,
      "mers": 7417,
      "mble": 7418,
      "madd": 7419,
      "mended": 7420,
      "mallo": 7421,
      "ng": 7422,
      "ns": 7423,
      "ola": 7424,
      "oled": 7425,
      "othy": 7426,
      "oppo": 7427,
      "oey": 7428,
      "py": 7429,
      "pand": 7430,
      "pac": 7431,
      "pound": 7432,
      "pitter": 7433,
      "pjs": 7434,
      "rs": 7435,
      "rack": 7436,
      "rised": 7437,
      "ration": 7438,
      "races": 7439,
      "ridge": 7440,
      "shat": 7441,
      "sily": 7442,
      "sips": 7443,
      "sform": 7444,
      "simmer": 7445,
      "til": 7446,
      "tran": 7447,
      "tess": 7448,
      "tatter": 7449,
      "ud": 7450,
      "uum": 7451,
      "va": 7452,
      "vved": 7453,
      "vive": 7454,
      "vious": 7455,
      "wri": 7456,
      "yor": 7457,
      "toto": 7458,
      "toad": 7459,
      "tomo": 7460,
      "token": 7461,
      "aned": 7462,
      "anne": 7463,
      "anking": 7464,
      "angrily": 7465,
      "andjim": 7466,
      "edged": 7467,
      "inse": 7468,
      "inted": 7469,
      "inking": 7470,
      "inser": 7471,
      "inations": 7472,
      "indoors": 7473,
      "inng": 7474,
      "iter": 7475,
      "ition": 7476,
      "reck": 7477,
      "reled": 7478,
      "rewards": 7479,
      "remark": 7480,
      "removed": 7481,
      "relying": 7482,
      "reap": 7483,
      "revved": 7484,
      "wag": 7485,
      "wax": 7486,
      "waists": 7487,
      "waggled": 7488,
      "hael": 7489,
      "ony": 7490,
      "erk": 7491,
      "erate": 7492,
      "erves": 7493,
      "ening": 7494,
      "enclo": 7495,
      "arch": 7496,
      "arled": 7497,
      "arched": 7498,
      "aries": 7499,
      "arose": 7500,
      "ishes": 7501,
      "lever": 7502,
      "least": 7503,
      "leap": 7504,
      "idle": 7505,
      "herd": 7506,
      "ala": 7507,
      "alvin": 7508,
      "allest": 7509,
      "stump": 7510,
      "strolled": 7511,
      "stinky": 7512,
      "lop": 7513,
      "loaf": 7514,
      "loses": 7515,
      "orter": 7516,
      "behold": 7517,
      "beats": 7518,
      "beknown": 7519,
      "beware": 7520,
      "imble": 7521,
      "ilar": 7522,
      "ilder": 7523,
      "sets": 7524,
      "sevent": 7525,
      "seven": 7526,
      "semble": 7527,
      "thri": 7528,
      "thud": 7529,
      "thimble": 7530,
      "kest": 7531,
      "uting": 7532,
      "utted": 7533,
      "utmost": 7534,
      "hatch": 7535,
      "acter": 7536,
      "accord": 7537,
      "aciers": 7538,
      "accompany": 7539,
      "verer": 7540,
      "veyor": 7541,
      "gogg": 7542,
      "gooey": 7543,
      "ricky": 7544,
      "ribble": 7545,
      "ripen": 7546,
      "richer": 7547,
      "rieve": 7548,
      "ative": 7549,
      "wance": 7550,
      "nephew": 7551,
      "adab": 7552,
      "adise": 7553,
      "alled": 7554,
      "playdate": 7555,
      "iciest": 7556,
      "unkind": 7557,
      "unnoticed": 7558,
      "unfold": 7559,
      "unstuck": 7560,
      "unload": 7561,
      "unscrew": 7562,
      "unwraps": 7563,
      "unlocks": 7564,
      "unbeliev": 7565,
      "unpleas": 7566,
      "unbeknown": 7567,
      "asured": 7568,
      "assemble": 7569,
      "daydream": 7570,
      "daydreaming": 7571,
      "amel": 7572,
      "forgave": 7573,
      "former": 7574,
      "weake": 7575,
      "wept": 7576,
      "momma": 7577,
      "ector": 7578,
      "timothy": 7579,
      "outrun": 7580,
      "ounces": 7581,
      "hoof": 7582,
      "hoisted": 7583,
      "hooked": 7584,
      "elsa": 7585,
      "lied": 7586,
      "liam": 7587,
      "libby": 7588,
      "bog": 7589,
      "boil": 7590,
      "bold": 7591,
      "bots": 7592,
      "boiled": 7593,
      "chugging": 7594,
      "roam": 7595,
      "robots": 7596,
      "abi": 7597,
      "ably": 7598,
      "abrac": 7599,
      "abcs": 7600,
      "dodge": 7601,
      "ulge": 7602,
      "shorter": 7603,
      "existed": 7604,
      "indulge": 7605,
      "caf": 7606,
      "caw": 7607,
      "cawing": 7608,
      "spits": 7609,
      "spins": 7610,
      "spitting": 7611,
      "spanking": 7612,
      "biggs": 7613,
      "background": 7614,
      "whee": 7615,
      "tered": 7616,
      "fully": 7617,
      "mover": 7618,
      "moled": 7619,
      "moons": 7620,
      "moaned": 7621,
      "helper": 7622,
      "rafts": 7623,
      "feature": 7624,
      "meets": 7625,
      "smash": 7626,
      "smashed": 7627,
      "smallest": 7628,
      "theirs": 7629,
      "cari": 7630,
      "carve": 7631,
      "caramel": 7632,
      "core": 7633,
      "coop": 7634,
      "coction": 7635,
      "odd": 7636,
      "odil": 7637,
      "peas": 7638,
      "petri": 7639,
      "parison": 7640,
      "paradise": 7641,
      "umns": 7642,
      "fooled": 7643,
      "urgently": 7644,
      "cker": 7645,
      "ckled": 7646,
      "joked": 7647,
      "stole": 7648,
      "storing": 7649,
      "stomach": 7650,
      "epiece": 7651,
      "everytime": 7652,
      "useless": 7653,
      "worn": 7654,
      "worst": 7655,
      "cancel": 7656,
      "carefree": 7657,
      "iffing": 7658,
      "prit": 7659,
      "function": 7660,
      "arer": 7661,
      "bubbling": 7662,
      "builder": 7663,
      "mast": 7664,
      "downward": 7665,
      "quered": 7666,
      "quacked": 7667,
      "istles": 7668,
      "expert": 7669,
      "loosen": 7670,
      "ssings": 7671,
      "shaped": 7672,
      "whir": 7673,
      "whining": 7674,
      "lluting": 7675,
      "exploded": 7676,
      "rudel": 7677,
      "benches": 7678,
      "retrieve": 7679,
      "pose": 7680,
      "poses": 7681,
      "polluting": 7682,
      "lavis": 7683,
      "lava": 7684,
      "overcame": 7685,
      "overindulge": 7686,
      "ivel": 7687,
      "ously": 7688,
      "fae": 7689,
      "fawn": 7690,
      "listener": 7691,
      "teen": 7692,
      "impse": 7693,
      "eats": 7694,
      "bridle": 7695,
      "bristles": 7696,
      "forehead": 7697,
      "perable": 7698,
      "perspect": 7699,
      "clerk": 7700,
      "runch": 7701,
      "swip": 7702,
      "swerve": 7703,
      "paola": 7704,
      "reduce": 7705,
      "tale": 7706,
      "skies": 7707,
      "skates": 7708,
      "skirts": 7709,
      "earn": 7710,
      "earned": 7711,
      "earrings": 7712,
      "waterfall": 7713,
      "evenings": 7714,
      "clem": 7715,
      "cleverer": 7716,
      "clearer": 7717,
      "ellen": 7718,
      "concer": 7719,
      "contag": 7720,
      "concent": 7721,
      "conveyor": 7722,
      "concoction": 7723,
      "conquered": 7724,
      "finitely": 7725,
      "hugging": 7726,
      "comparison": 7727,
      "venturing": 7728,
      "definitely": 7729,
      "gardener": 7730,
      "setup": 7731,
      "anyways": 7732,
      "margo": 7733,
      "surfing": 7734,
      "survive": 7735,
      "brag": 7736,
      "braver": 7737,
      "pucker": 7738,
      "angie": 7739,
      "gress": 7740,
      "izer": 7741,
      "cub": 7742,
      "blessings": 7743,
      "closets": 7744,
      "maxi": 7745,
      "surprising": 7746,
      "watchful": 7747,
      "blind": 7748,
      "blame": 7749,
      "blur": 7750,
      "blended": 7751,
      "treasured": 7752,
      "shines": 7753,
      "strutted": 7754,
      "steep": 7755,
      "trudged": 7756,
      "dances": 7757,
      "yearning": 7758,
      "catching": 7759,
      "swingset": 7760,
      "discoura": 7761,
      "disbelie": 7762,
      "disagreement": 7763,
      "enjoys": 7764,
      "rent": 7765,
      "choices": 7766,
      "chosen": 7767,
      "hearted": 7768,
      "ipes": 7769,
      "traded": 7770,
      "reality": 7771,
      "ection": 7772,
      "sations": 7773,
      "magpie": 7774,
      "writer": 7775,
      "bluebird": 7776,
      "movement": 7777,
      "lotions": 7778,
      "wardly": 7779,
      "lightly": 7780,
      "flossy": 7781,
      "squawk": 7782,
      "squinted": 7783,
      "actions": 7784,
      "cracked": 7785,
      "brighten": 7786,
      "colony": 7787,
      "columns": 7788,
      "preferen": 7789,
      "precise": 7790,
      "previous": 7791,
      "throughout": 7792,
      "tricked": 7793,
      "highness": 7794,
      "pleasure": 7795,
      "stands": 7796,
      "swimsuit": 7797,
      "swimsuits": 7798,
      "warming": 7799,
      "warmly": 7800,
      "monday": 7801,
      "proved": 7802,
      "progress": 7803,
      "stern": 7804,
      "minds": 7805,
      "mindful": 7806,
      "patty": 7807,
      "void": 7808,
      "badge": 7809,
      "rivers": 7810,
      "riverside": 7811,
      "babbling": 7812,
      "birdsong": 7813,
      "matched": 7814,
      "matilda": 7815,
      "slowed": 7816,
      "frames": 7817,
      "nerves": 7818,
      "addition": 7819,
      "meaning": 7820,
      "meanwhile": 7821,
      "greatness": 7822,
      "greene": 7823,
      "greens": 7824,
      "greener": 7825,
      "barking": 7826,
      "misbehave": 7827,
      "misbehaving": 7828,
      "chilli": 7829,
      "flakes": 7830,
      "explains": 7831,
      "perfection": 7832,
      "loudest": 7833,
      "loudspeaker": 7834,
      "boarded": 7835,
      "hideaway": 7836,
      "twists": 7837,
      "mothers": 7838,
      "attain": 7839,
      "couple": 7840,
      "towered": 7841,
      "insistent": 7842,
      "insides": 7843,
      "events": 7844,
      "hilltop": 7845,
      "yelpping": 7846,
      "rocking": 7847,
      "snugly": 7848,
      "snarled": 7849,
      "sniffing": 7850,
      "snivel": 7851,
      "jimbo": 7852,
      "amazingly": 7853,
      "rubbish": 7854,
      "desired": 7855,
      "descri": 7856,
      "deserves": 7857,
      "tighter": 7858,
      "belongings": 7859,
      "foxes": 7860,
      "sentences": 7861,
      "whiteboard": 7862,
      "casting": 7863,
      "mustered": 7864,
      "passing": 7865,
      "reminds": 7866,
      "fights": 7867,
      "journeys": 7868,
      "journeyed": 7869,
      "hider": 7870,
      "purring": 7871,
      "purchase": 7872,
      "purrs": 7873,
      "purpose": 7874,
      "grows": 7875,
      "fairs": 7876,
      "signalled": 7877,
      "furrowed": 7878,
      "july": 7879,
      "judge": 7880,
      "juiciest": 7881,
      "politeness": 7882,
      "marketplace": 7883,
      "tucks": 7884,
      "tunes": 7885,
      "mailing": 7886,
      "shops": 7887,
      "cloudy": 7888,
      "tastier": 7889,
      "sisters": 7890,
      "scrib": 7891,
      "scribble": 7892,
      "scrunch": 7893,
      "presentable": 7894,
      "caves": 7895,
      "calmed": 7896,
      "calming": 7897,
      "training": 7898,
      "zzier": 7899,
      "quieter": 7900,
      "harvest": 7901,
      "sparks": 7902,
      "speech": 7903,
      "payoff": 7904,
      "testing": 7905,
      "artists": 7906,
      "protector": 7907,
      "snowflakes": 7908,
      "busier": 7909,
      "kissing": 7910,
      "bedrooms": 7911,
      "pans": 7912,
      "screech": 7913,
      "comforting": 7914,
      "layer": 7915,
      "organised": 7916,
      "imaginable": 7917,
      "imaginary": 7918,
      "wetter": 7919,
      "wetsuits": 7920,
      "suprised": 7921,
      "sugary": 7922,
      "measurement": 7923,
      "peddle": 7924,
      "upsetting": 7925,
      "bowls": 7926,
      "dippy": 7927,
      "footsteps": 7928,
      "farmers": 7929,
      "apsed": 7930,
      "smock": 7931,
      "rosemary": 7932,
      "poolside": 7933,
      "mouths": 7934,
      "matters": 7935,
      "examination": 7936,
      "wildlife": 7937,
      "decoration": 7938,
      "sharon": 7939,
      "cherie": 7940,
      "current": 7941,
      "recipes": 7942,
      "depends": 7943,
      "glaciers": 7944,
      "glimpse": 7945,
      "vito": 7946,
      "tides": 7947,
      "stirrer": 7948,
      "cowboy": 7949,
      "cowboys": 7950,
      "rider": 7951,
      "ridden": 7952,
      "nutty": 7953,
      "destinations": 7954,
      "jars": 7955,
      "leaped": 7956,
      "motors": 7957,
      "character": 7958,
      "sells": 7959,
      "hurrying": 7960,
      "distanc": 7961,
      "distress": 7962,
      "kicks": 7963,
      "tearing": 7964,
      "serves": 7965,
      "courageously": 7966,
      "pawed": 7967,
      "smooshy": 7968,
      "fancying": 7969,
      "rory": 7970,
      "itchiness": 7971,
      "booth": 7972,
      "sends": 7973,
      "supplies": 7974,
      "recipe": 7975,
      "appreciative": 7976,
      "seatbelt": 7977,
      "weaker": 7978,
      "weakening": 7979,
      "favourites": 7980,
      "teamwork": 7981,
      "clumsily": 7982,
      "performers": 7983,
      "michael": 7984,
      "roars": 7985,
      "stretchy": 7986,
      "automo": 7987,
      "honeybee": 7988,
      "ignorance": 7989,
      "announced": 7990,
      "energized": 7991,
      "independence": 7992,
      "attaching": 7993,
      "violins": 7994,
      "honestly": 7995,
      "eyeing": 7996,
      "humming": 7997,
      "dinos": 7998,
      "apologizer": 7999
    },
    "merges": [
      [
        "h",
        "e"
      ],
      [
        "t",
        "o"
      ],
      [
        "a",
        "n"
      ],
      [
        "t",
        "he"
      ],
      [
        "an",
        "d"
      ],
      [
        "e",
        "d"
      ],
      [
        "i",
        "n"
      ],
      [
        "i",
        "t"
      ],
      [
        "r",
        "e"
      ],
      [
        "w",
        "a"
      ],
      [
        "o",
        "u"
      ],
      [
        "h",
        "a"
      ],
      [
        "o",
        "n"
      ],
      [
        "e",
        "r"
      ],
      [
        "e",
        "n"
      ],
      [
        "a",
        "r"
      ],
      [
        "in",
        "g"
      ],
      [
        "wa",
        "s"
      ],
      [
        "i",
        "s"
      ],
      [
        "o",
        "m"
      ],
      [
        "l",
        "e"
      ],
      [
        "i",
        "d"
      ],
      [
        "a",
        "y"
      ],
      [
        "he",
        "r"
      ],
      [
        "a",
        "l"
      ],
      [
        "s",
        "t"
      ],
      [
        "s",
        "he"
      ],
      [
        "l",
        "o"
      ],
      [
        "o",
        "r"
      ],
      [
        "s",
        "a"
      ],
      [
        "b",
        "e"
      ],
      [
        "i",
        "m"
      ],
      [
        "i",
        "l"
      ],
      [
        "s",
        "e"
      ],
      [
        "t",
        "h"
      ],
      [
        "k",
        "e"
      ],
      [
        "u",
        "t"
      ],
      [
        "ha",
        "t"
      ],
      [
        "t",
        "ed"
      ],
      [
        "a",
        "c"
      ],
      [
        "s",
        "o"
      ],
      [
        "l",
        "d"
      ],
      [
        "h",
        "is"
      ],
      [
        "i",
        "r"
      ],
      [
        "v",
        "e"
      ],
      [
        "o",
        "w"
      ],
      [
        "v",
        "er"
      ],
      [
        "p",
        "l"
      ],
      [
        "g",
        "o"
      ],
      [
        "w",
        "it"
      ],
      [
        "wit",
        "h"
      ],
      [
        "r",
        "i"
      ],
      [
        "the",
        "y"
      ],
      [
        "t",
        "hat"
      ],
      [
        "a",
        "t"
      ],
      [
        "o",
        "f"
      ],
      [
        "w",
        "an"
      ],
      [
        "n",
        "e"
      ],
      [
        "om",
        "e"
      ],
      [
        "en",
        "t"
      ],
      [
        "b",
        "ut"
      ],
      [
        "a",
        "d"
      ],
      [
        "p",
        "p"
      ],
      [
        "k",
        "ed"
      ],
      [
        "i",
        "g"
      ],
      [
        "al",
        "l"
      ],
      [
        "pl",
        "ay"
      ],
      [
        "i",
        "c"
      ],
      [
        "u",
        "n"
      ],
      [
        "a",
        "s"
      ],
      [
        "d",
        "ay"
      ],
      [
        "sa",
        "id"
      ],
      [
        "a",
        "m"
      ],
      [
        "g",
        "e"
      ],
      [
        "ou",
        "ld"
      ],
      [
        "ha",
        "d"
      ],
      [
        "wan",
        "ted"
      ],
      [
        "f",
        "or"
      ],
      [
        "w",
        "e"
      ],
      [
        "a",
        "ke"
      ],
      [
        "m",
        "om"
      ],
      [
        "e",
        "c"
      ],
      [
        "y",
        "ou"
      ],
      [
        "t",
        "im"
      ],
      [
        "ou",
        "t"
      ],
      [
        "ver",
        "y"
      ],
      [
        "ou",
        "n"
      ],
      [
        "h",
        "o"
      ],
      [
        "e",
        "l"
      ],
      [
        "wa",
        "y"
      ],
      [
        "l",
        "i"
      ],
      [
        "en",
        "d"
      ],
      [
        "n",
        "o"
      ],
      [
        "b",
        "o"
      ],
      [
        "on",
        "e"
      ],
      [
        "ac",
        "k"
      ],
      [
        "l",
        "y"
      ],
      [
        "w",
        "ent"
      ],
      [
        "oun",
        "d"
      ],
      [
        "c",
        "h"
      ],
      [
        "u",
        "p"
      ],
      [
        "r",
        "o"
      ],
      [
        "th",
        "ing"
      ],
      [
        "m",
        "y"
      ],
      [
        "e",
        "s"
      ],
      [
        "s",
        "ome"
      ],
      [
        "ha",
        "pp"
      ],
      [
        "the",
        "r"
      ],
      [
        "il",
        "y"
      ],
      [
        "h",
        "im"
      ],
      [
        "a",
        "b"
      ],
      [
        "o",
        "k"
      ],
      [
        "it",
        "t"
      ],
      [
        "d",
        "o"
      ],
      [
        "u",
        "l"
      ],
      [
        "s",
        "h"
      ],
      [
        "e",
        "x"
      ],
      [
        "r",
        "y"
      ],
      [
        "h",
        "t"
      ],
      [
        "st",
        "ar"
      ],
      [
        "f",
        "ri"
      ],
      [
        "happ",
        "y"
      ],
      [
        "fri",
        "end"
      ],
      [
        "in",
        "d"
      ],
      [
        "c",
        "a"
      ],
      [
        "s",
        "p"
      ],
      [
        "b",
        "ig"
      ],
      [
        "id",
        "e"
      ],
      [
        "v",
        "ed"
      ],
      [
        "b",
        "ack"
      ],
      [
        "w",
        "he"
      ],
      [
        "l",
        "ily"
      ],
      [
        "l",
        "itt"
      ],
      [
        "litt",
        "le"
      ],
      [
        "d",
        "ec"
      ],
      [
        "t",
        "er"
      ],
      [
        "star",
        "ted"
      ],
      [
        "he",
        "l"
      ],
      [
        "f",
        "ul"
      ],
      [
        "id",
        "ed"
      ],
      [
        "m",
        "o"
      ],
      [
        "dec",
        "ided"
      ],
      [
        "sa",
        "w"
      ],
      [
        "s",
        "u"
      ],
      [
        "ha",
        "ve"
      ],
      [
        "no",
        "t"
      ],
      [
        "ne",
        "w"
      ],
      [
        "hel",
        "p"
      ],
      [
        "se",
        "e"
      ],
      [
        "c",
        "ould"
      ],
      [
        "r",
        "a"
      ],
      [
        "we",
        "re"
      ],
      [
        "f",
        "e"
      ],
      [
        "m",
        "e"
      ],
      [
        "r",
        "om"
      ],
      [
        "r",
        "an"
      ],
      [
        "m",
        "ake"
      ],
      [
        "g",
        "r"
      ],
      [
        "the",
        "m"
      ],
      [
        "s",
        "m"
      ],
      [
        "the",
        "ir"
      ],
      [
        "tim",
        "e"
      ],
      [
        "w",
        "ould"
      ],
      [
        "ir",
        "l"
      ],
      [
        "way",
        "s"
      ],
      [
        "g",
        "irl"
      ],
      [
        "ge",
        "t"
      ],
      [
        "c",
        "ar"
      ],
      [
        "am",
        "e"
      ],
      [
        "u",
        "g"
      ],
      [
        "al",
        "ways"
      ],
      [
        "c",
        "o"
      ],
      [
        "o",
        "d"
      ],
      [
        "a",
        "g"
      ],
      [
        "lo",
        "ved"
      ],
      [
        "whe",
        "n"
      ],
      [
        "friend",
        "s"
      ],
      [
        "il",
        "l"
      ],
      [
        "p",
        "e"
      ],
      [
        "t",
        "ake"
      ],
      [
        "p",
        "ar"
      ],
      [
        "p",
        "ut"
      ],
      [
        "it",
        "ed"
      ],
      [
        "s",
        "ide"
      ],
      [
        "w",
        "ho"
      ],
      [
        "u",
        "m"
      ],
      [
        "ar",
        "ound"
      ],
      [
        "w",
        "hat"
      ],
      [
        "f",
        "o"
      ],
      [
        "ow",
        "n"
      ],
      [
        "f",
        "rom"
      ],
      [
        "u",
        "r"
      ],
      [
        "the",
        "re"
      ],
      [
        "d",
        "id"
      ],
      [
        "ou",
        "g"
      ],
      [
        "c",
        "k"
      ],
      [
        "wan",
        "t"
      ],
      [
        "j",
        "o"
      ],
      [
        "s",
        "to"
      ],
      [
        "ex",
        "c"
      ],
      [
        "e",
        "p"
      ],
      [
        "e",
        "very"
      ],
      [
        "m",
        "an"
      ],
      [
        "f",
        "ind"
      ],
      [
        "ri",
        "ed"
      ],
      [
        "lo",
        "w"
      ],
      [
        "some",
        "thing"
      ],
      [
        "a",
        "in"
      ],
      [
        "c",
        "ame"
      ],
      [
        "o",
        "ther"
      ],
      [
        "exc",
        "ited"
      ],
      [
        "the",
        "n"
      ],
      [
        "u",
        "se"
      ],
      [
        "w",
        "or"
      ],
      [
        "c",
        "an"
      ],
      [
        "re",
        "e"
      ],
      [
        "as",
        "ked"
      ],
      [
        "wa",
        "l"
      ],
      [
        "go",
        "t"
      ],
      [
        "n",
        "ow"
      ],
      [
        "lo",
        "ok"
      ],
      [
        "ca",
        "re"
      ],
      [
        "h",
        "ome"
      ],
      [
        "par",
        "k"
      ],
      [
        "t",
        "s"
      ],
      [
        "u",
        "re"
      ],
      [
        "ic",
        "k"
      ],
      [
        "to",
        "y"
      ],
      [
        "i",
        "f"
      ],
      [
        "b",
        "y"
      ],
      [
        "b",
        "ir"
      ],
      [
        "li",
        "ke"
      ],
      [
        "h",
        "ow"
      ],
      [
        "to",
        "o"
      ],
      [
        "ar",
        "d"
      ],
      [
        "p",
        "r"
      ],
      [
        "ad",
        "e"
      ],
      [
        "bo",
        "y"
      ],
      [
        "f",
        "un"
      ],
      [
        "o",
        "p"
      ],
      [
        "a",
        "re"
      ],
      [
        "bir",
        "d"
      ],
      [
        "ac",
        "h"
      ],
      [
        "c",
        "e"
      ],
      [
        "ac",
        "e"
      ],
      [
        "c",
        "he"
      ],
      [
        "f",
        "el"
      ],
      [
        "b",
        "u"
      ],
      [
        "sh",
        "ow"
      ],
      [
        "thing",
        "s"
      ],
      [
        "t",
        "ried"
      ],
      [
        "go",
        "od"
      ],
      [
        "ic",
        "e"
      ],
      [
        "ab",
        "le"
      ],
      [
        "m",
        "ade"
      ],
      [
        "t",
        "ry"
      ],
      [
        "c",
        "lo"
      ],
      [
        "tim",
        "my"
      ],
      [
        "m",
        "a"
      ],
      [
        "on",
        "g"
      ],
      [
        "an",
        "t"
      ],
      [
        "a",
        "way"
      ],
      [
        "a",
        "ve"
      ],
      [
        "u",
        "st"
      ],
      [
        "to",
        "ge"
      ],
      [
        "toge",
        "ther"
      ],
      [
        "pp",
        "ed"
      ],
      [
        "li",
        "ked"
      ],
      [
        "l",
        "u"
      ],
      [
        "mo",
        "re"
      ],
      [
        "d",
        "own"
      ],
      [
        "q",
        "u"
      ],
      [
        "th",
        "an"
      ],
      [
        "d",
        "ad"
      ],
      [
        "mom",
        "my"
      ],
      [
        "ig",
        "ht"
      ],
      [
        "is",
        "t"
      ],
      [
        "f",
        "ound"
      ],
      [
        "u",
        "s"
      ],
      [
        "sp",
        "ec"
      ],
      [
        "ne",
        "ver"
      ],
      [
        "ex",
        "p"
      ],
      [
        "c",
        "ome"
      ],
      [
        "did",
        "n"
      ],
      [
        "care",
        "ful"
      ],
      [
        "lo",
        "o"
      ],
      [
        "s",
        "s"
      ],
      [
        "le",
        "ar"
      ],
      [
        "k",
        "new"
      ],
      [
        "k",
        "ing"
      ],
      [
        "s",
        "ha"
      ],
      [
        "loo",
        "ked"
      ],
      [
        "all",
        "y"
      ],
      [
        "w",
        "h"
      ],
      [
        "l",
        "l"
      ],
      [
        "to",
        "m"
      ],
      [
        "exp",
        "lo"
      ],
      [
        "fel",
        "t"
      ],
      [
        "i",
        "le"
      ],
      [
        "lear",
        "n"
      ],
      [
        "i",
        "al"
      ],
      [
        "r",
        "u"
      ],
      [
        "of",
        "f"
      ],
      [
        "b",
        "en"
      ],
      [
        "re",
        "t"
      ],
      [
        "spec",
        "ial"
      ],
      [
        "ne",
        "ed"
      ],
      [
        "oug",
        "ht"
      ],
      [
        "fe",
        "el"
      ],
      [
        "p",
        "o"
      ],
      [
        "l",
        "a"
      ],
      [
        "out",
        "side"
      ],
      [
        "ou",
        "se"
      ],
      [
        "le",
        "t"
      ],
      [
        "o",
        "ld"
      ],
      [
        "o",
        "ver"
      ],
      [
        "b",
        "er"
      ],
      [
        "ab",
        "out"
      ],
      [
        "i",
        "ve"
      ],
      [
        "ou",
        "s"
      ],
      [
        "b",
        "ed"
      ],
      [
        "i",
        "e"
      ],
      [
        "play",
        "ing"
      ],
      [
        "at",
        "e"
      ],
      [
        "to",
        "ok"
      ],
      [
        "it",
        "e"
      ],
      [
        "or",
        "t"
      ],
      [
        "d",
        "er"
      ],
      [
        "f",
        "a"
      ],
      [
        "t",
        "ree"
      ],
      [
        "l",
        "ist"
      ],
      [
        "un",
        "t"
      ],
      [
        "list",
        "en"
      ],
      [
        "to",
        "ld"
      ],
      [
        "c",
        "at"
      ],
      [
        "ou",
        "r"
      ],
      [
        "u",
        "ch"
      ],
      [
        "w",
        "o"
      ],
      [
        "ca",
        "use"
      ],
      [
        "il",
        "ed"
      ],
      [
        "be",
        "cause"
      ],
      [
        "go",
        "ing"
      ],
      [
        "t",
        "e"
      ],
      [
        "ro",
        "om"
      ],
      [
        "im",
        "p"
      ],
      [
        "explo",
        "re"
      ],
      [
        "e",
        "v"
      ],
      [
        "he",
        "d"
      ],
      [
        "unt",
        "il"
      ],
      [
        "j",
        "ust"
      ],
      [
        "l",
        "f"
      ],
      [
        "d",
        "re"
      ],
      [
        "n",
        "y"
      ],
      [
        "e",
        "at"
      ],
      [
        "r",
        "d"
      ],
      [
        "st",
        "ay"
      ],
      [
        "re",
        "ad"
      ],
      [
        "b",
        "r"
      ],
      [
        "ou",
        "d"
      ],
      [
        "k",
        "now"
      ],
      [
        "could",
        "n"
      ],
      [
        "fo",
        "re"
      ],
      [
        "p",
        "er"
      ],
      [
        "am",
        "ed"
      ],
      [
        "sm",
        "iled"
      ],
      [
        "th",
        "is"
      ],
      [
        "you",
        "r"
      ],
      [
        "c",
        "l"
      ],
      [
        "i",
        "on"
      ],
      [
        "r",
        "un"
      ],
      [
        "su",
        "re"
      ],
      [
        "ag",
        "ain"
      ],
      [
        "g",
        "an"
      ],
      [
        "oug",
        "h"
      ],
      [
        "g",
        "ave"
      ],
      [
        "ke",
        "t"
      ],
      [
        "s",
        "un"
      ],
      [
        "sa",
        "d"
      ],
      [
        "h",
        "ouse"
      ],
      [
        "is",
        "h"
      ],
      [
        "s",
        "w"
      ],
      [
        "ke",
        "ep"
      ],
      [
        "s",
        "car"
      ],
      [
        "p",
        "a"
      ],
      [
        "s",
        "ay"
      ],
      [
        "n",
        "amed"
      ],
      [
        "imp",
        "ort"
      ],
      [
        "r",
        "ed"
      ],
      [
        "f",
        "ly"
      ],
      [
        "is",
        "e"
      ],
      [
        "t",
        "a"
      ],
      [
        "s",
        "k"
      ],
      [
        "d",
        "y"
      ],
      [
        "p",
        "ic"
      ],
      [
        "toy",
        "s"
      ],
      [
        "import",
        "ant"
      ],
      [
        "wa",
        "t"
      ],
      [
        "e",
        "ar"
      ],
      [
        "se",
        "lf"
      ],
      [
        "ur",
        "n"
      ],
      [
        "me",
        "m"
      ],
      [
        "wa",
        "ter"
      ],
      [
        "whe",
        "re"
      ],
      [
        "in",
        "to"
      ],
      [
        "h",
        "and"
      ],
      [
        "wa",
        "it"
      ],
      [
        "er",
        "s"
      ],
      [
        "b",
        "it"
      ],
      [
        "be",
        "gan"
      ],
      [
        "is",
        "ed"
      ],
      [
        "l",
        "ong"
      ],
      [
        "ev",
        "en"
      ],
      [
        "t",
        "y"
      ],
      [
        "c",
        "le"
      ],
      [
        "th",
        "ought"
      ],
      [
        "el",
        "l"
      ],
      [
        "mem",
        "ber"
      ],
      [
        "re",
        "member"
      ],
      [
        "sha",
        "re"
      ],
      [
        "e",
        "ach"
      ],
      [
        "c",
        "on"
      ],
      [
        "k",
        "ind"
      ],
      [
        "f",
        "in"
      ],
      [
        "h",
        "ug"
      ],
      [
        "sp",
        "o"
      ],
      [
        "g",
        "ive"
      ],
      [
        "it",
        "s"
      ],
      [
        "g",
        "ht"
      ],
      [
        "l",
        "ad"
      ],
      [
        "c",
        "om"
      ],
      [
        "scar",
        "ed"
      ],
      [
        "in",
        "side"
      ],
      [
        "m",
        "uch"
      ],
      [
        "every",
        "one"
      ],
      [
        "v",
        "ent"
      ],
      [
        "ri",
        "ght"
      ],
      [
        "d",
        "e"
      ],
      [
        "j",
        "ack"
      ],
      [
        "by",
        "e"
      ],
      [
        "d",
        "on"
      ],
      [
        "in",
        "k"
      ],
      [
        "um",
        "p"
      ],
      [
        "g",
        "ard"
      ],
      [
        "gard",
        "en"
      ],
      [
        "s",
        "er"
      ],
      [
        "a",
        "f"
      ],
      [
        "p",
        "ret"
      ],
      [
        "good",
        "bye"
      ],
      [
        "gr",
        "ound"
      ],
      [
        "y",
        "es"
      ],
      [
        "so",
        "on"
      ],
      [
        "b",
        "all"
      ],
      [
        "d",
        "d"
      ],
      [
        "do",
        "g"
      ],
      [
        "in",
        "e"
      ],
      [
        "v",
        "ing"
      ],
      [
        "se",
        "t"
      ],
      [
        "sm",
        "all"
      ],
      [
        "op",
        "le"
      ],
      [
        "pe",
        "ople"
      ],
      [
        "be",
        "t"
      ],
      [
        "an",
        "y"
      ],
      [
        "c",
        "re"
      ],
      [
        "m",
        "ar"
      ],
      [
        "s",
        "ho"
      ],
      [
        "p",
        "t"
      ],
      [
        "an",
        "im"
      ],
      [
        "anim",
        "al"
      ],
      [
        "f",
        "low"
      ],
      [
        "n",
        "a"
      ],
      [
        "su",
        "r"
      ],
      [
        "m",
        "um"
      ],
      [
        "us",
        "ed"
      ],
      [
        "ad",
        "vent"
      ],
      [
        "op",
        "en"
      ],
      [
        "c",
        "y"
      ],
      [
        "g",
        "ed"
      ],
      [
        "bo",
        "x"
      ],
      [
        "w",
        "ill"
      ],
      [
        "e",
        "t"
      ],
      [
        "t",
        "in"
      ],
      [
        "learn",
        "ed"
      ],
      [
        "be",
        "st"
      ],
      [
        "pl",
        "ace"
      ],
      [
        "as",
        "s"
      ],
      [
        "l",
        "ed"
      ],
      [
        "le",
        "w"
      ],
      [
        "n",
        "ing"
      ],
      [
        "o",
        "l"
      ],
      [
        "jo",
        "y"
      ],
      [
        "n",
        "ice"
      ],
      [
        "f",
        "am"
      ],
      [
        "bet",
        "ter"
      ],
      [
        "b",
        "ra"
      ],
      [
        "t",
        "al"
      ],
      [
        "be",
        "ar"
      ],
      [
        "f",
        "t"
      ],
      [
        "ha",
        "rd"
      ],
      [
        "sm",
        "ile"
      ],
      [
        "lo",
        "ts"
      ],
      [
        "j",
        "ump"
      ],
      [
        "p",
        "u"
      ],
      [
        "advent",
        "ure"
      ],
      [
        "sto",
        "re"
      ],
      [
        "man",
        "y"
      ],
      [
        "an",
        "g"
      ],
      [
        "ig",
        "h"
      ],
      [
        "ke",
        "pt"
      ],
      [
        "wal",
        "k"
      ],
      [
        "g",
        "re"
      ],
      [
        "t",
        "ing"
      ],
      [
        "pr",
        "oud"
      ],
      [
        "i",
        "z"
      ],
      [
        "f",
        "i"
      ],
      [
        "try",
        "ing"
      ],
      [
        "ar",
        "a"
      ],
      [
        "p",
        "ick"
      ],
      [
        "x",
        "t"
      ],
      [
        "play",
        "ed"
      ],
      [
        "read",
        "y"
      ],
      [
        "m",
        "i"
      ],
      [
        "che",
        "d"
      ],
      [
        "t",
        "ell"
      ],
      [
        "fam",
        "ily"
      ],
      [
        "f",
        "lew"
      ],
      [
        "il",
        "d"
      ],
      [
        "ne",
        "xt"
      ],
      [
        "than",
        "ked"
      ],
      [
        "c",
        "u"
      ],
      [
        "show",
        "ed"
      ],
      [
        "be",
        "a"
      ],
      [
        "b",
        "le"
      ],
      [
        "sa",
        "m"
      ],
      [
        "animal",
        "s"
      ],
      [
        "clo",
        "ser"
      ],
      [
        "c",
        "all"
      ],
      [
        "clo",
        "se"
      ],
      [
        "ma",
        "x"
      ],
      [
        "b",
        "ro"
      ],
      [
        "feel",
        "ing"
      ],
      [
        "bra",
        "ve"
      ],
      [
        "than",
        "k"
      ],
      [
        "wor",
        "k"
      ],
      [
        "sur",
        "pr"
      ],
      [
        "p",
        "rom"
      ],
      [
        "ra",
        "w"
      ],
      [
        "wat",
        "ch"
      ],
      [
        "t",
        "wo"
      ],
      [
        "f",
        "ar"
      ],
      [
        "be",
        "en"
      ],
      [
        "be",
        "fore"
      ],
      [
        "lu",
        "cy"
      ],
      [
        "cl",
        "im"
      ],
      [
        "bea",
        "ut"
      ],
      [
        "wal",
        "ked"
      ],
      [
        "spo",
        "t"
      ],
      [
        "con",
        "tin"
      ],
      [
        "contin",
        "u"
      ],
      [
        "le",
        "ave"
      ],
      [
        "sk",
        "y"
      ],
      [
        "r",
        "ab"
      ],
      [
        "st",
        "ill"
      ],
      [
        "cle",
        "an"
      ],
      [
        "s",
        "ara"
      ],
      [
        "ic",
        "ed"
      ],
      [
        "i",
        "ful"
      ],
      [
        "fa",
        "st"
      ],
      [
        "beaut",
        "iful"
      ],
      [
        "qu",
        "ick"
      ],
      [
        "wa",
        "r"
      ],
      [
        "t",
        "urn"
      ],
      [
        "la",
        "ug"
      ],
      [
        "af",
        "ter"
      ],
      [
        "as",
        "k"
      ],
      [
        "b",
        "l"
      ],
      [
        "t",
        "re"
      ],
      [
        "sa",
        "fe"
      ],
      [
        "bo",
        "th"
      ],
      [
        "lo",
        "ve"
      ],
      [
        "bo",
        "at"
      ],
      [
        "not",
        "iced"
      ],
      [
        "th",
        "r"
      ],
      [
        "he",
        "ard"
      ],
      [
        "am",
        "a"
      ],
      [
        "ra",
        "in"
      ],
      [
        "continu",
        "ed"
      ],
      [
        "s",
        "or"
      ],
      [
        "c",
        "ha"
      ],
      [
        "sh",
        "in"
      ],
      [
        "rab",
        "bit"
      ],
      [
        "look",
        "ing"
      ],
      [
        "quick",
        "ly"
      ],
      [
        "st",
        "r"
      ],
      [
        "v",
        "is"
      ],
      [
        "gr",
        "ab"
      ],
      [
        "prom",
        "ised"
      ],
      [
        "st",
        "e"
      ],
      [
        "t",
        "ru"
      ],
      [
        "wh",
        "ile"
      ],
      [
        "d",
        "an"
      ],
      [
        "bu",
        "y"
      ],
      [
        "y",
        "ear"
      ],
      [
        "cat",
        "ch"
      ],
      [
        "t",
        "ure"
      ],
      [
        "lu",
        "e"
      ],
      [
        "ug",
        "ht"
      ],
      [
        "d",
        "el"
      ],
      [
        "p",
        "i"
      ],
      [
        "a",
        "k"
[...]
