{
  "version": "1.0",
  "truncation": null,
  "padding": null,
  "added_tokens": [
    {
      "id": 0,
      "content": "[PAD]",
      "single_word": false,
      "lstrip": false,
      "rstrip": false,
      "normalized": false,
      "special": true
    },
    {
      "id": 1,
      "content": "[UNK]",
      "single_word": false,
      "lstrip": false,
      "rstrip": false,
      "normalized": false,
      "special": true
    },
    {
      "id": 2,
      "content": "[BOS]",
      "single_word": false,
      "lstrip": false,
      "rstrip": false,
      "normalized": false,
      "special": true
    },
    {
      "id": 3,
      "content": "[EOS]",
      "single_word": false,
      "lstrip": false,
      "rstrip": false,
      "normalized": false,
      "special": true
    }
  ],
  "normalizer": null,
  "pre_tokenizer": {
    "type": "Whitespace"
  },
  "post_processor": {
    "type": "TemplateProcessing",
    "single": [
      {
        "SpecialToken": {
          "id": "[BOS]",
          "type_id": 0
        }
      },
      {
        "Sequence": {
          "id": "A",
          "type_id": 0
        }
      },
      {
        "SpecialToken": {
          "id": "[EOS]",
          "type_id": 0
        }
      }
    ],
    "pair": [
      {
        "Sequence": {
          "id": "A",
          "type_id": 0
        }
      },
      {
        "Sequence": {
          "id": "B",
          "type_id": 1
        }
      }
    ],
    "special_tokens": {
      "[BOS]": {
        "id": "[BOS]",
        "ids": [
          2
        ],
        "tokens": [
          "[BOS]"
        ]
      },
      "[EOS]": {
        "id": "[EOS]",
        "ids": [
          3
        ],
        "tokens": [
          "[EOS]"
        ]
      }
    }
  },
  "decoder": null,
  "model": {
    "type": "BPE",
    "dropout": null,
    "unk_token": "[UNK]",
    "continuing_subword_prefix": null,
    "end_of_word_suffix": null,
    "fuse_unk": false,
    "byte_fallback": false,
    "ignore_merges": false,
    "vocab": {
      "[PAD]": 0,
      "[UNK]": 1,
      "[BOS]": 2,
      "[EOS]": 3,
      "0": 4,
      "1": 5,
      "2": 6,
      "3": 7,
      "4": 8,
      "5": 9,
      "6": 10,
      "7": 11,
      "8": 12,
      "9": 13,
      "a": 14,
      "b": 15,
      "c": 16,
      "d": 17,
      "e": 18,
      "f": 19,
      "g": 20,
      "h": 21,
      "i": 22,
      "j": 23,
      "k": 24,
      "l": 25,
      "m": 26,
      "n": 27,
      "o": 28,
      "p": 29,
      "q": 30,
      "r": 31,
      "s": 32,
      "t": 33,
      "u": 34,
      "v": 35,
      "w": 36,
      "x": 37,
      "y": 38,
      "z": 39,
      "th": 40,
      "the": 41,
      "to": 42,
      "in": 43,
      "on": 44,
      "an": 45,
      "er": 46,
      "ed": 47,
      "re": 48,
      "at": 49,
      "en": 50,
      "un": 51,
      "as": 52,
      "al": 53,
      "or": 54,
      "ar": 55,
      "and": 56,
      "is": 57,
      "es": 58,
      "of": 59,
      "ing": 60,
      "it": 61,
      "unk": 62,
      "ro": 63,
      "ic": 64,
      "st": 65,
      "le": 66,
      "ion": 67,
      "ch": 68,
      "se": 69,
      "be": 70,
      "ou": 71,
      "ad": 72,
      "ent": 73,
      "il": 74,
      "co": 75,
      "ac": 76,
      "am": 77,
      "de": 78,
      "ve": 79,
      "ly": 80,
      "for": 81,
      "was": 82,
      "wh": 83,
      "ir": 84,
      "lo": 85,
      "ur": 86,
      "im": 87,
      "ig": 88,
      "con": 89,
      "he": 90,
      "ay": 91,
      "ter": 92,
      "wi": 93,
      "ce": 94,
      "that": 95,
      "te": 96,
      "ver": 97,
      "with": 98,
      "po": 99,
      "tr": 100,
      "us": 101,
      "id": 102,
      "ation": 103,
      "mo": 104,
      "ag": 105,
      "com": 106,
      "no": 107,
      "su": 108,
      "pe": 109,
      "ct": 110,
      "bu": 111,
      "ne": 112,
      "ol": 113,
      "ap": 114,
      "pro": 115,
      "ab": 116,
      "his": 117,
      "ere": 118,
      "pl": 119,
      "by": 120,
      "rom": 121,
      "res": 122,
      "me": 123,
      "ain": 124,
      "so": 125,
      "sh": 126,
      "ul": 127,
      "ri": 128,
      "ts": 129,
      "ted": 130,
      "from": 131,
      "all": 132,
      "ate": 133,
      "ke": 134,
      "00": 135,
      "19": 136,
      "ber": 137,
      "est": 138,
      "per": 139,
      "el": 140,
      "ther": 141,
      "are": 142,
      "li": 143,
      "di": 144,
      "were": 145,
      "und": 146,
      "igh": 147,
      "ment": 148,
      "ex": 149,
      "ich": 150,
      "man": 151,
      "cl": 152,
      "fe": 153,
      "end": 154,
      "ow": 155,
      "tor": 156,
      "ave": 157,
      "ge": 158,
      "ers": 159,
      "ord": 160,
      "ity": 161,
      "ld": 162,
      "ish": 163,
      "au": 164,
      "which": 165,
      "ill": 166,
      "gh": 167,
      "par": 168,
      "du": 169,
      "bo": 170,
      "ies": 171,
      "ated": 172,
      "ard": 173,
      "up": 174,
      "go": 175,
      "qu": 176,
      "por": 177,
      "mber": 178,
      "ra": 179,
      "had": 180,
      "but": 181,
      "ong": 182,
      "her": 183,
      "tw": 184,
      "ess": 185,
      "ack": 186,
      "ive": 187,
      "ame": 188,
      "one": 189,
      "fo": 190,
      "their": 191,
      "vi": 192,
      "out": 193,
      "br": 194,
      "op": 195,
      "ant": 196,
      "our": 197,
      "ist": 198,
      "low": 199,
      "its": 200,
      "ip": 201,
      "ass": 202,
      "av": 203,
      "af": 204,
      "ear": 205,
      "str": 206,
      "em": 207,
      "fir": 208,
      "ary": 209,
      "ally": 210,
      "not": 211,
      "ci": 212,
      "have": 213,
      "ak": 214,
      "ach": 215,
      "ight": 216,
      "wor": 217,
      "fer": 218,
      "ast": 219,
      "ine": 220,
      "act": 221,
      "si": 222,
      "who": 223,
      "ould": 224,
      "mar": 225,
      "cre": 226,
      "land": 227,
      "fic": 228,
      "first": 229,
      "ved": 230,
      "bl": 231,
      "tim": 232,
      "age": 233,
      "gu": 234,
      "do": 235,
      "play": 236,
      "ho": 237,
      "pres": 238,
      "form": 239,
      "port": 240,
      "comm": 241,
      "ll": 242,
      "ign": 243,
      "able": 244,
      "they": 245,
      "ser": 246,
      "od": 247,
      "ans": 248,
      "pre": 249,
      "ition": 250,
      "new": 251,
      "cont": 252,
      "200": 253,
      "ut": 254,
      "fin": 255,
      "ree": 256,
      "ous": 257,
      "tur": 258,
      "other": 259,
      "pos": 260,
      "ical": 261,
      "red": 262,
      "20": 263,
      "um": 264,
      "ud": 265,
      "att": 266,
      "ure": 267,
      "dis": 268,
      "ased": 269,
      "pt": 270,
      "nor": 271,
      "ia": 272,
      "she": 273,
      "two": 274,
      "gr": 275,
      "been": 276,
      "ma": 277,
      "him": 278,
      "wn": 279,
      "min": 280,
      "ance": 281,
      "ton": 282,
      "ev": 283,
      "has": 284,
      "this": 285,
      "ty": 286,
      "pr": 287,
      "ough": 288,
      "rec": 289,
      "rou": 290,
      "ater": 291,
      "ence": 292,
      "way": 293,
      "air": 294,
      "ction": 295,
      "used": 296,
      "ian": 297,
      "iv": 298,
      "ade": 299,
      "des": 300,
      "ite": 301,
      "we": 302,
      "ace": 303,
      "fi": 304,
      "18": 305,
      "own": 306,
      "ced": 307,
      "art": 308,
      "after": 309,
      "also": 310,
      "turn": 311,
      "work": 312,
      "sp": 313,
      "spe": 314,
      "gro": 315,
      "int": 316,
      "ship": 317,
      "part": 318,
      "ck": 319,
      "vis": 320,
      "ited": 321,
      "mon": 322,
      "nu": 323,
      "over": 324,
      "et": 325,
      "gan": 326,
      "cr": 327,
      "ok": 328,
      "ue": 329,
      "ile": 330,
      "fl": 331,
      "oc": 332,
      "sou": 333,
      "comp": 334,
      "cent": 335,
      "more": 336,
      "them": 337,
      "tem": 338,
      "would": 339,
      "sa": 340,
      "son": 341,
      "can": 342,
      "old": 343,
      "incl": 344,
      "ren": 345,
      "ations": 346,
      "201": 347,
      "inter": 348,
      "jo": 349,
      "ial": 350,
      "ta": 351,
      "time": 352,
      "due": 353,
      "reg": 354,
      "main": 355,
      "sion": 356,
      "ft": 357,
      "when": 358,
      "ang": 359,
      "rough": 360,
      "cted": 361,
      "fore": 362,
      "some": 363,
      "je": 364,
      "year": 365,
      "sing": 366,
      "only": 367,
      "ild": 368,
      "sc": 369,
      "ten": 370,
      "ces": 371,
      "led": 372,
      "may": 373,
      "ase": 374,
      "ju": 375,
      "cess": 376,
      "iz": 377,
      "most": 378,
      "fr": 379,
      "ice": 380,
      "char": 381,
      "ph": 382,
      "eng": 383,
      "unt": 384,
      "uring": 385,
      "though": 386,
      "song": 387,
      "la": 388,
      "pu": 389,
      "ward": 390,
      "fil": 391,
      "tory": 392,
      "bec": 393,
      "car": 394,
      "day": 395,
      "lar": 396,
      "ot": 397,
      "ca": 398,
      "while": 399,
      "ason": 400,
      "any": 401,
      "where": 402,
      "number": 403,
      "ef": 404,
      "contin": 405,
      "rele": 406,
      "ered": 407,
      "rel": 408,
      "into": 409,
      "record": 410,
      "back": 411,
      "gen": 412,
      "ble": 413,
      "appe": 414,
      "ings": 415,
      "med": 416,
      "my": 417,
      "les": 418,
      "col": 419,
      "fa": 420,
      "ates": 421,
      "wr": 422,
      "includ": 423,
      "war": 424,
      "ep": 425,
      "high": 426,
      "under": 427,
      "return": 428,
      "bum": 429,
      "ions": 430,
      "use": 431,
      "album": 432,
      "publ": 433,
      "game": 434,
      "sy": 435,
      "sup": 436,
      "sub": 437,
      "arch": 438,
      "north": 439,
      "stru": 440,
      "being": 441,
      "sel": 442,
      "tri": 443,
      "als": 444,
      "amp": 445,
      "lead": 446,
      "cons": 447,
      "log": 448,
      "three": 449,
      "then": 450,
      "cond": 451,
      "ss": 452,
      "dec": 453,
      "ves": 454,
      "again": 455,
      "off": 456,
      "ind": 457,
      "ful": 458,
      "about": 459,
      "loc": 460,
      "than": 461,
      "sch": 462,
      "during": 463,
      "film": 464,
      "coun": 465,
      "mis": 466,
      "lish": 467,
      "ell": 468,
      "ican": 469,
      "reat": 470,
      "add": 471,
      "om": 472,
      "ens": 473,
      "made": 474,
      "ick": 475,
      "through": 476,
      "four": 477,
      "before": 478,
      "appear": 479,
      "attem": 480,
      "ily": 481,
      "city": 482,
      "sur": 483,
      "ities": 484,
      "allow": 485,
      "season": 486,
      "ger": 487,
      "ular": 488,
      "ire": 489,
      "south": 490,
      "trans": 491,
      "based": 492,
      "ever": 493,
      "uary": 494,
      "produ": 495,
      "kno": 496,
      "began": 497,
      "if": 498,
      "clo": 499,
      "set": 500,
      "ped": 501,
      "ments": 502,
      "ste": 503,
      "long": 504,
      "ters": 505,
      "try": 506,
      "later": 507,
      "199": 508,
      "ie": 509,
      "come": 510,
      "down": 511,
      "second": 512,
      "een": 513,
      "10": 514,
      "fol": 515,
      "king": 516,
      "mus": 517,
      "sim": 518,
      "west": 519,
      "mi": 520,
      "ents": 521,
      "brit": 522,
      "refer": 523,
      "lit": 524,
      "ating": 525,
      "mor": 526,
      "bro": 527,
      "tern": 528,
      "there": 529,
      "nation": 530,
      "call": 531,
      "gust": 532,
      "team": 533,
      "ond": 534,
      "dif": 535,
      "ning": 536,
      "like": 537,
      "cap": 538,
      "ele": 539,
      "000": 540,
      "how": 541,
      "such": 542,
      "ath": 543,
      "ult": 544,
      "ise": 545,
      "sto": 546,
      "bar": 547,
      "many": 548,
      "make": 549,
      "dep": 550,
      "tro": 551,
      "ose": 552,
      "offic": 553,
      "ided": 554,
      "ry": 555,
      "ames": 556,
      "der": 557,
      "united": 558,
      "cur": 559,
      "continu": 560,
      "urch": 561,
      "found": 562,
      "cor": 563,
      "ob": 564,
      "amer": 565,
      "follow": 566,
      "august": 567,
      "show": 568,
      "oper": 569,
      "god": 570,
      "star": 571,
      "ause": 572,
      "mal": 573,
      "nove": 574,
      "15": 575,
      "igned": 576,
      "well": 577,
      "hel": 578,
      "chr": 579,
      "vie": 580,
      "ide": 581,
      "ven": 582,
      "une": 583,
      "writ": 584,
      "both": 585,
      "tain": 586,
      "ual": 587,
      "cer": 588,
      "sep": 589,
      "state": 590,
      "line": 591,
      "betw": 592,
      "tember": 593,
      "september": 594,
      "between": 595,
      "present": 596,
      "sever": 597,
      "vers": 598,
      "order": 599,
      "self": 600,
      "ek": 601,
      "inv": 602,
      "win": 603,
      "vision": 604,
      "pop": 605,
      "wer": 606,
      "atch": 607,
      "ank": 608,
      "na": 609,
      "take": 610,
      "leg": 611,
      "pri": 612,
      "ork": 613,
      "tal": 614,
      "side": 615,
      "ject": 616,
      "national": 617,
      "acc": 618,
      "released": 619,
      "ics": 620,
      "open": 621,
      "ople": 622,
      "ms": 623,
      "jan": 624,
      "ious": 625,
      "run": 626,
      "gener": 627,
      "people": 628,
      "head": 629,
      "public": 630,
      "consid": 631,
      "pass": 632,
      "plan": 633,
      "town": 634,
      "ving": 635,
      "velo": 636,
      "soci": 637,
      "mu": 638,
      "ended": 639,
      "british": 640,
      "ting": 641,
      "batt": 642,
      "val": 643,
      "vic": 644,
      "against": 645,
      "develo": 646,
      "eld": 647,
      "indi": 648,
      "16": 649,
      "world": 650,
      "including": 651,
      "feat": 652,
      "ref": 653,
      "ins": 654,
      "requ": 655,
      "ative": 656,
      "series": 657,
      "dy": 658,
      "will": 659,
      "place": 660,
      "30": 661,
      "ird": 662,
      "gover": 663,
      "attack": 664,
      "cour": 665,
      "moved": 666,
      "orig": 667,
      "these": 668,
      "music": 669,
      "remain": 670,
      "could": 671,
      "12": 672,
      "ury": 673,
      "ii": 674,
      "view": 675,
      "several": 676,
      "ident": 677,
      "june": 678,
      "cover": 679,
      "build": 680,
      "position": 681,
      "origin": 682,
      "church": 683,
      "giv": 684,
      "ross": 685,
      "home": 686,
      "sent": 687,
      "vide": 688,
      "ball": 689,
      "olog": 690,
      "known": 691,
      "mer": 692,
      "get": 693,
      "states": 694,
      "fam": 695,
      "nam": 696,
      "resp": 697,
      "17": 698,
      "what": 699,
      "var": 700,
      "suc": 701,
      "aking": 702,
      "tion": 703,
      "early": 704,
      "because": 705,
      "large": 706,
      "ub": 707,
      "comple": 708,
      "you": 709,
      "ange": 710,
      "uni": 711,
      "dra": 712,
      "cus": 713,
      "ied": 714,
      "ired": 715,
      "said": 716,
      "stand": 717,
      "november": 718,
      "move": 719,
      "roy": 720,
      "continued": 721,
      "march": 722,
      "dr": 723,
      "apr": 724,
      "group": 725,
      "bre": 726,
      "wo": 727,
      "ha": 728,
      "ines": 729,
      "tober": 730,
      "ility": 731,
      "october": 732,
      "cy": 733,
      "ished": 734,
      "care": 735,
      "command": 736,
      "sm": 737,
      "wan": 738,
      "spec": 739,
      "cri": 740,
      "ked": 741,
      "peri": 742,
      "july": 743,
      "became": 744,
      "ilar": 745,
      "top": 746,
      "although": 747,
      "near": 748,
      "sul": 749,
      "ital": 750,
      "ually": 751,
      "194": 752,
      "charac": 753,
      "incre": 754,
      "ress": 755,
      "similar": 756,
      "hu": 757,
      "whe": 758,
      "just": 759,
      "cept": 760,
      "mil": 761,
      "ned": 762,
      "road": 763,
      "scho": 764,
      "adv": 765,
      "school": 766,
      "cle": 767,
      "ung": 768,
      "row": 769,
      "field": 770,
      "cra": 771,
      "reach": 772,
      "ific": 773,
      "january": 774,
      "track": 775,
      "198": 776,
      "island": 777,
      "each": 778,
      "tle": 779,
      "hn": 780,
      "support": 781,
      "ground": 782,
      "sign": 783,
      "io": 784,
      "ures": 785,
      "accord": 786,
      "aim": 787,
      "lan": 788,
      "child": 789,
      "years": 790,
      "success": 791,
      "25": 792,
      "christ": 793,
      "light": 794,
      "leag": 795,
      "sen": 796,
      "class": 797,
      "attempt": 798,
      "fail": 799,
      "let": 800,
      "eu": 801,
      "fac": 802,
      "april": 803,
      "aged": 804,
      "camp": 805,
      "those": 806,
      "along": 807,
      "according": 808,
      "dam": 809,
      "hal": 810,
      "sco": 811,
      "york": 812,
      "board": 813,
      "gg": 814,
      "ode": 815,
      "govern": 816,
      "men": 817,
      "contro": 818,
      "posed": 819,
      "beg": 820,
      "appro": 821,
      "cial": 822,
      "ae": 823,
      "left": 824,
      "lie": 825,
      "crit": 826,
      "pen": 827,
      "times": 828,
      "six": 829,
      "tors": 830,
      "returned": 831,
      "east": 832,
      "dire": 833,
      "john": 834,
      "ple": 835,
      "fur": 836,
      "dece": 837,
      "vo": 838,
      "read": 839,
      "itu": 840,
      "until": 841,
      "ists": 842,
      "14": 843,
      "name": 844,
      "ised": 845,
      "fect": 846,
      "stor": 847,
      "bed": 848,
      "descri": 849,
      "did": 850,
      "sed": 851,
      "ince": 852,
      "small": 853,
      "member": 854,
      "hou": 855,
      "area": 856,
      "ported": 857,
      "def": 858,
      "now": 859,
      "december": 860,
      "band": 861,
      "eas": 862,
      "ys": 863,
      "stem": 864,
      "bur": 865,
      "great": 866,
      "five": 867,
      "see": 868,
      "site": 869,
      "another": 870,
      "right": 871,
      "final": 872,
      "called": 873,
      "ham": 874,
      "person": 875,
      "mill": 876,
      "went": 877,
      "same": 878,
      "book": 879,
      "government": 880,
      "river": 881,
      "thern": 882,
      "plo": 883,
      "formed": 884,
      "tribu": 885,
      "decided": 886,
      "13": 887,
      "hand": 888,
      "mas": 889,
      "american": 890,
      "rece": 891,
      "best": 892,
      "came": 893,
      "league": 894,
      "tour": 895,
      "ablish": 896,
      "196": 897,
      "establish": 898,
      "pical": 899,
      "become": 900,
      "ized": 901,
      "life": 902,
      "week": 903,
      "force": 904,
      "aving": 905,
      "ships": 906,
      "cas": 907,
      "considered": 908,
      "xt": 909,
      "less": 910,
      "gre": 911,
      "vent": 912,
      "fle": 913,
      "partic": 914,
      "ali": 915,
      "award": 916,
      "bill": 917,
      "ica": 918,
      "differ": 919,
      "thing": 920,
      "even": 921,
      "ined": 922,
      "ending": 923,
      "put": 924,
      "power": 925,
      "find": 926,
      "organ": 927,
      "bor": 928,
      "lim": 929,
      "ext": 930,
      "ort": 931,
      "ict": 932,
      "single": 933,
      "attemp": 934,
      "list": 935,
      "commun": 936,
      "gy": 937,
      "water": 938,
      "german": 939,
      "50": 940,
      "thor": 941,
      "real": 942,
      "rock": 943,
      "plac": 944,
      "ls": 945,
      "develop": 946,
      "aro": 947,
      "euro": 948,
      "using": 949,
      "az": 950,
      "hor": 951,
      "11": 952,
      "ently": 953,
      "storm": 954,
      "third": 955,
      "system": 956,
      "addition": 957,
      "family": 958,
      "cut": 959,
      "jor": 960,
      "much": 961,
      "fall": 962,
      "night": 963,
      "issu": 964,
      "claim": 965,
      "company": 966,
      "sol": 967,
      "contr": 968,
      "house": 969,
      "serv": 970,
      "black": 971,
      "yo": 972,
      "constru": 973,
      "player": 974,
      "stu": 975,
      "major": 976,
      "austr": 977,
      "wanted": 978,
      "ico": 979,
      "ley": 980,
      "compar": 981,
      "gun": 982,
      "poin": 983,
      "following": 984,
      "mid": 985,
      "around": 986,
      "ze": 987,
      "club": 988,
      "bas": 989,
      "possi": 990,
      "ner": 991,
      "ism": 992,
      "point": 993,
      "tropical": 994,
      "ont": 995,
      "very": 996,
      "author": 997,
      "character": 998,
      "close": 999,
      "need": 1000,
      "colle": 1001,
      "epis": 1002,
      "human": 1003,
      "cup": 1004,
      "ons": 1005,
      "given": 1006,
      "univers": 1007,
      "chang": 1008,
      "archae": 1009,
      "help": 1010,
      "kill": 1011,
      "late": 1012,
      "tit": 1013,
      "prote": 1014,
      "games": 1015,
      "sw": 1016,
      "itch": 1017,
      "route": 1018,
      "mb": 1019,
      "centr": 1020,
      "ilt": 1021,
      "promo": 1022,
      "stud": 1023,
      "forced": 1024,
      "took": 1025,
      "archaeolog": 1026,
      "cul": 1027,
      "chart": 1028,
      "live": 1029,
      "rest": 1030,
      "ately": 1031,
      "wal": 1032,
      "aken": 1033,
      "ga": 1034,
      "white": 1035,
      "tru": 1036,
      "rican": 1037,
      "dest": 1038,
      "fort": 1039,
      "ris": 1040,
      "sho": 1041,
      "vious": 1042,
      "hy": 1043,
      "cu": 1044,
      "vil": 1045,
      "ights": 1046,
      "sure": 1047,
      "search": 1048,
      "ages": 1049,
      "ature": 1050,
      "pect": 1051,
      "action": 1052,
      "ib": 1053,
      "half": 1054,
      "austral": 1055,
      "ences": 1056,
      "ba": 1057,
      "hold": 1058,
      "little": 1059,
      "last": 1060,
      "197": 1061,
      "ony": 1062,
      "tele": 1063,
      "post": 1064,
      "met": 1065,
      "million": 1066,
      "europe": 1067,
      "gal": 1068,
      "mark": 1069,
      "ash": 1070,
      "event": 1071,
      "28": 1072,
      "193": 1073,
      "pol": 1074,
      "ni": 1075,
      "going": 1076,
      "century": 1077,
      "pat": 1078,
      "indu": 1079,
      "resul": 1080,
      "ail": 1081,
      "wheel": 1082,
      "jord": 1083,
      "represent": 1084,
      "still": 1085,
      "project": 1086,
      "febr": 1087,
      "dom": 1088,
      "february": 1089,
      "ends": 1090,
      "however": 1091,
      "trave": 1092,
      "leading": 1093,
      "craft": 1094,
      "gl": 1095,
      "say": 1096,
      "infl": 1097,
      "built": 1098,
      "app": 1099,
      "ived": 1100,
      "yard": 1101,
      "named": 1102,
      "cast": 1103,
      "hur": 1104,
      "jordan": 1105,
      "free": 1106,
      "den": 1107,
      "since": 1108,
      "included": 1109,
      "match": 1110,
      "conne": 1111,
      "division": 1112,
      "ially": 1113,
      "respon": 1114,
      "har": 1115,
      "referred": 1116,
      "23": 1117,
      "effect": 1118,
      "21": 1119,
      "often": 1120,
      "stri": 1121,
      "far": 1122,
      "studi": 1123,
      "bus": 1124,
      "inst": 1125,
      "held": 1126,
      "songs": 1127,
      "male": 1128,
      "species": 1129,
      "27": 1130,
      "away": 1131,
      "ret": 1132,
      "import": 1133,
      "previous": 1134,
      "video": 1135,
      "prov": 1136,
      "army": 1137,
      "lin": 1138,
      "pal": 1139,
      "offer": 1140,
      "heav": 1141,
      "tech": 1142,
      "scor": 1143,
      "100": 1144,
      "24": 1145,
      "start": 1146,
      "within": 1147,
      "general": 1148,
      "flo": 1149,
      "pa": 1150,
      "ides": 1151,
      "different": 1152,
      "ability": 1153,
      "short": 1154,
      "arn": 1155,
      "grap": 1156,
      "wes": 1157,
      "round": 1158,
      "polit": 1159,
      "give": 1160,
      "face": 1161,
      "month": 1162,
      "ional": 1163,
      "next": 1164,
      "fied": 1165,
      "law": 1166,
      "wheeler": 1167,
      "blo": 1168,
      "leve": 1169,
      "too": 1170,
      "trad": 1171,
      "body": 1172,
      "played": 1173,
      "ness": 1174,
      "draw": 1175,
      "ither": 1176,
      "unable": 1177,
      "prof": 1178,
      "fri": 1179,
      "tori": 1180,
      "himself": 1181,
      "22": 1182,
      "belie": 1183,
      "death": 1184,
      "story": 1185,
      "cho": 1186,
      "ina": 1187,
      "sound": 1188,
      "original": 1189,
      "mag": 1190,
      "foot": 1191,
      "history": 1192,
      "should": 1193,
      "milit": 1194,
      "nav": 1195,
      "western": 1196,
      "every": 1197,
      "ket": 1198,
      "allowed": 1199,
      "liam": 1200,
      "atter": 1201,
      "squ": 1202,
      "ches": 1203,
      "agre": 1204,
      "2009": 1205,
      "prior": 1206,
      "local": 1207,
      "pur": 1208,
      "design": 1209,
      "wood": 1210,
      "further": 1211,
      "ulation": 1212,
      "located": 1213,
      "having": 1214,
      "sis": 1215,
      "wro": 1216,
      "sequ": 1217,
      "redu": 1218,
      "prim": 1219,
      "2010": 1220,
      "wrote": 1221,
      "fel": 1222,
      "lond": 1223,
      "que": 1224,
      "london": 1225,
      "dist": 1226,
      "ru": 1227,
      "associ": 1228,
      "ained": 1229,
      "direct": 1230,
      "ically": 1231,
      "former": 1232,
      "children": 1233,
      "episode": 1234,
      "ors": 1235,
      "fire": 1236,
      "roman": 1237,
      "diffic": 1238,
      "cing": 1239,
      "sk": 1240,
      "love": 1241,
      "brig": 1242,
      "building": 1243,
      "university": 1244,
      "gn": 1245,
      "release": 1246,
      "gold": 1247,
      "decl": 1248,
      "forces": 1249,
      "lay": 1250,
      "enough": 1251,
      "ark": 1252,
      "create": 1253,
      "transfer": 1254,
      "init": 1255,
      "bal": 1256,
      "rench": 1257,
      "date": 1258,
      "pression": 1259,
      "stead": 1260,
      "lost": 1261,
      "compe": 1262,
      "good": 1263,
      "gram": 1264,
      "canad": 1265,
      "29": 1266,
      "seem": 1267,
      "military": 1268,
      "sci": 1269,
      "minis": 1270,
      "quar": 1271,
      "2008": 1272,
      "vol": 1273,
      "coming": 1274,
      "os": 1275,
      "wa": 1276,
      "begin": 1277,
      "km": 1278,
      "aining": 1279,
      "tell": 1280,
      "idge": 1281,
      "da": 1282,
      "strong": 1283,
      "failed": 1284,
      "pot": 1285,
      "26": 1286,
      "equ": 1287,
      "sex": 1288,
      "england": 1289,
      "clear": 1290,
      "mit": 1291,
      "particular": 1292,
      "press": 1293,
      "rad": 1294,
      "seven": 1295,
      "thought": 1296,
      "period": 1297,
      "sal": 1298,
      "ats": 1299,
      "195": 1300,
      "placed": 1301,
      "look": 1302,
      "hurrican": 1303,
      "battle": 1304,
      "wil": 1305,
      "mother": 1306,
      "intro": 1307,
      "gods": 1308,
      "review": 1309,
      "akes": 1310,
      "ctions": 1311,
      "members": 1312,
      "ling": 1313,
      "tributed": 1314,
      "without": 1315,
      "fed": 1316,
      "players": 1317,
      "mission": 1318,
      "ude": 1319,
      "vill": 1320,
      "ford": 1321,
      "front": 1322,
      "commit": 1323,
      "influ": 1324,
      "fly": 1325,
      "aircraft": 1326,
      "described": 1327,
      "french": 1328,
      "introdu": 1329,
      "send": 1330,
      "reported": 1331,
      "popular": 1332,
      "eastern": 1333,
      "ports": 1334,
      "activ": 1335,
      "enter": 1336,
      "ks": 1337,
      "rought": 1338,
      "station": 1339,
      "received": 1340,
      "hurricane": 1341,
      "either": 1342,
      "grad": 1343,
      "ute": 1344,
      "seen": 1345,
      "control": 1346,
      "polish": 1347,
      "ny": 1348,
      "ordered": 1349,
      "key": 1350,
      "ns": 1351,
      "unch": 1352,
      "version": 1353,
      "sugg": 1354,
      "goal": 1355,
      "decis": 1356,
      "career": 1357,
      "young": 1358,
      "isted": 1359,
      "sty": 1360,
      "days": 1361,
      "instead": 1362,
      "coast": 1363,
      "sum": 1364,
      "ively": 1365,
      "cav": 1366,
      "wind": 1367,
      "television": 1368,
      "ains": 1369,
      "sea": 1370,
      "break": 1371,
      "change": 1372,
      "2007": 1373,
      "cro": 1374,
      "icated": 1375,
      "uk": 1376,
      "meet": 1377,
      "exp": 1378,
      "broad": 1379,
      "making": 1380,
      "ize": 1381,
      "ged": 1382,
      "veston": 1383,
      "country": 1384,
      "omen": 1385,
      "fleet": 1386,
      "tre": 1387,
      "compared": 1388,
      "galveston": 1389,
      "egy": 1390,
      "wish": 1391,
      "brought": 1392,
      "medi": 1393,
      "billboard": 1394,
      "ler": 1395,
      "ring": 1396,
      "arri": 1397,
      "lect": 1398,
      "comb": 1399,
      "suf": 1400,
      "provide": 1401,
      "destroy": 1402,
      "successful": 1403,
      "feder": 1404,
      "role": 1405,
      "impro": 1406,
      "ution": 1407,
      "itar": 1408,
      "fight": 1409,
      "complete": 1410,
      "han": 1411,
      "range": 1412,
      "anno": 1413,
      "atur": 1414,
      "stree": 1415,
      "div": 1416,
      "got": 1417,
      "2006": 1418,
      "vir": 1419,
      "related": 1420,
      "prevent": 1421,
      "invol": 1422,
      "grow": 1423,
      "published": 1424,
      "chan": 1425,
      "eight": 1426,
      "continue": 1427,
      "inc": 1428,
      "earth": 1429,
      "bab": 1430,
      "kel": 1431,
      "bring": 1432,
      "ways": 1433,
      "central": 1434,
      "want": 1435,
      "concer": 1436,
      "cru": 1437,
      "various": 1438,
      "access": 1439,
      "tra": 1440,
      "include": 1441,
      "approach": 1442,
      "formation": 1443,
      "possible": 1444,
      "egypt": 1445,
      "ster": 1446,
      "speci": 1447,
      "ush": 1448,
      "difficult": 1449,
      "tar": 1450,
      "women": 1451,
      "40": 1452,
      "direc": 1453,
      "intended": 1454,
      "court": 1455,
      "don": 1456,
      "hill": 1457,
      "bel": 1458,
      "teen": 1459,
      "forman": 1460,
      "added": 1461,
      "gar": 1462,
      "ran": 1463,
      "full": 1464,
      "written": 1465,
      "important": 1466,
      "believed": 1467,
      "test": 1468,
      "performan": 1469,
      "designed": 1470,
      "battal": 1471,
      "focus": 1472,
      "announ": 1473,
      "gave": 1474,
      "ests": 1475,
      "teach": 1476,
      "southern": 1477,
      "idence": 1478,
      "common": 1479,
      "attempted": 1480,
      "cil": 1481,
      "champ": 1482,
      "dol": 1483,
      "recorded": 1484,
      "brigade": 1485,
      "marri": 1486,
      "2011": 1487,
      "scen": 1488,
      "royal": 1489,
      "signific": 1490,
      "base": 1491,
      "president": 1492,
      "lled": 1493,
      "father": 1494,
      "official": 1495,
      "edu": 1496,
      "assigned": 1497,
      "operations": 1498,
      "cou": 1499,
      "sit": 1500,
      "augh": 1501,
      "phil": 1502,
      "depend": 1503,
      "bir": 1504,
      "won": 1505,
      "outs": 1506,
      "level": 1507,
      "cross": 1508,
      "hol": 1509,
      "ison": 1510,
      "relation": 1511,
      "histor": 1512,
      "lls": 1513,
      "2012": 1514,
      "mad": 1515,
      "hard": 1516,
      "ians": 1517,
      "atic": 1518,
      "stated": 1519,
      "established": 1520,
      "ission": 1521,
      "loss": 1522,
      "program": 1523,
      "relig": 1524,
      "ai": 1525,
      "dri": 1526,
      "keep": 1527,
      "international": 1528,
      "production": 1529,
      "cir": 1530,
      "ded": 1531,
      "hour": 1532,
      "pay": 1533,
      "mount": 1534,
      "dou": 1535,
      "fig": 1536,
      "rich": 1537,
      "population": 1538,
      "ron": 1539,
      "once": 1540,
      "tex": 1541,
      "park": 1542,
      "tail": 1543,
      "appeared": 1544,
      "required": 1545,
      "ben": 1546,
      "2013": 1547,
      "stop": 1548,
      "vid": 1549,
      "anti": 1550,
      "construction": 1551,
      "mp": 1552,
      "development": 1553,
      "agreed": 1554,
      "caused": 1555,
      "fund": 1556,
      "allowing": 1557,
      "ention": 1558,
      "mix": 1559,
      "service": 1560,
      "fun": 1561,
      "never": 1562,
      "expl": 1563,
      "stein": 1564,
      "christmas": 1565,
      "ban": 1566,
      "van": 1567,
      "served": 1568,
      "profess": 1569,
      "dro": 1570,
      "gir": 1571,
      "wall": 1572,
      "terri": 1573,
      "working": 1574,
      "wards": 1575,
      "taken": 1576,
      "guitar": 1577,
      "reli": 1578,
      "ale": 1579,
      "least": 1580,
      "sec": 1581,
      "join": 1582,
      "street": 1583,
      "0s": 1584,
      "ith": 1585,
      "moder": 1586,
      "ney": 1587,
      "nes": 1588,
      "ime": 1589,
      "pected": 1590,
      "mc": 1591,
      "nd": 1592,
      "nar": 1593,
      "stat": 1594,
      "che": 1595,
      "comment": 1596,
      "ops": 1597,
      "hind": 1598,
      "commer": 1599,
      "special": 1600,
      "sem": 1601,
      "vert": 1602,
      "rael": 1603,
      "commission": 1604,
      "viet": 1605,
      "emp": 1606,
      "started": 1607,
      "israel": 1608,
      "among": 1609,
      "memor": 1610,
      "ston": 1611,
      "term": 1612,
      "aint": 1613,
      "launch": 1614,
      "kingdom": 1615,
      "individ": 1616,
      "significant": 1617,
      "threat": 1618,
      "crew": 1619,
      "northern": 1620,
      "throughout": 1621,
      "know": 1622,
      "originally": 1623,
      "pair": 1624,
      "occur": 1625,
      "decision": 1626,
      "cal": 1627,
      "ium": 1628,
      "iting": 1629,
      "asked": 1630,
      "ured": 1631,
      "itions": 1632,
      "reached": 1633,
      "political": 1634,
      "dollar": 1635,
      "research": 1636,
      "loy": 1637,
      "english": 1638,
      "tribut": 1639,
      "gress": 1640,
      "muse": 1641,
      "oid": 1642,
      "produced": 1643,
      "respond": 1644,
      "limited": 1645,
      "museum": 1646,
      "pho": 1647,
      "rang": 1648,
      "iness": 1649,
      "bay": 1650,
      "reco": 1651,
      "ested": 1652,
      "few": 1653,
      "struct": 1654,
      "ago": 1655,
      "liver": 1656,
      "others": 1657,
      "ges": 1658,
      "australia": 1659,
      "across": 1660,
      "deal": 1661,
      "via": 1662,
      "pitch": 1663,
      "asing": 1664,
      "ory": 1665,
      "critic": 1666,
      "director": 1667,
      "iment": 1668,
      "abor": 1669,
      "civil": 1670,
      "bird": 1671,
      "word": 1672,
      "perform": 1673,
      "aren": 1674,
      "assist": 1675,
      "lling": 1676,
      "ensive": 1677,
      "graph": 1678,
      "stage": 1679,
      "discover": 1680,
      "regard": 1681,
      "points": 1682,
      "style": 1683,
      "sarn": 1684,
      "aff": 1685,
      "blue": 1686,
      "saur": 1687,
      "campa": 1688,
      "sarnia": 1689,
      "reve": 1690,
      "union": 1691,
      "recogn": 1692,
      "mic": 1693,
      "ought": 1694,
      "monu": 1695,
      "response": 1696,
      "specific": 1697,
      "theast": 1698,
      "ceed": 1699,
      "performed": 1700,
      "experi": 1701,
      "worked": 1702,
      "jour": 1703,
      "count": 1704,
      "wide": 1705,
      "champion": 1706,
      "avail": 1707,
      "emy": 1708,
      "center": 1709,
      "leave": 1710,
      "abo": 1711,
      "desp": 1712,
      "ready": 1713,
      "mater": 1714,
      "ify": 1715,
      "eventually": 1716,
      "bra": 1717,
      "ken": 1718,
      "scre": 1719,
      "non": 1720,
      "treat": 1721,
      "xim": 1722,
      "total": 1723,
      "ink": 1724,
      "ential": 1725,
      "super": 1726,
      "iva": 1727,
      "announced": 1728,
      "does": 1729,
      "grand": 1730,
      "bc": 1731,
      "ps": 1732,
      "ues": 1733,
      "pose": 1734,
      "appearance": 1735,
      "felt": 1736,
      "ances": 1737,
      "ese": 1738,
      "hot": 1739,
      "hon": 1740,
      "county": 1741,
      "tradition": 1742,
      "squad": 1743,
      "fav": 1744,
      "hop": 1745,
      "mand": 1746,
      "hero": 1747,
      "cret": 1748,
      "logy": 1749,
      "fourth": 1750,
      "room": 1751,
      "tee": 1752,
      "opened": 1753,
      "developed": 1754,
      "refused": 1755,
      "ality": 1756,
      "female": 1757,
      "lower": 1758,
      "finkel": 1759,
      "fif": 1760,
      "finkelstein": 1761,
      "ply": 1762,
      "signed": 1763,
      "regular": 1764,
      "campaign": 1765,
      "ones": 1766,
      "townsend": 1767,
      "ified": 1768,
      "jap": 1769,
      "entire": 1770,
      "scored": 1771,
      "football": 1772,
      "japan": 1773,
      "rul": 1774,
      "bet": 1775,
      "acad": 1776,
      "ager": 1777,
      "peak": 1778,
      "190": 1779,
      "feel": 1780,
      "contract": 1781,
      "transferred": 1782,
      "battalion": 1783,
      "james": 1784,
      "tic": 1785,
      "ples": 1786,
      "twork": 1787,
      "186": 1788,
      "council": 1789,
      "born": 1790,
      "ero": 1791,
      "ives": 1792,
      "writing": 1793,
      "community": 1794,
      "pred": 1795,
      "earli": 1796,
      "transport": 1797,
      "stone": 1798,
      "police": 1799,
      "taking": 1800,
      "stren": 1801,
      "belong": 1802,
      "ama": 1803,
      "depression": 1804,
      "tried": 1805,
      "likely": 1806,
      "attempts": 1807,
      "pointed": 1808,
      "streng": 1809,
      "fact": 1810,
      "ient": 1811,
      "vin": 1812,
      "const": 1813,
      "emplo": 1814,
      "tom": 1815,
      "whom": 1816,
      "carri": 1817,
      "bow": 1818,
      "tt": 1819,
      "increased": 1820,
      "score": 1821,
      "jac": 1822,
      "mach": 1823,
      "nh": 1824,
      "ination": 1825,
      "anch": 1826,
      "agree": 1827,
      "study": 1828,
      "enced": 1829,
      "stay": 1830,
      "brown": 1831,
      "cult": 1832,
      "rain": 1833,
      "atl": 1834,
      "behind": 1835,
      "geor": 1836,
      "antic": 1837,
      "host": 1838,
      "rent": 1839,
      "scri": 1840,
      "voc": 1841,
      "ye": 1842,
      "ars": 1843,
      "created": 1844,
      "troops": 1845,
      "despite": 1846,
      "fan": 1847,
      "estim": 1848,
      "expected": 1849,
      "engine": 1850,
      "sl": 1851,
      "highway": 1852,
      "modern": 1853,
      "material": 1854,
      "mone": 1855,
      "tv": 1856,
      "termin": 1857,
      "wife": 1858,
      "aper": 1859,
      "sha": 1860,
      "opport": 1861,
      "opportun": 1862,
      "poor": 1863,
      "nel": 1864,
      "avoid": 1865,
      "safe": 1866,
      "operation": 1867,
      "india": 1868,
      "available": 1869,
      "bes": 1870,
      "ping": 1871,
      "noted": 1872,
      "shiva": 1873,
      "prepar": 1874,
      "ka": 1875,
      "nine": 1876,
      "ties": 1877,
      "ense": 1878,
      "turned": 1879,
      "tempor": 1880,
      "colum": 1881,
      "case": 1882,
      "pie": 1883,
      "exist": 1884,
      "events": 1885,
      "type": 1886,
      "title": 1887,
      "icted": 1888,
      "bridge": 1889,
      "occup": 1890,
      "whether": 1891,
      "thol": 1892,
      "toge": 1893,
      "areas": 1894,
      "region": 1895,
      "cathol": 1896,
      "performance": 1897,
      "together": 1898,
      "mich": 1899,
      "nico": 1900,
      "depart": 1901,
      "standing": 1902,
      "increase": 1903,
      "damage": 1904,
      "protect": 1905,
      "educ": 1906,
      "ible": 1907,
      "rose": 1908,
      "cop": 1909,
      "defeat": 1910,
      "manage": 1911,
      "ards": 1912,
      "antim": 1913,
      "outside": 1914,
      "nicole": 1915,
      "mass": 1916,
      "sess": 1917,
      "inj": 1918,
      "upon": 1919,
      "domin": 1920,
      "america": 1921,
      "changed": 1922,
      "radio": 1923,
      "sil": 1924,
      "ture": 1925,
      "replace": 1926,
      "hit": 1927,
      "appl": 1928,
      "stry": 1929,
      "ival": 1930,
      "indian": 1931,
      "tou": 1932,
      "ery": 1933,
      "playing": 1934,
      "pread": 1935,
      "saw": 1936,
      "consider": 1937,
      "particularly": 1938,
      "ara": 1939,
      "accept": 1940,
      "amb": 1941,
      "shown": 1942,
      "compan": 1943,
      "recording": 1944,
      "31": 1945,
      "coll": 1946,
      "moving": 1947,
      "rail": 1948,
      "reference": 1949,
      "business": 1950,
      "industry": 1951,
      "money": 1952,
      "nal": 1953,
      "instru": 1954,
      "2005": 1955,
      "evidence": 1956,
      "ker": 1957,
      "report": 1958,
      "amo": 1959,
      "fey": 1960,
      "quest": 1961,
      "discus": 1962,
      "itute": 1963,
      "bri": 1964,
      "promis": 1965,
      "remained": 1966,
      "christian": 1967,
      "hip": 1968,
      "hous": 1969,
      "secret": 1970,
      "demo": 1971,
      "uses": 1972,
      "cape": 1973,
      "subst": 1974,
      "subsequ": 1975,
      "schol": 1976,
      "ising": 1977,
      "excav": 1978,
      "strate": 1979,
      "situ": 1980,
      "mex": 1981,
      "mean": 1982,
      "maintain": 1983,
      "european": 1984,
      "lack": 1985,
      "sold": 1986,
      "network": 1987,
      "antimony": 1988,
      "sour": 1989,
      "guns": 1990,
      "changes": 1991,
      "500": 1992,
      "lines": 1993,
      "managed": 1994,
      "subject": 1995,
      "office": 1996,
      "studio": 1997,
      "pi": 1998,
      "tries": 1999,
      "miles": 2000,
      "lu": 2001,
      "imp": 2002,
      "sexual": 2003,
      "gest": 2004,
      "hib": 2005,
      "itive": 2006,
      "lot": 2007,
      "respect": 2008,
      "raised": 2009,
      "willing": 2010,
      "increasing": 2011,
      "ator": 2012,
      "dan": 2013,
      "ety": 2014,
      "rid": 2015,
      "san": 2016,
      "ants": 2017,
      "alth": 2018,
      "stre": 2019,
      "coach": 2020,
      "feet": 2021,
      "serve": 2022,
      "produce": 2023,
      "awards": 2024,
      "navy": 2025,
      "dedicated": 2026,
      "hi": 2027,
      "mes": 2028,
      "nba": 2029,
      "ades": 2030,
      "audi": 2031,
      "britain": 2032,
      "ox": 2033,
      "appointed": 2034,
      "died": 2035,
      "viol": 2036,
      "utes": 2037,
      "write": 2038,
      "opening": 2039,
      "issue": 2040,
      "france": 2041,
      "survi": 2042,
      "completed": 2043,
      "offered": 2044,
      "reveal": 2045,
      "aw": 2046,
      "ared": 2047,
      "compl": 2048,
      "pan": 2049,
      "anim": 2050,
      "arily": 2051,
      "soon": 2052,
      "rather": 2053,
      "achie": 2054,
      "actions": 2055,
      "pract": 2056,
      "occas": 2057,
      "argu": 2058,
      "exe": 2059,
      "typ": 2060,
      "flight": 2061,
      "heavy": 2062,
      "ds": 2063,
      "spo": 2064,
      "meas": 2065,
      "forms": 2066,
      "counter": 2067,
      "fill": 2068,
      "natur": 2069,
      "mode": 2070,
      "afr": 2071,
      "cially": 2072,
      "result": 2073,
      "months": 2074,
      "names": 2075,
      "bey": 2076,
      "plans": 2077,
      "2015": 2078,
      "remains": 2079,
      "promotion": 2080,
      "friend": 2081,
      "ray": 2082,
      "bound": 2083,
      "space": 2084,
      "tend": 2085,
      "onic": 2086,
      "spir": 2087,
      "trying": 2088,
      "novel": 2089,
      "texas": 2090,
      "commercial": 2091,
      "hen": 2092,
      "deities": 2093,
      "conf": 2094,
      "2003": 2095,
      "jewish": 2096,
      "records": 2097,
      "gra": 2098,
      "sip": 2099,
      "kets": 2100,
      "ization": 2101,
      "provided": 2102,
      "introduced": 2103,
      "birth": 2104,
      "aver": 2105,
      "pil": 2106,
      "rap": 2107,
      "almost": 2108,
      "upper": 2109,
      "interest": 2110,
      "capital": 2111,
      "iii": 2112,
      "ff": 2113,
      "reason": 2114,
      "needed": 2115,
      "proble": 2116,
      "advan": 2117,
      "association": 2118,
      "sus": 2119,
      "necess": 2120,
      "attention": 2121,
      "society": 2122,
      "vices": 2123,
      "weeks": 2124,
      "claimed": 2125,
      "australian": 2126,
      "avi": 2127,
      "cause": 2128,
      "flow": 2129,
      "ming": 2130,
      "syn": 2131,
      "characters": 2132,
      "mitted": 2133,
      "william": 2134,
      "above": 2135,
      "econ": 2136,
      "unted": 2137,
      "ram": 2138,
      "acy": 2139,
      "concl": 2140,
      "visit": 2141,
      "planned": 2142,
      "blood": 2143,
      "mm": 2144,
      "towards": 2145,
      "shot": 2146,
      "bert": 2147,
      "party": 2148,
      "web": 2149,
      "sometimes": 2150,
      "screen": 2151,
      "hab": 2152,
      "staff": 2153,
      "finally": 2154,
      "priv": 2155,
      "block": 2156,
      "education": 2157,
      "rights": 2158,
      "mont": 2159,
      "writer": 2160,
      "seems": 2161,
      "touch": 2162,
      "60": 2163,
      "arm": 2164,
      "goals": 2165,
      "quick": 2166,
      "ireland": 2167,
      "helped": 2168,
      "catholic": 2169,
      "tower": 2170,
      "lected": 2171,
      "forward": 2172,
      "condu": 2173,
      "passed": 2174,
      "must": 2175,
      "might": 2176,
      "save": 2177,
      "demon": 2178,
      "tural": 2179,
      "schools": 2180,
      "langu": 2181,
      "possib": 2182,
      "drop": 2183,
      "fit": 2184,
      "len": 2185,
      "aust": 2186,
      "parts": 2187,
      "certain": 2188,
      "greater": 2189,
      "employ": 2190,
      "rank": 2191,
      "step": 2192,
      "usion": 2193,
      "albums": 2194,
      "70": 2195,
      "training": 2196,
      "aves": 2197,
      "selves": 2198,
      "closed": 2199,
      "tribute": 2200,
      "90": 2201,
      "jack": 2202,
      "ata": 2203,
      "meant": 2204,
      "carry": 2205,
      "films": 2206,
      "professional": 2207,
      "bs": 2208,
      "mur": 2209,
      "watch": 2210,
      "imin": 2211,
      "parliam": 2212,
      "works": 2213,
      "religious": 2214,
      "estimated": 2215,
      "bid": 2216,
      "gain": 2217,
      "pound": 2218,
      "lands": 2219,
      "woman": 2220,
      "saurus": 2221,
      "dav": 2222,
      "itor": 2223,
      "slow": 2224,
      "independ": 2225,
      "debut": 2226,
      "themselves": 2227,
      "phys": 2228,
      "canadian": 2229,
      "things": 2230,
      "encour": 2231,
      "advis": 2232,
      "ilities": 2233,
      "social": 2234,
      "reduced": 2235,
      "relationship": 2236,
      "80": 2237,
      "ael": 2238,
      "thus": 2239,
      "raid": 2240,
      "bank": 2241,
      "cred": 2242,
      "dre": 2243,
      "iter": 2244,
      "premi": 2245,
      "elements": 2246,
      "michael": 2247,
      "ior": 2248,
      "mac": 2249,
      "xon": 2250,
      "orders": 2251,
      "location": 2252,
      "officers": 2253,
      "object": 2254,
      "giving": 2255,
      "midd": 2256,
      "mexico": 2257,
      "forts": 2258,
      "twent": 2259,
      "services": 2260,
      "appears": 2261,
      "carey": 2262,
      "responsi": 2263,
      "scene": 2264,
      "emphas": 2265,
      "africa": 2266,
      "cate": 2267,
      "lord": 2268,
      "nature": 2269,
      "rus": 2270,
      "wing": 2271,
      "section": 2272,
      "dead": 2273,
      "size": 2274,
      "finish": 2275,
      "jected": 2276,
      "media": 2277,
      "invest": 2278,
      "additional": 2279,
      "saying": 2280,
      "flood": 2281,
      "natural": 2282,
      "annu": 2283,
      "chi": 2284,
      "chel": 2285,
      "beli": 2286,
      "becoming": 2287,
      "returning": 2288,
      "followed": 2289,
      "canada": 2290,
      "lad": 2291,
      "pac": 2292,
      "ino": 2293,
      "manager": 2294,
      "whose": 2295,
      "sites": 2296,
      "championship": 2297,
      "parliament": 2298,
      "theat": 2299,
      "trip": 2300,
      "singles": 2301,
      "listen": 2302,
      "students": 2303,
      "summer": 2304,
      "atory": 2305,
      "hall": 2306,
      "information": 2307,
      "2004": 2308,
      "airport": 2309,
      "current": 2310,
      "favor": 2311,
      "fifth": 2312,
      "distr": 2313,
      "cycl": 2314,
      "wales": 2315,
      "magaz": 2316,
      "expand": 2317,
      "cruis": 2318,
      "subsequently": 2319,
      "ots": 2320,
      "uke": 2321,
      "leuke": 2322,
      "image": 2323,
      "2014": 2324,
      "compet": 2325,
      "earlier": 2326,
      "dig": 2327,
      "cold": 2328,
      "except": 2329,
      "joined": 2330,
      "acted": 2331,
      "immedi": 2332,
      "sett": 2333,
      "invited": 2334,
      "largely": 2335,
      "defend": 2336,
      "2nd": 2337,
      "gin": 2338,
      "mou": 2339,
      "race": 2340,
      "idents": 2341,
      "comed": 2342,
      "hosp": 2343,
      "pressure": 2344,
      "advance": 2345,
      "archaeology": 2346,
      "committee": 2347,
      "winds": 2348,
      "improve": 2349,
      "jer": 2350,
      "ander": 2351,
      "rome": 2352,
      "ultim": 2353,
      "corpor": 2354,
      "feature": 2355,
      "connect": 2356,
      "pursu": 2357,
      "fre": 2358,
      "fut": 2359,
      "spr": 2360,
      "restr": 2361,
      "secur": 2362,
      "explo": 2363,
      "raise": 2364,
      "creation": 2365,
      "fru": 2366,
      "aid": 2367,
      "dies": 2368,
      "erson": 2369,
      "finished": 2370,
      "minor": 2371,
      "mostly": 2372,
      "dylan": 2373,
      "travel": 2374,
      "beginning": 2375,
      "greg": 2376,
      "largest": 2377,
      "ample": 2378,
      "management": 2379,
      "mir": 2380,
      "ses": 2381,
      "ida": 2382,
      "oli": 2383,
      "process": 2384,
      "meth": 2385,
      "northeast": 2386,
      "spent": 2387,
      "speak": 2388,
      "issued": 2389,
      "george": 2390,
      "big": 2391,
      "pul": 2392,
      "anal": 2393,
      "repe": 2394,
      "already": 2395,
      "ado": 2396,
      "probab": 2397,
      "fox": 2398,
      "horse": 2399,
      "historic": 2400,
      "squadron": 2401,
      "temporary": 2402,
      "middle": 2403,
      "probably": 2404,
      "gree": 2405,
      "rum": 2406,
      "itself": 2407,
      "ices": 2408,
      "ication": 2409,
      "ators": 2410,
      "ore": 2411,
      "separ": 2412,
      "aml": 2413,
      "proper": 2414,
      "generally": 2415,
      "attacks": 2416,
      "critics": 2417,
      "village": 2418,
      "suffer": 2419,
      "private": 2420,
      "rup": 2421,
      "sun": 2422,
      "infan": 2423,
      "aster": 2424,
      "acce": 2425,
      "anger": 2426,
      "capture": 2427,
      "initially": 2428,
      "influence": 2429,
      "launched": 2430,
      "aer": 2431,
      "ky": 2432,
      "demand": 2433,
      "ference": 2434,
      "gran": 2435,
      "185": 2436,
      "temple": 2437,
      "cutive": 2438,
      "better": 2439,
      "script": 2440,
      "infantry": 2441,
      "fest": 2442,
      "itz": 2443,
      "chall": 2444,
      "chance": 2445,
      "bell": 2446,
      "cell": 2447,
      "food": 2448,
      "tons": 2449,
      "prin": 2450,
      "groups": 2451,
      "commander": 2452,
      "particip": 2453,
      "secure": 2454,
      "cali": 2455,
      "thom": 2456,
      "always": 2457,
      "concentr": 2458,
      "istic": 2459,
      "higher": 2460,
      "features": 2461,
      "connected": 2462,
      "hap": 2463,
      "era": 2464,
      "beach": 2465,
      "trade": 2466,
      "minute": 2467,
      "girl": 2468,
      "impact": 2469,
      "here": 2470,
      "ier": 2471,
      "unit": 2472,
      "espe": 2473,
      "escape": 2474,
      "dev": 2475,
      "pow": 2476,
      "poem": 2477,
      "pressed": 2478,
      "forest": 2479,
      "effort": 2480,
      "corn": 2481,
      "especially": 2482,
      "cused": 2483,
      "verted": 2484,
      "focused": 2485,
      "larger": 2486,
      "archaeological": 2487,
      "directly": 2488,
      "apo": 2489,
      "bit": 2490,
      "attr": 2491,
      "leaving": 2492,
      "contributed": 2493,
      "docu": 2494,
      "efforts": 2495,
      "greatest": 2496,
      "minister": 2497,
      "department": 2498,
      "david": 2499,
      "gul": 2500,
      "illo": 2501,
      "exam": 2502,
      "ached": 2503,
      "basis": 2504,
      "broadcast": 2505,
      "arrived": 2506,
      "ah": 2507,
      "mult": 2508,
      "wol": 2509,
      "surve": 2510,
      "marriage": 2511,
      "saint": 2512,
      "cham": 2513,
      "usually": 2514,
      "surface": 2515,
      "metres": 2516,
      "suggest": 2517,
      "hours": 2518,
      "ento": 2519,
      "chap": 2520,
      "adap": 2521,
      "lyr": 2522,
      "active": 2523,
      "preser": 2524,
      "nearly": 2525,
      "previously": 2526,
      "sciento": 2527,
      "400": 2528,
      "jillo": 2529,
      "purch": 2530,
      "acts": 2531,
      "deliver": 2532,
      "iron": 2533,
      "pool": 2534,
      "proceed": 2535,
      "finals": 2536,
      "weaken": 2537,
      "personal": 2538,
      "trujillo": 2539,
      "shoot": 2540,
      "fans": 2541,
      "paren": 2542,
      "hear": 2543,
      "remaining": 2544,
      "extended": 2545,
      "friends": 2546,
      "flying": 2547,
      "graded": 2548,
      "suffic": 2549,
      "gi": 2550,
      "traf": 2551,
      "souri": 2552,
      "something": 2553,
      "missouri": 2554,
      "nathan": 2555,
      "governor": 2556,
      "double": 2557,
      "atlantic": 2558,
      "lebr": 2559,
      "exper": 2560,
      "attempting": 2561,
      "federal": 2562,
      "figure": 2563,
      "magazine": 2564,
      "hus": 2565,
      "lou": 2566,
      "aging": 2567,
      "cient": 2568,
      "gue": 2569,
      "winning": 2570,
      "awarded": 2571,
      "involved": 2572,
      "status": 2573,
      "hum": 2574,
      "ria": 2575,
      "sail": 2576,
      "ville": 2577,
      "scoring": 2578,
      "piece": 2579,
      "35": 2580,
      "45": 2581,
      "past": 2582,
      "attributed": 2583,
      "detail": 2584,
      "proved": 2585,
      "spect": 2586,
      "lake": 2587,
      "featured": 2588,
      "positions": 2589,
      "promoted": 2590,
      "birds": 2591,
      "husband": 2592,
      "bass": 2593,
      "daugh": 2594,
      "spread": 2595,
      "insp": 2596,
      "struck": 2597,
      "ency": 2598,
      "aries": 2599,
      "mounted": 2600,
      "flank": 2601,
      "morning": 2602,
      "yards": 2603,
      "mary": 2604,
      "rein": 2605,
      "andon": 2606,
      "debu": 2607,
      "verse": 2608,
      "prot": 2609,
      "188": 2610,
      "books": 2611,
      "opportunity": 2612,
      "quickly": 2613,
      "debuted": 2614,
      "38": 2615,
      "mig": 2616,
      "rect": 2617,
      "ask": 2618,
      "stra": 2619,
      "sell": 2620,
      "assa": 2621,
      "hoc": 2622,
      "desire": 2623,
      "obtain": 2624,
      "tracks": 2625,
      "quarters": 2626,
      "future": 2627,
      "kind": 2628,
      "nia": 2629,
      "ensure": 2630,
      "units": 2631,
      "seek": 2632,
      "acting": 2633,
      "creek": 2634,
      "shore": 2635,
      "monument": 2636,
      "gas": 2637,
      "wel": 2638,
      "told": 2639,
      "eding": 2640,
      "celebr": 2641,
      "iding": 2642,
      "marked": 2643,
      "newsp": 2644,
      "deploy": 2645,
      "college": 2646,
      "baby": 2647,
      "egyptian": 2648,
      "mouth": 2649,
      "scientology": 2650,
      "300": 2651,
      "dated": 2652,
      "conference": 2653,
      "vessel": 2654,
      "settle": 2655,
      "presented": 2656,
      "primary": 2657,
      "necessary": 2658,
      "twenty": 2659,
      "pacific": 2660,
      "hockey": 2661,
      "ctr": 2662,
      "jud": 2663,
      "ridge": 2664,
      "arsen": 2665,
      "concept": 2666,
      "boy": 2667,
      "scul": 2668,
      "letter": 2669,
      "palest": 2670,
      "layer": 2671,
      "academy": 2672,
      "culture": 2673,
      "ato": 2674,
      "uals": 2675,
      "republic": 2676,
      "beat": 2677,
      "adel": 2678,
      "deb": 2679,
      "exten": 2680,
      "opposed": 2681,
      "supported": 2682,
      "germany": 2683,
      "killed": 2684,
      "cultural": 2685,
      "granted": 2686,
      "traffic": 2687,
      "bon": 2688,
      "makes": 2689,
      "oce": 2690,
      "sac": 2691,
      "atin": 2692,
      "icate": 2693,
      "coin": 2694,
      "deep": 2695,
      "iday": 2696,
      "mot": 2697,
      "progress": 2698,
      "ries": 2699,
      "serious": 2700,
      "officer": 2701,
      "quarter": 2702,
      "territory": 2703,
      "rapid": 2704,
      "inct": 2705,
      "proposed": 2706,
      "box": 2707,
      "regiment": 2708,
      "famil": 2709,
      "critical": 2710,
      "activities": 2711,
      "shr": 2712,
      "uled": 2713,
      "aired": 2714,
      "liter": 2715,
      "victory": 2716,
      "wants": 2717,
      "directed": 2718,
      "voted": 2719,
      "receive": 2720,
      "heavily": 2721,
      "ather": 2722,
      "push": 2723,
      "inn": 2724,
      "adop": 2725,
      "los": 2726,
      "losing": 2727,
      "contribut": 2728,
      "pel": 2729,
      "interview": 2730,
      "angel": 2731,
      "numbers": 2732,
      "consist": 2733,
      "studies": 2734,
      "divine": 2735,
      "ocean": 2736,
      "batter": 2737,
      "cat": 2738,
      "fell": 2739,
      "anderson": 2740,
      "actor": 2741,
      "net": 2742,
      "bomb": 2743,
      "finan": 2744,
      "northwest": 2745,
      "strugg": 2746,
      "references": 2747,
      "begins": 2748,
      "burn": 2749,
      "advanced": 2750,
      "language": 2751,
      "lor": 2752,
      "leng": 2753,
      "itation": 2754,
      "chic": 2755,
      "health": 2756,
      "motion": 2757,
      "peace": 2758,
      "shi": 2759,
      "excl": 2760,
      "189": 2761,
      "carol": 2762,
      "causing": 2763,
      "relative": 2764,
      "captain": 2765,
      "elected": 2766,
      "observ": 2767,
      "damaged": 2768,
      "soldi": 2769,
      "richard": 2770,
      "scholar": 2771,
      "investig": 2772,
      "alleg": 2773,
      "nomin": 2774,
      "living": 2775,
      "fran": 2776,
      "leads": 2777,
      "sched": 2778,
      "brother": 2779,
      "athlet": 2780,
      "potential": 2781,
      "average": 2782,
      "selected": 2783,
      "comes": 2784,
      "mention": 2785,
      "embar": 2786,
      "news": 2787,
      "underground": 2788,
      "shows": 2789,
      "smaller": 2790,
      "green": 2791,
      "amount": 2792,
      "chief": 2793,
      "chamber": 2794,
      "cam": 2795,
      "listed": 2796,
      "pick": 2797,
      "reaction": 2798,
      "armor": 2799,
      "187": 2800,
      "1996": 2801,
      "threaten": 2802,
      "situation": 2803,
      "ane": 2804,
      "ancient": 2805,
      "revol": 2806,
      "aspect": 2807,
      "abandon": 2808,
      "emer": 2809,
      "flor": 2810,
      "color": 2811,
      "rison": 2812,
      "stones": 2813,
      "individual": 2814,
      "jin": 2815,
      "rance": 2816,
      "ington": 2817,
      "stan": 2818,
      "conse": 2819,
      "chris": 2820,
      "penn": 2821,
      "organized": 2822,
      "nhl": 2823,
      "econom": 2824,
      "gian": 2825,
      "hair": 2826,
      "oil": 2827,
      "poland": 2828,
      "sole": 2829,
      "exped": 2830,
      "fiction": 2831,
      "2001": 2832,
      "highest": 2833,
      "fully": 2834,
      "runs": 2835,
      "constructed": 2836,
      "experience": 2837,
      "traditional": 2838,
      "annual": 2839,
      "pain": 2840,
      "rise": 2841,
      "theme": 2842,
      "tel": 2843,
      "true": 2844,
      "teams": 2845,
      "depic": 2846,
      "require": 2847,
      "institute": 2848,
      "journal": 2849,
      "machine": 2850,
      "problems": 2851,
      "method": 2852,
      "chicago": 2853,
      "36": 2854,
      "happ": 2855,
      "pted": 2856,
      "think": 2857,
      "chem": 2858,
      "cost": 2859,
      "confir": 2860,
      "tray": 2861,
      "bud": 2862,
      "grass": 2863,
      "prise": 2864,
      "speed": 2865,
      "engage": 2866,
      "idea": 2867,
      "refers": 2868,
      "standard": 2869,
      "suggested": 2870,
      "strength": 2871,
      "califor": 2872,
      "bad": 2873,
      "pag": 2874,
      "inches": 2875,
      "contemporary": 2876,
      "commo": 2877,
      "example": 2878,
      "whole": 2879,
      "span": 2880,
      "mainly": 2881,
      "surround": 2882,
      "chronic": 2883,
      "legal": 2884,
      "victori": 2885,
      "authorities": 2886,
      "polic": 2887,
      "naval": 2888,
      "occurred": 2889,
      "photo": 2890,
      "carried": 2891,
      "achieve": 2892,
      "security": 2893,
      "num": 2894,
      "slight": 2895,
      "plays": 2896,
      "ously": 2897,
      "workers": 2898,
      "publish": 2899,
      "males": 2900,
      "effects": 2901,
      "starting": 2902,
      "married": 2903,
      "honor": 2904,
      "henry": 2905,
      "ctor": 2906,
      "your": 2907,
      "ister": 2908,
      "uded": 2909,
      "1991": 2910,
      "authority": 2911,
      "instit": 2912,
      "japanese": 2913,
      "touchdown": 2914,
      "scheduled": 2915,
      "cave": 2916,
      "wed": 2917,
      "yet": 2918,
      "defin": 2919,
      "quality": 2920,
      "leader": 2921,
      "paul": 2922,
      "associated": 2923,
      "audience": 2924,
      "habit": 2925,
      "length": 2926,
      "iation": 2927,
      "latter": 2928,
      "ric": 2929,
      "rac": 2930,
      "replaced": 2931,
      "isl": 2932,
      "ami": 2933,
      "determin": 2934,
      "ural": 2935,
      "protest": 2936,
      "reser": 2937,
      "vier": 2938,
      "collection": 2939,
      "fighting": 2940,
      "hanna": 2941,
      "commented": 2942,
      "vocals": 2943,
      "silver": 2944,
      "hospital": 2945,
      "kick": 2946,
      "sat": 2947,
      "sides": 2948,
      "confl": 2949,
      "withdraw": 2950,
      "metal": 2951,
      "normal": 2952,
      "charles": 2953,
      "appeal": 2954,
      "colon": 2955,
      "battles": 2956,
      "specim": 2957,
      "risk": 2958,
      "injury": 2959,
      "thomas": 2960,
      "california": 2961,
      "sought": 2962,
      "learn": 2963,
      "terms": 2964,
      "olay": 2965,
      "ordin": 2966,
      "guard": 2967,
      "prison": 2968,
      "officially": 2969,
      "daughter": 2970,
      "inspired": 2971,
      "soldiers": 2972,
      "done": 2973,
      "really": 2974,
      "entrance": 2975,
      "residents": 2976,
      "iple": 2977,
      "barrow": 2978,
      "draft": 2979,
      "italian": 2980,
      "virgin": 2981,
      "girls": 2982,
      "meaning": 2983,
      "revealed": 2984,
      "cyclone": 2985,
      "border": 2986,
      "gs": 2987,
      "pit": 2988,
      "sive": 2989,
      "tone": 2990,
      "tomb": 2991,
      "retain": 2992,
      "arms": 2993,
      "chines": 2994,
      "load": 2995,
      "ably": 2996,
      "bery": 2997,
      "perman": 2998,
      "liber": 2999,
      "mentary": 3000,
      "attend": 3001,
      "attached": 3002,
      "minutes": 3003,
      "supposed": 3004,
      "allows": 3005,
      "musical": 3006,
      "approxim": 3007,
      "channel": 3008,
      "sembl": 3009,
      "companies": 3010,
      "florida": 3011,
      "chinese": 3012,
      "49": 3013,
      "frequ": 3014,
      "mun": 3015,
      "rd": 3016,
      "armed": 3017,
      "stating": 3018,
      "defe": 3019,
      "nov": 3020,
      "2002": 3021,
      "advant": 3022,
      "techni": 3023,
      "daily": 3024,
      "pon": 3025,
      "ror": 3026,
      "sey": 3027,
      "ament": 3028,
      "means": 3029,
      "bodies": 3030,
      "presence": 3031,
      "tured": 3032,
      "positive": 3033,
      "symb": 3034,
      "scott": 3035,
      "furt": 3036,
      "master": 3037,
      "contrast": 3038,
      "castle": 3039,
      "reduce": 3040,
      "primarily": 3041,
      "holiday": 3042,
      "cand": 3043,
      "iate": 3044,
      "rush": 3045,
      "scr": 3046,
      "roll": 3047,
      "chose": 3048,
      "train": 3049,
      "soviet": 3050,
      "clark": 3051,
      "aut": 3052,
      "aven": 3053,
      "ledge": 3054,
      "headquarters": 3055,
      "sense": 3056,
      "extre": 3057,
      "equip": 3058,
      "wolf": 3059,
      "symbol": 3060,
      "bing": 3061,
      "ea": 3062,
      "jum": 3063,
      "rick": 3064,
      "wear": 3065,
      "throw": 3066,
      "robert": 3067,
      "apped": 3068,
      "frank": 3069,
      "missed": 3070,
      "reflect": 3071,
      "hait": 3072,
      "soundtrack": 3073,
      "croat": 3074,
      "aught": 3075,
      "mixed": 3076,
      "source": 3077,
      "district": 3078,
      "olivier": 3079,
      "approximately": 3080,
      "bish": 3081,
      "ging": 3082,
      "native": 3083,
      "takes": 3084,
      "edge": 3085,
      "adminis": 3086,
      "sholay": 3087,
      "lies": 3088,
      "cide": 3089,
      "phy": 3090,
      "passing": 3091,
      "crake": 3092,
      "individuals": 3093,
      "lic": 3094,
      "arrest": 3095,
      "neg": 3096,
      "anta": 3097,
      "fles": 3098,
      "continues": 3099,
      "course": 3100,
      "covered": 3101,
      "growth": 3102,
      "narrow": 3103,
      "applied": 3104,
      "physical": 3105,
      "assault": 3106,
      "arsenal": 3107,
      "cere": 3108,
      "dark": 3109,
      "glo": 3110,
      "itors": 3111,
      "thr": 3112,
      "ald": 3113,
      "bot": 3114,
      "earn": 3115,
      "severe": 3116,
      "looking": 3117,
      "relief": 3118,
      "fruit": 3119,
      "furtado": 3120,
      "ko": 3121,
      "spot": 3122,
      "yer": 3123,
      "allo": 3124,
      "wash": 3125,
      "sumed": 3126,
      "1930": 3127,
      "mart": 3128,
      "surren": 3129,
      "depending": 3130,
      "movement": 3131,
      "paid": 3132,
      "graphy": 3133,
      "reviews": 3134,
      "figures": 3135,
      "memorial": 3136,
      "constant": 3137,
      "revolution": 3138,
      "candid": 3139,
      "bi": 3140,
      "cab": 3141,
      "inner": 3142,
      "ania": 3143,
      "enemy": 3144,
      "isa": 3145,
      "ulate": 3146,
      "mental": 3147,
      "oppos": 3148,
      "trees": 3149,
      "mountain": 3150,
      "journey": 3151,
      "website": 3152,
      "ultimately": 3153,
      "data": 3154,
      "las": 3155,
      "paper": 3156,
      "rate": 3157,
      "astr": 3158,
      "acqu": 3159,
      "plant": 3160,
      "sian": 3161,
      "ption": 3162,
      "calling": 3163,
      "election": 3164,
      "stories": 3165,
      "foundation": 3166,
      "running": 3167,
      "prepared": 3168,
      "immediately": 3169,
      "hired": 3170,
      "rey": 3171,
      "alty": 3172,
      "paral": 3173,
      "joy": 3174,
      "continent": 3175,
      "ological": 3176,
      "nearby": 3177,
      "issues": 3178,
      "1939": 3179,
      "chester": 3180,
      "aviation": 3181,
      "comedy": 3182,
      "eaton": 3183,
      "600": 3184,
      "bour": 3185,
      "bond": 3186,
      "bury": 3187,
      "xed": 3188,
      "intell": 3189,
      "arab": 3190,
      "lear": 3191,
      "ull": 3192,
      "manu": 3193,
      "bru": 3194,
      "marine": 3195,
      "hood": 3196,
      "operate": 3197,
      "valky": 3198,
      "reaching": 3199,
      "places": 3200,
      "apping": 3201,
      "spring": 3202,
      "intellig": 3203,
      "valkyria": 3204,
      "33": 3205,
      "bol": 3206,
      "jam": 3207,
      "sor": 3208,
      "spl": 3209,
      "arian": 3210,
      "convin": 3211,
      "electr": 3212,
      "combined": 3213,
      "monuments": 3214,
      "excavation": 3215,
      "sculpt": 3216,
      "ding": 3217,
      "mph": 3218,
      "oly": 3219,
      "winter": 3220,
      "tot": 3221,
      "istan": 3222,
      "highly": 3223,
      "ology": 3224,
      "square": 3225,
      "discovered": 3226,
      "strengthen": 3227,
      "dating": 3228,
      "og": 3229,
      "sam": 3230,
      "reports": 3231,
      "repair": 3232,
      "ensi": 3233,
      "advert": 3234,
      "180": 3235,
      "foreign": 3236,
      "secondary": 3237,
      "request": 3238,
      "nixon": 3239,
      "words": 3240,
      "session": 3241,
      "murder": 3242,
      "gulf": 3243,
      "numer": 3244,
      "extreme": 3245,
      "fast": 3246,
      "yel": 3247,
      "zed": 3248,
      "account": 3249,
      "text": 3250,
      "peter": 3251,
      "portray": 3252,
      "spac": 3253,
      "flights": 3254,
      "syl": 3255,
      "1993": 3256,
      "referring": 3257,
      "legisl": 3258,
      "vote": 3259,
      "organization": 3260,
      "commissioned": 3261,
      "collabor": 3262,
      "brief": 3263,
      "stream": 3264,
      "survey": 3265,
      "dress": 3266,
      "loose": 3267,
      "cells": 3268,
      "twice": 3269,
      "content": 3270,
      "cks": 3271,
      "iety": 3272,
      "writers": 3273,
      "lane": 3274,
      "grew": 3275,
      "collect": 3276,
      "scient": 3277,
      "combat": 3278,
      "jackson": 3279,
      "lyrics": 3280,
      "reinforce": 3281,
      "48": 3282,
      "hung": 3283,
      "mat": 3284,
      "nations": 3285,
      "path": 3286,
      "ths": 3287,
      "thick": 3288,
      "aring": 3289,
      "heart": 3290,
      "bul": 3291,
      "african": 3292,
      "1998": 3293,
      "1999": 3294,
      "complex": 3295,
      "unique": 3296,
      "question": 3297,
      "secretary": 3298,
      "measure": 3299,
      "clarkson": 3300,
      "cis": 3301,
      "today": 3302,
      "ann": 3303,
      "ergy": 3304,
      "die": 3305,
      "notes": 3306,
      "visions": 3307,
      "oldham": 3308,
      "job": 3309,
      "regime": 3310,
      "genus": 3311,
      "broken": 3312,
      "elev": 3313,
      "variety": 3314,
      "scot": 3315,
      "plement": 3316,
      "voice": 3317,
      "concert": 3318,
      "engineer": 3319,
      "slightly": 3320,
      "battleship": 3321,
      "ceremon": 3322,
      "bio": 3323,
      "nick": 3324,
      "tay": 3325,
      "wis": 3326,
      "onto": 3327,
      "converted": 3328,
      "trial": 3329,
      "boat": 3330,
      "herself": 3331,
      "branch": 3332,
      "actress": 3333,
      "weap": 3334,
      "centre": 3335,
      "zeal": 3336,
      "projects": 3337,
      "chosen": 3338,
      "initi": 3339,
      "structure": 3340,
      "ivalent": 3341,
      "competition": 3342,
      "pursue": 3343,
      "numerous": 3344,
      "cit": 3345,
      "fair": 3346,
      "ost": 3347,
      "rare": 3348,
      "alice": 3349,
      "entered": 3350,
      "negot": 3351,
      "worship": 3352,
      "overall": 3353,
      "register": 3354,
      "1995": 3355,
      "moral": 3356,
      "destroyed": 3357,
      "territori": 3358,
      "families": 3359,
      "gent": 3360,
      "zy": 3361,
      "ita": 3362,
      "playoff": 3363,
      "address": 3364,
      "floor": 3365,
      "historical": 3366,
      "accepted": 3367,
      "adelph": 3368,
      "yellow": 3369,
      "taylor": 3370,
      "ake": 3371,
      "gam": 3372,
      "wild": 3373,
      "inside": 3374,
      "selling": 3375,
      "amed": 3376,
      "bob": 3377,
      "upgraded": 3378,
      "dissip": 3379,
      "itect": 3380,
      "artists": 3381,
      "includes": 3382,
      "architect": 3383,
      "countries": 3384,
      "islands": 3385,
      "controlled": 3386,
      "promote": 3387,
      "strike": 3388,
      "semble": 3389,
      "jackets": 3390,
      "rosebery": 3391,
      "pounds": 3392,
      "consecutive": 3393,
      "47": 3394,
      "cers": 3395,
      "dance": 3396,
      "mia": 3397,
      "sund": 3398,
      "iss": 3399,
      "coins": 3400,
      "usal": 3401,
      "promin": 3402,
      "19th": 3403,
      "worth": 3404,
      "regional": 3405,
      "drum": 3406,
      "failure": 3407,
      "believe": 3408,
      "incident": 3409,
      "micro": 3410,
      "occasion": 3411,
      "cm": 3412,
      "cum": 3413,
      "tact": 3414,
      "tied": 3415,
      "thedr": 3416,
      "altern": 3417,
      "select": 3418,
      "admir": 3419,
      "del": 3420,
      "nothing": 3421,
      "sust": 3422,
      "neu": 3423,
      "restor": 3424,
      "persu": 3425,
      "actually": 3426,
      "cathedr": 3427,
      "supply": 3428,
      "decides": 3429,
      "naz": 3430,
      "gather": 3431,
      "responded": 3432,
      "academ": 3433,
      "ranked": 3434,
      "happen": 3435,
      "cited": 3436,
      "ey": 3437,
      "patch": 3438,
      "inch": 3439,
      "recomm": 3440,
      "reign": 3441,
      "alter": 3442,
      "altar": 3443,
      "adjac": 3444,
      "essa": 3445,
      "emper": 3446,
      "grant": 3447,
      "owner": 3448,
      "charge": 3449,
      "closer": 3450,
      "johnson": 3451,
      "defensive": 3452,
      "linked": 3453,
      "declared": 3454,
      "initial": 3455,
      "successfully": 3456,
      "religion": 3457,
      "drive": 3458,
      "typically": 3459,
      "conducted": 3460,
      "independent": 3461,
      "advantage": 3462,
      "adelphia": 3463,
      "adjacent": 3464,
      "dv": 3465,
      "fish": 3466,
      "py": 3467,
      "rat": 3468,
      "tree": 3469,
      "removed": 3470,
      "atives": 3471,
      "alex": 3472,
      "irish": 3473,
      "goes": 3474,
      "anything": 3475,
      "hands": 3476,
      "copies": 3477,
      "oxford": 3478,
      "practice": 3479,
      "possibly": 3480,
      "cruiser": 3481,
      "parents": 3482,
      "newspaper": 3483,
      "olymp": 3484,
      "dar": 3485,
      "eth": 3486,
      "sn": 3487,
      "pet": 3488,
      "bulls": 3489,
      "clim": 3490,
      "queen": 3491,
      "opin": 3492,
      "fired": 3493,
      "newly": 3494,
      "suppl": 3495,
      "1997": 3496,
      "therefore": 3497,
      "captured": 3498,
      "voy": 3499,
      "basket": 3500,
      "assistant": 3501,
      "agreement": 3502,
      "categ": 3503,
      "carolina": 3504,
      "pennsyl": 3505,
      "economic": 3506,
      "pennsylvan": 3507,
      "blow": 3508,
      "kes": 3509,
      "lers": 3510,
      "nic": 3511,
      "sin": 3512,
      "ws": 3513,
      "iny": 3514,
      "actors": 3515,
      "lock": 3516,
      "ulty": 3517,
      "express": 3518,
      "sia": 3519,
      "charts": 3520,
      "conditions": 3521,
      "victim": 3522,
      "buildings": 3523,
      "azz": 3524,
      "represented": 3525,
      "seemed": 3526,
      "equivalent": 3527,
      "drew": 3528,
      "theatre": 3529,
      "analys": 3530,
      "separate": 3531,
      "dj": 3532,
      "slo": 3533,
      "smo": 3534,
      "unes": 3535,
      "asse": 3536,
      "ingu": 3537,
      "stal": 3538,
      "semi": 3539,
      "suit": 3540,
      "illery": 3541,
      "artillery": 3542,
      "folk": 3543,
      "gives": 3544,
      "cases": 3545,
      "link": 3546,
      "scenes": 3547,
      "liverpool": 3548,
      "types": 3549,
      "weakened": 3550,
      "aspects": 3551,
      "chemical": 3552,
      "cathedral": 3553,
      "3rd": 3554,
      "6th": 3555,
      "ax": 3556,
      "dic": 3557,
      "gall": 3558,
      "jul": 3559,
      "mut": 3560,
      "uan": 3561,
      "cha": 3562,
      "decre": 3563,
      "pope": 3564,
      "geoff": 3565,
      "market": 3566,
      "themes": 3567,
      "interpre": 3568,
      "medical": 3569,
      "producer": 3570,
      "miami": 3571,
      "archaeologist": 3572,
      "freeway": 3573,
      "levels": 3574,
      "sky": 3575,
      "compete": 3576,
      "ranged": 3577,
      "financial": 3578,
      "exclus": 3579,
      "determined": 3580,
      "hund": 3581,
      "kur": 3582,
      "latin": 3583,
      "praised": 3584,
      "thin": 3585,
      "alled": 3586,
      "libr": 3587,
      "dog": 3588,
      "2000": 3589,
      "otes": 3590,
      "1992": 3591,
      "supporting": 3592,
      "powerful": 3593,
      "claims": 3594,
      "majority": 3595,
      "sister": 3596,
      "entertain": 3597,
      "function": 3598,
      "vocal": 3599,
      "responsible": 3600,
      "festival": 3601,
      "emperor": 3602,
      "hundred": 3603,
      "44": 3604,
      "ec": 3605,
      "jun": 3606,
      "jim": 3607,
      "mous": 3608,
      "nbc": 3609,
      "envir": 3610,
      "histori": 3611,
      "plat": 3612,
      "marines": 3613,
      "singer": 3614,
      "longer": 3615,
      "commandment": 3616,
      "begun": 3617,
      "defense": 3618,
      "extent": 3619,
      "window": 3620,
      "empire": 3621,
      "encouraged": 3622,
      "leukemia": 3623,
      "coldrum": 3624,
      "athen": 3625,
      "bat": 3626,
      "bility": 3627,
      "fu": 3628,
      "map": 3629,
      "oth": 3630,
      "sport": 3631,
      "andy": 3632,
      "ador": 3633,
      "acre": 3634,
      "delay": 3635,
      "determ": 3636,
      "lying": 3637,
      "prohib": 3638,
      "weight": 3639,
      "otto": 3640,
      "faith": 3641,
      "jane": 3642,
      "ception": 3643,
      "1985": 3644,
      "markgra": 3645,
      "safety": 3646,
      "beyond": 3647,
      "lady": 3648,
      "determine": 3649,
      "markgraf": 3650,
      "cin": 3651,
      "fres": 3652,
      "uter": 3653,
      "reven": 3654,
      "enge": 3655,
      "ario": 3656,
      "escor": 3657,
      "ications": 3658,
      "stations": 3659,
      "acu": 3660,
      "ulated": 3661,
      "1918": 3662,
      "lip": 3663,
      "qual": 3664,
      "serving": 3665,
      "odes": 3666,
      "evacu": 3667,
      "artist": 3668,
      "ensity": 3669,
      "producers": 3670,
      "drawn": 3671,
      "ification": 3672,
      "titles": 3673,
      "swed": 3674,
      "oslo": 3675,
      "philadelphia": 3676,
      "challenge": 3677,
      "fat": 3678,
      "mess": 3679,
      "pson": 3680,
      "wit": 3681,
      "thous": 3682,
      "ert": 3683,
      "pole": 3684,
      "rihanna": 3685,
      "elimin": 3686,
      "exit": 3687,
      "door": 3688,
      "shel": 3689,
      "plane": 3690,
      "1940": 3691,
      "1941": 3692,
      "faced": 3693,
      "alongside": 3694,
      "importance": 3695,
      "distance": 3696,
      "meeting": 3697,
      "divided": 3698,
      "sources": 3699,
      "sufficient": 3700,
      "chronicles": 3701,
      "administr": 3702,
      "thousand": 3703,
      "dates": 3704,
      "pare": 3705,
      "rhy": 3706,
      "unts": 3707,
      "anda": 3708,
      "paris": 3709,
      "southeast": 3710,
      "letters": 3711,
      "plot": 3712,
      "resulted": 3713,
      "farm": 3714,
      "techn": 3715,
      "rule": 3716,
      "baseball": 3717,
      "peaked": 3718,
      "pilot": 3719,
      "credited": 3720,
      "emphasis": 3721,
      "purchase": 3722,
      "bone": 3723,
      "crow": 3724,
      "hl": 3725,
      "jup": 3726,
      "ovic": 3727,
      "sav": 3728,
      "sara": 3729,
      "trou": 3730,
      "thir": 3731,
      "recon": 3732,
      "recover": 3733,
      "urania": 3734,
      "neigh": 3735,
      "shire": 3736,
      "1950": 3737,
      "prepare": 3738,
      "laid": 3739,
      "observed": 3740,
      "featuring": 3741,
      "fields": 3742,
      "sixth": 3743,
      "traveled": 3744,
      "retreat": 3745,
      "circul": 3746,
      "multiple": 3747,
      "manufact": 3748,
      "zealand": 3749,
      "7th": 3750,
      "emotion": 3751,
      "gard": 3752,
      "lap": 3753,
      "matter": 3754,
      "seas": 3755,
      "adam": 3756,
      "accommo": 3757,
      "confeder": 3758,
      "apy": 3759,
      "plate": 3760,
      "lives": 3761,
      "extra": 3762,
      "earned": 3763,
      "doms": 3764,
      "pregn": 3765,
      "disc": 3766,
      "miss": 3767,
      "value": 3768,
      "titled": 3769,
      "prime": 3770,
      "distinct": 3771,
      "streak": 3772,
      "concluded": 3773,
      "extensive": 3774,
      "threatened": 3775,
      "intelligence": 3776,
      "pennsylvania": 3777,
      "environ": 3778,
      "5th": 3779,
      "eye": 3780,
      "mpt": 3781,
      "nest": 3782,
      "mel": 3783,
      "oppon": 3784,
      "evo": 3785,
      "mond": 3786,
      "store": 3787,
      "ceres": 3788,
      "generation": 3789,
      "shortly": 3790,
      "promised": 3791,
      "belief": 3792,
      "expedition": 3793,
      "budget": 3794,
      "1st": 3795,
      "76": 3796,
      "lb": 3797,
      "wat": 3798,
      "china": 3799,
      "usual": 3800,
      "olith": 3801,
      "meg": 3802,
      "1914": 3803,
      "landing": 3804,
      "ansas": 3805,
      "mind": 3806,
      "eval": 3807,
      "nuclear": 3808,
      "crash": 3809,
      "appearances": 3810,
      "planning": 3811,
      "classic": 3812,
      "matches": 3813,
      "wait": 3814,
      "treatment": 3815,
      "expanded": 3816,
      "neutr": 3817,
      "basketball": 3818,
      "cities": 3819,
      "ease": 3820,
      "labor": 3821,
      "pes": 3822,
      "ying": 3823,
      "ingale": 3824,
      "abled": 3825,
      "kee": 3826,
      "pers": 3827,
      "fected": 3828,
      "rachel": 3829,
      "landfall": 3830,
      "portion": 3831,
      "spend": 3832,
      "intensi": 3833,
      "2016": 3834,
      "simply": 3835,
      "valley": 3836,
      "sult": 3837,
      "1943": 3838,
      "roads": 3839,
      "grounds": 3840,
      "nightingale": 3841,
      "suffered": 3842,
      "athens": 3843,
      "ottoman": 3844,
      "olithic": 3845,
      "dry": 3846,
      "gate": 3847,
      "jazz": 3848,
      "toward": 3849,
      "deity": 3850,
      "loan": 3851,
      "movie": 3852,
      "agu": 3853,
      "exposed": 3854,
      "guide": 3855,
      "utc": 3856,
      "prince": 3857,
      "scale": 3858,
      "transl": 3859,
      "dershow": 3860,
      "founded": 3861,
      "corps": 3862,
      "standards": 3863,
      "breeding": 3864,
      "hawa": 3865,
      "limit": 3866,
      "industri": 3867,
      "apparen": 3868,
      "crown": 3869,
      "bringing": 3870,
      "existing": 3871,
      "pilots": 3872,
      "happy": 3873,
      "spanish": 3874,
      "photograph": 3875,
      "dershowitz": 3876,
      "apparent": 3877,
      "fred": 3878,
      "gab": 3879,
      "wise": 3880,
      "roles": 3881,
      "cher": 3882,
      "beha": 3883,
      "impossible": 3884,
      "cel": 3885,
      "mole": 3886,
      "somal": 3887,
      "percent": 3888,
      "opposition": 3889,
      "istics": 3890,
      "contain": 3891,
      "visited": 3892,
      "humans": 3893,
      "says": 3894,
      "choice": 3895,
      "sales": 3896,
      "missions": 3897,
      "shape": 3898,
      "virginia": 3899,
      "bishop": 3900,
      "behavi": 3901,
      "ez": 3902,
      "omy": 3903,
      "pun": 3904,
      "sof": 3905,
      "satur": 3906,
      "tu": 3907,
      "incorpor": 3908,
      "rear": 3909,
      "alone": 3910,
      "behalf": 3911,
      "aped": 3912,
      "resc": 3913,
      "brad": 3914,
      "assass": 3915,
      "joint": 3916,
      "identified": 3917,
      "drama": 3918,
      "failing": 3919,
      "switch": 3920,
      "gradually": 3921,
      "believ": 3922,
      "opposite": 3923,
      "ana": 3924,
      "err": 3925,
      "beer": 3926,
      "forcing": 3927,
      "condoms": 3928,
      "poe": 3929,
      "mob": 3930,
      "agents": 3931,
      "resol": 3932,
      "perfect": 3933,
      "expect": 3934,
      "ller": 3935,
      "contains": 3936,
      "fellow": 3937,
      "madero": 3938,
      "treaty": 3939,
      "aerod": 3940,
      "permanent": 3941,
      "paralle": 3942,
      "academic": 3943,
      "analysis": 3944,
      "32": 3945,
      "42": 3946,
      "800": 3947,
      "abu": 3948,
      "bia": 3949,
      "citing": 3950,
      "tessa": 3951,
      "yue": 3952,
      "energy": 3953,
      "arranged": 3954,
      "icle": 3955,
      "playstation": 3956,
      "oda": 3957,
      "disrup": 3958,
      "weak": 3959,
      "facilities": 3960,
      "casual": 3961,
      "glas": 3962,
      "techno": 3963,
      "science": 3964,
      "completely": 3965,
      "benef": 3966,
      "dollars": 3967,
      "widely": 3968,
      "opportunities": 3969,
      "houses": 3970,
      "slowly": 3971,
      "flooding": 3972,
      "battery": 3973,
      "francis": 3974,
      "scotland": 3975,
      "jupiter": 3976,
      "37": 3977,
      "ix": 3978,
      "ires": 3979,
      "rated": 3980,
      "skill": 3981,
      "saves": 3982,
      "vice": 3983,
      "ored": 3984,
      "uries": 3985,
      "poly": 3986,
      "utions": 3987,
      "owned": 3988,
      "mith": 3989,
      "dru": 3990,
      "commandments": 3991,
      "construct": 3992,
      "officials": 3993,
      "knowledge": 3994,
      "literature": 3995,
      "conflict": 3996,
      "39": 3997,
      "fow": 3998,
      "fung": 3999,
      "hunt": 4000,
      "llo": 4001,
      "remove": 4002,
      "isto": 4003,
      "itual": 4004,
      "appoint": 4005,
      "keats": 4006,
      "maxim": 4007,
      "mint": 4008,
      "engaged": 4009,
      "hai": 4010,
      "retired": 4011,
      "seventh": 4012,
      "villa": 4013,
      "committed": 4014,
      "teaching": 4015,
      "occupied": 4016,
      "increasingly": 4017,
      "restrict": 4018,
      "citiz": 4019,
      "sunday": 4020,
      "ral": 4021,
      "tig": 4022,
      "vat": 4023,
      "anth": 4024,
      "edition": 4025,
      "chair": 4026,
      "lywood": 4027,
      "lose": 4028,
      "conve": 4029,
      "convent": 4030,
      "moon": 4031,
      "meyer": 4032,
      "solo": 4033,
      "torped": 4034,
      "ody": 4035,
      "turns": 4036,
      "intensity": 4037,
      "returns": 4038,
      "1994": 4039,
      "depth": 4040,
      "150": 4041,
      "campus": 4042,
      "didn": 4043,
      "episodes": 4044,
      "cullen": 4045,
      "pattern": 4046,
      "activity": 4047,
      "teenth": 4048,
      "discuss": 4049,
      "animal": 4050,
      "property": 4051,
      "rapidly": 4052,
      "ceremony": 4053,
      "torpedo": 4054,
      "bbc": 4055,
      "kar": 4056,
      "kil": 4057,
      "ota": 4058,
      "tore": 4059,
      "dete": 4060,
      "veh": 4061,
      "propag": 4062,
      "lia": 4063,
      "strand": 4064,
      "doing": 4065,
      "temper": 4066,
      "condition": 4067,
      "adding": 4068,
      "southwest": 4069,
      "athus": 4070,
      "needs": 4071,
      "walk": 4072,
      "distingu": 4073,
      "funds": 4074,
      "significantly": 4075,
      "belonging": 4076,
      "model": 4077,
      "possibility": 4078,
      "adapt": 4079,
      "policy": 4080,
      "din": 4081,
      "eigh": 4082,
      "gone": 4083,
      "hang": 4084,
      "kings": 4085,
      "matic": 4086,
      "nand": 4087,
      "ners": 4088,
      "pic": 4089,
      "ration": 4090,
      "wander": 4091,
      "thur": 4092,
      "below": 4093,
      "adul": 4094,
      "adult": 4095,
      "wides": 4096,
      "allied": 4097,
      "boats": 4098,
      "guar": 4099,
      "recent": 4100,
      "colour": 4101,
      "missing": 4102,
      "diff": 4103,
      "italy": 4104,
      "resulting": 4105,
      "purpose": 4106,
      "performances": 4107,
      "braathens": 4108,
      "employed": 4109,
      "hun": 4110,
      "ius": 4111,
      "omin": 4112,
      "sr": 4113,
      "sports": 4114,
      "uy": 4115,
      "wic": 4116,
      "andre": 4117,
      "sevent": 4118,
      "deem": 4119,
      "iring": 4120,
      "conserv": 4121,
      "condom": 4122,
      "congress": 4123,
      "restore": 4124,
      "ulations": 4125,
      "else": 4126,
      "expressed": 4127,
      "gets": 4128,
      "ghur": 4129,
      "wrapped": 4130,
      "itude": 4131,
      "describe": 4132,
      "tournam": 4133,
      "domest": 4134,
      "heaven": 4135,
      "skin": 4136,
      "influenced": 4137,
      "walls": 4138,
      "vietnam": 4139,
      "demonstr": 4140,
      "digital": 4141,
      "straight": 4142,
      "uyghur": 4143,
      "catch": 4144,
      "iro": 4145,
      "kit": 4146,
      "page": 4147,
      "vul": 4148,
      "anz": 4149,
      "anne": 4150,
      "neck": 4151,
      "resist": 4152,
      "astic": 4153,
      "holy": 4154,
      "franch": 4155,
      "seasons": 4156,
      "buried": 4157,
      "popularity": 4158,
      "bowl": 4159,
      "dominican": 4160,
      "settlement": 4161,
      "arrested": 4162,
      "surrender": 4163,
      "supplies": 4164,
      "pict": 4165,
      "tun": 4166,
      "enathus": 4167,
      "imag": 4168,
      "conce": 4169,
      "rival": 4170,
      "permission": 4171,
      "lived": 4172,
      "raaf": 4173,
      "worst": 4174,
      "fernand": 4175,
      "marry": 4176,
      "creator": 4177,
      "prec": 4178,
      "minim": 4179,
      "princ": 4180,
      "weather": 4181,
      "label": 4182,
      "myth": 4183,
      "legend": 4184,
      "getting": 4185,
      "1986": 4186,
      "controver": 4187,
      "germans": 4188,
      "declined": 4189,
      "caves": 4190,
      "entirely": 4191,
      "rainfall": 4192,
      "columbus": 4193,
      "delivered": 4194,
      "library": 4195,
      "odaenathus": 4196,
      "fowler": 4197,
      "propaganda": 4198,
      "120": 4199,
      "cular": 4200,
      "camer": 4201,
      "fted": 4202,
      "mine": 4203,
      "oma": 4204,
      "paint": 4205,
      "tch": 4206,
      "zagre": 4207,
      "repl": 4208,
      "accompl": 4209,
      "extr": 4210,
      "auto": 4211,
      "assess": 4212,
      "sized": 4213,
      "serves": 4214,
      "containing": 4215,
      "evol": 4216,
      "cannot": 4217,
      "genet": 4218,
      "product": 4219,
      "horn": 4220,
      "losses": 4221,
      "specifically": 4222,
      "strateg": 4223,
      "vessels": 4224,
      "shift": 4225,
      "omaha": 4226,
      "zagreb": 4227,
      "75": 4228,
      "danger": 4229,
      "egg": 4230,
      "iel": 4231,
      "pts": 4232,
      "ories": 4233,
      "sets": 4234,
      "degree": 4235,
      "decide": 4236,
      "imper": 4237,
      "apart": 4238,
      "feed": 4239,
      "commonly": 4240,
      "odon": 4241,
      "dispatch": 4242,
      "grown": 4243,
      "izon": 4244,
      "stars": 4245,
      "wins": 4246,
      "sentence": 4247,
      "1944": 4248,
      "factory": 4249,
      "ontario": 4250,
      "proteins": 4251,
      "magic": 4252,
      "difficulty": 4253,
      "federer": 4254,
      "hills": 4255,
      "couple": 4256,
      "achieved": 4257,
      "settlers": 4258,
      "allosaurus": 4259,
      "convinced": 4260,
      "dvd": 4261,
      "assemb": 4262,
      "cinem": 4263,
      "technical": 4264,
      "megali": 4265,
      "43": 4266,
      "fal": 4267,
      "asks": 4268,
      "isation": 4269,
      "item": 4270,
      "acid": 4271,
      "note": 4272,
      "neolithic": 4273,
      "apers": 4274,
      "propos": 4275,
      "duties": 4276,
      "ques": 4277,
      "crimin": 4278,
      "fled": 4279,
      "background": 4280,
      "colony": 4281,
      "cert": 4282,
      "trust": 4283,
      "dependent": 4284,
      "programs": 4285,
      "performing": 4286,
      "recognized": 4287,
      "transportation": 4288,
      "conduct": 4289,
      "embarked": 4290,
      "confirmed": 4291,
      "washington": 4292,
      "split": 4293,
      "parallel": 4294,
      "widespread": 4295,
      "zhou": 4296,
      "theory": 4297,
      "prove": 4298,
      "share": 4299,
      "exhib": 4300,
      "manchester": 4301,
      "hope": 4302,
      "homes": 4303,
      "max": 4304,
      "someone": 4305,
      "1988": 4306,
      "rising": 4307,
      "patro": 4308,
      "results": 4309,
      "everyone": 4310,
      "coastal": 4311,
      "rane": 4312,
      "cougar": 4313,
      "structures": 4314,
      "hoped": 4315,
      "premier": 4316,
      "bottom": 4317,
      "franchise": 4318,
      "65": 4319,
      "8th": 4320,
      "jevo": 4321,
      "coal": 4322,
      "cole": 4323,
      "kept": 4324,
      "illino": 4325,
      "monitor": 4326,
      "frag": 4327,
      "ideas": 4328,
      "succeed": 4329,
      "apply": 4330,
      "sequel": 4331,
      "involve": 4332,
      "experienced": 4333,
      "constit": 4334,
      "discussion": 4335,
      "violence": 4336,
      "occasions": 4337,
      "catech": 4338,
      "prominent": 4339,
      "sarajevo": 4340,
      "llosa": 4341,
      "9th": 4342,
      "ech": 4343,
      "sapr": 4344,
      "sley": 4345,
      "table": 4346,
      "enjoy": 4347,
      "cook": 4348,
      "implement": 4349,
      "moment": 4350,
      "mosley": 4351,
      "agen": 4352,
      "essential": 4353,
      "tonin": 4354,
      "wealth": 4355,
      "rend": 4356,
      "singing": 4357,
      "cardiff": 4358,
      "cake": 4359,
      "consisted": 4360,
      "counts": 4361,
      "clock": 4362,
      "americ": 4363,
      "opera": 4364,
      "attacked": 4365,
      "wound": 4366,
      "leagues": 4367,
      "defence": 4368,
      "closely": 4369,
      "treas": 4370,
      "coup": 4371,
      "israeli": 4372,
      "railway": 4373,
      "scholars": 4374,
      "lords": 4375,
      "currently": 4376,
      "louis": 4377,
      "alleged": 4378,
      "battleships": 4379,
      "meyerbeer": 4380,
      "domestic": 4381,
      "imperial": 4382,
      "saprang": 4383,
      "fash": 4384,
      "slayer": 4385,
      "tho": 4386,
      "thetic": 4387,
      "arts": 4388,
      "bear": 4389,
      "igation": 4390,
      "plain": 4391,
      "twins": 4392,
      "guest": 4393,
      "flag": 4394,
      "internet": 4395,
      "understand": 4396,
      "brook": 4397,
      "starts": 4398,
      "helms": 4399,
      "vari": 4400,
      "decline": 4401,
      "favour": 4402,
      "croatia": 4403,
      "hungarian": 4404,
      "witness": 4405,
      "kra": 4406,
      "mn": 4407,
      "oso": 4408,
      "sand": 4409,
      "sest": 4410,
      "swe": 4411,
      "va": 4412,
      "alab": 4413,
      "arrange": 4414,
      "isis": 4415,
      "concess": 4416,
      "agric": 4417,
      "illu": 4418,
      "prefer": 4419,
      "shell": 4420,
      "pray": 4421,
      "intention": 4422,
      "nucle": 4423,
      "interchange": 4424,
      "juan": 4425,
      "charges": 4426,
      "closest": 4427,
      "showed": 4428,
      "truth": 4429,
      "improved": 4430,
      "growing": 4431,
      "discovery": 4432,
      "pieces": 4433,
      "panel": 4434,
      "repeated": 4435,
      "powers": 4436,
      "chapter": 4437,
      "adapted": 4438,
      "palestin": 4439,
      "surrounding": 4440,
      "defeated": 4441,
      "territories": 4442,
      "emotional": 4443,
      "catechism": 4444,
      "fare": 4445,
      "fits": 4446,
      "theas": 4447,
      "stable": 4448,
      "leon": 4449,
      "lewis": 4450,
      "modi": 4451,
      "motor": 4452,
      "mechan": 4453,
      "ula": 4454,
      "presents": 4455,
      "temples": 4456,
      "releg": 4457,
      "morrison": 4458,
      "capable": 4459,
      "stock": 4460,
      "invas": 4461,
      "planet": 4462,
      "viewers": 4463,
      "1942": 4464,
      "everything": 4465,
      "designated": 4466,
      "belonged": 4467,
      "dream": 4468,
      "attracted": 4469,
      "haiti": 4470,
      "olympic": 4471,
      "accommodate": 4472,
      "saturday": 4473,
      "assembly": 4474,
      "4th": 4475,
      "cens": 4476,
      "dess": 4477,
      "sir": 4478,
      "ya": 4479,
      "aded": 4480,
      "berg": 4481,
      "boston": 4482,
      "firm": 4483,
      "aked": 4484,
      "holoc": 4485,
      "print": 4486,
      "fixed": 4487,
      "intent": 4488,
      "correspond": 4489,
      "correct": 4490,
      "goddess": 4491,
      "talk": 4492,
      "towns": 4493,
      "identify": 4494,
      "appropri": 4495,
      "1961": 4496,
      "1964": 4497,
      "flee": 4498,
      "posted": 4499,
      "austro": 4500,
      "freed": 4501,
      "palestine": 4502,
      "methods": 4503,
      "equipment": 4504,
      "admiral": 4505,
      "category": 4506,
      "ranean": 4507,
      "holocaust": 4508,
      "46": 4509,
      "jes": 4510,
      "oak": 4511,
      "ssing": 4512,
      "ancy": 4513,
      "alo": 4514,
      "ari": 4515,
      "isle": 4516,
      "core": 4517,
      "amate": 4518,
      "hell": 4519,
      "resign": 4520,
      "timore": 4521,
      "iana": 4522,
      "crime": 4523,
      "phone": 4524,
      "subjected": 4525,
      "offense": 4526,
      "icks": 4527,
      "setting": 4528,
      "download": 4529,
      "broke": 4530,
      "publication": 4531,
      "passeng": 4532,
      "courts": 4533,
      "easy": 4534,
      "protection": 4535,
      "patrick": 4536,
      "connection": 4537,
      "agogue": 4538,
      "earliest": 4539,
      "occupation": 4540,
      "synagogue": 4541,
      "chelsea": 4542,
      "cruisers": 4543,
      "angeles": 4544,
      "casualties": 4545,
      "amateur": 4546,
      "72": 4547,
      "card": 4548,
      "dun": 4549,
      "gment": 4550,
      "oh": 4551,
      "task": 4552,
      "wers": 4553,
      "stad": 4554,
      "bee": 4555,
      "impression": 4556,
      "agent": 4557,
      "shor": 4558,
      "fear": 4559,
      "illa": 4560,
      "herit": 4561,
      "brand": 4562,
      "crete": 4563,
      "disease": 4564,
      "grace": 4565,
      "transit": 4566,
      "knots": 4567,
      "eleph": 4568,
      "continuing": 4569,
      "talent": 4570,
      "finding": 4571,
      "providing": 4572,
      "regarded": 4573,
      "existence": 4574,
      "democr": 4575,
      "substitute": 4576,
      "debate": 4577,
      "waters": 4578,
      "illinois": 4579,
      "fashion": 4580,
      "dor": 4581,
      "iently": 4582,
      "smith": 4583,
      "thak": 4584,
      "remix": 4585,
      "ada": 4586,
      "accompany": 4587,
      "why": 4588,
      "trail": 4589,
      "composed": 4590,
      "strapping": 4591,
      "creating": 4592,
      "minnes": 4593,
      "eva": 4594,
      "spain": 4595,
      "scar": 4596,
      "caa": 4597,
      "steve": 4598,
      "youth": 4599,
      "advent": 4600,
      "1984": 4601,
      "seeking": 4602,
      "borough": 4603,
      "falling": 4604,
      "choose": 4605,
      "arkansas": 4606,
      "calcul": 4607,
      "criticism": 4608,
      "collap": 4609,
      "practices": 4610,
      "challeng": 4611,
      "documentary": 4612,
      "contribution": 4613,
      "institutions": 4614,
      "negative": 4615,
      "weapons": 4616,
      "fresh": 4617,
      "rescue": 4618,
      "wanderers": 4619,
      "minnesota": 4620,
      "56": 4621,
      "mere": 4622,
      "nie": 4623,
      "pack": 4624,
      "pak": 4625,
      "rh": 4626,
      "tip": 4627,
      "anna": 4628,
      "unger": 4629,
      "assumed": 4630,
      "ils": 4631,
      "neither": 4632,
      "shop": 4633,
      "contact": 4634,
      "owners": 4635,
      "cked": 4636,
      "cric": 4637,
      "barker": 4638,
      "headed": 4639,
      "1987": 4640,
      "greatly": 4641,
      "evening": 4642,
      "putting": 4643,
      "younger": 4644,
      "glass": 4645,
      "storyline": 4646,
      "rules": 4647,
      "700": 4648,
      "kin": 4649,
      "ume": 4650,
      "insu": 4651,
      "asy": 4652,
      "ases": 4653,
      "rob": 4654,
      "lee": 4655,
      "devoted": 4656,
      "iguan": 4657,
      "tery": 4658,
      "moves": 4659,
      "peters": 4660,
      "promp": 4661,
      "permitted": 4662,
      "clay": 4663,
      "fee": 4664,
      "dutch": 4665,
      "ipal": 4666,
      "ciples": 4667,
      "bled": 4668,
      "prey": 4669,
      "destru": 4670,
      "crus": 4671,
      "offensive": 4672,
      "sche": 4673,
      "direction": 4674,
      "organiz": 4675,
      "baltimore": 4676,
      "entering": 4677,
      "hoping": 4678,
      "ruler": 4679,
      "aware": 4680,
      "relatively": 4681,
      "mentioned": 4682,
      "alternative": 4683,
      "eyes": 4684,
      "haifa": 4685,
      "citizens": 4686,
      "95": 4687,
      "fy": 4688,
      "fant": 4689,
      "kh": 4690,
      "lab": 4691,
      "mature": 4692,
      "mtv": 4693,
      "ome": 4694,
      "obl": 4695,
      "rub": 4696,
      "onc": 4697,
      "anton": 4698,
      "edward": 4699,
      "urb": 4700,
      "urged": 4701,
      "urban": 4702,
      "prompt": 4703,
      "rifles": 4704,
      "unders": 4705,
      "noting": 4706,
      "poses": 4707,
      "vised": 4708,
      "simpson": 4709,
      "signing": 4710,
      "penalty": 4711,
      "establishment": 4712,
      "student": 4713,
      "onymous": 4714,
      "sisters": 4715,
      "nyi": 4716,
      "concerned": 4717,
      "funding": 4718,
      "substant": 4719,
      "beyonc": 4720,
      "steps": 4721,
      "jerusal": 4722,
      "preserve": 4723,
      "deployed": 4724,
      "continental": 4725,
      "thousands": 4726,
      "maximum": 4727,
      "americans": 4728,
      "jerusalem": 4729,
      "ahead": 4730,
      "cies": 4731,
      "kent": 4732,
      "kir": 4733,
      "kare": 4734,
      "nis": 4735,
      "oz": 4736,
      "sens": 4737,
      "rets": 4738,
      "rejected": 4739,
      "argent": 4740,
      "roof": 4741,
      "stret": 4742,
      "entry": 4743,
      "tric": 4744,
      "somer": 4745,
      "shared": 4746,
      "1920": 4747,
      "elder": 4748,
      "aud": 4749,
      "austri": 4750,
      "boys": 4751,
      "aft": 4752,
      "uten": 4753,
      "mah": 4754,
      "recru": 4755,
      "tax": 4756,
      "maya": 4757,
      "mediter": 4758,
      "indicate": 4759,
      "producing": 4760,
      "dynam": 4761,
      "basic": 4762,
      "1936": 4763,
      "representative": 4764,
      "battalions": 4765,
      "texts": 4766,
      "pitched": 4767,
      "responsibility": 4768,
      "protests": 4769,
      "wedding": 4770,
      "throne": 4771,
      "candidate": 4772,
      "sustained": 4773,
      "invasion": 4774,
      "pakistan": 4775,
      "somerset": 4776,
      "mediterranean": 4777,
      "94": 4778,
      "cance": 4779,
      "eag": 4780,
      "kim": 4781,
      "mist": 4782,
      "pra": 4783,
      "wy": 4784,
      "inscript": 4785,
      "icles": 4786,
      "entially": 4787,
      "exer": 4788,
      "existed": 4789,
      "ender": 4790,
      "affected": 4791,
      "formula": 4792,
      "display": 4793,
      "izing": 4794,
      "carved": 4795,
      "steam": 4796,
      "1990": 4797,
      "operated": 4798,
      "1989": 4799,
      "holding": 4800,
      "marks": 4801,
      "equal": 4802,
      "involving": 4803,
      "promise": 4804,
      "houston": 4805,
      "credit": 4806,
      "fictional": 4807,
      "victims": 4808,
      "fernandez": 4809,
      "64": 4810,
      "fame": 4811,
      "knew": 4812,
      "nur": 4813,
      "resembl": 4814,
      "itled": 4815,
      "cool": 4816,
      "accompan": 4817,
      "deck": 4818,
      "deleg": 4819,
      "wasp": 4820,
      "ira": 4821,
      "concrete": 4822,
      "wie": 4823,
      "supre": 4824,
      "shaped": 4825,
      "expo": 4826,
      "gray": 4827,
      "cancer": 4828,
      "frame": 4829,
      "filmed": 4830,
      "writings": 4831,
      "churches": 4832,
      "vargas": 4833,
      "clean": 4834,
      "traded": 4835,
      "egyptians": 4836,
      "focusing": 4837,
      "madison": 4838,
      "doub": 4839,
      "explained": 4840,
      "mccall": 4841,
      "independence": 4842,
      "details": 4843,
      "athletes": 4844,
      "abandoned": 4845,
      "specimen": 4846,
      "specimens": 4847,
      "scottish": 4848,
      "opinion": 4849,
      "exclusively": 4850,
      "industrial": 4851,
      "benefit": 4852,
      "seventeen": 4853,
      "stadium": 4854,
      "61": 4855,
      "kid": 4856,
      "mv": 4857,
      "mates": 4858,
      "renew": 4859,
      "seal": 4860,
      "images": 4861,
      "superi": 4862,
      "diplo": 4863,
      "females": 4864,
      "brid": 4865,
      "marsh": 4866,
      "maria": 4867,
      "norway": 4868,
      "grade": 4869,
      "speaking": 4870,
      "phen": 4871,
      "leaders": 4872,
      "missis": 4873,
      "transition": 4874,
      "calls": 4875,
      "senior": 4876,
      "lieuten": 4877,
      "peninsu": 4878,
      "seeing": 4879,
      "mask": 4880,
      "horses": 4881,
      "travelled": 4882,
      "volume": 4883,
      "gradu": 4884,
      "virt": 4885,
      "wanting": 4886,
      "circum": 4887,
      "sector": 4888,
      "engineers": 4889,
      "sippi": 4890,
      "economy": 4891,
      "russian": 4892,
      "adopted": 4893,
      "struggle": 4894,
      "victoria": 4895,
      "happened": 4896,
      "eliminate": 4897,
      "administration": 4898,
      "mississippi": 4899,
      "peninsula": 4900,
      "circumst": 4901,
      "lam": 4902,
      "sb": 4903,
      "taught": 4904,
      "enable": 4905,
      "aska": 4906,
      "arthur": 4907,
      "icop": 4908,
      "stick": 4909,
      "lets": 4910,
      "becomes": 4911,
      "prog": 4912,
      "cles": 4913,
      "parted": 4914,
      "duty": 4915,
      "turrets": 4916,
      "attended": 4917,
      "speech": 4918,
      "fras": 4919,
      "relating": 4920,
      "mye": 4921,
      "decades": 4922,
      "seconds": 4923,
      "followers": 4924,
      "helicop": 4925,
      "systems": 4926,
      "1931": 4927,
      "glid": 4928,
      "golden": 4929,
      "honour": 4930,
      "sessions": 4931,
      "animals": 4932,
      "confess": 4933,
      "dropped": 4934,
      "stanley": 4935,
      "technique": 4936,
      "techniques": 4937,
      "sculpture": 4938,
      "dicta": 4939,
      "gabbar": 4940,
      "items": 4941,
      "alabama": 4942,
      "cad": 4943,
      "cbs": 4944,
      "hart": 4945,
      "kak": 4946,
      "nin": 4947,
      "tie": 4948,
      "anni": 4949,
      "erick": 4950,
      "atmo": 4951,
      "enforce": 4952,
      "isol": 4953,
      "outer": 4954,
      "iled": 4955,
      "ague": 4956,
      "1929": 4957,
      "parish": 4958,
      "parvat": 4959,
      "airline": 4960,
      "turning": 4961,
      "versary": 4962,
      "winner": 4963,
      "custom": 4964,
      "250": 4965,
      "facing": 4966,
      "describes": 4967,
      "effectively": 4968,
      "politics": 4969,
      "laws": 4970,
      "purposes": 4971,
      "introduction": 4972,
      "stationed": 4973,
      "arrive": 4974,
      "destroyers": 4975,
      "target": 4976,
      "rangers": 4977,
      "surviv": 4978,
      "premiered": 4979,
      "connecting": 4980,
      "speaker": 4981,
      "shooting": 4982,
      "experiment": 4983,
      "learned": 4984,
      "swedish": 4985,
      "neighbor": 4986,
      "deemed": 4987,
      "kakapo": 4988,
      "anniversary": 4989,
      "atmosp": 4990,
      "parvati": 4991,
      "ield": 4992,
      "snow": 4993,
      "slip": 4994,
      "tends": 4995,
      "zz": 4996,
      "insur": 4997,
      "reau": 4998,
      "routes": 4999,
      "iments": 5000,
      "comments": 5001,
      "bureau": 5002,
      "rivers": 5003,
      "goat": 5004,
      "formally": 5005,
      "preced": 5006,
      "computer": 5007,
      "somewhat": 5008,
      "jeff": 5009,
      "charter": 5010,
      "logical": 5011,
      "accident": 5012,
      "considers": 5013,
      "faces": 5014,
      "reality": 5015,
      "developing": 5016,
      "claiming": 5017,
      "1972": 5018,
      "wooden": 5019,
      "sequence": 5020,
      "balance": 5021,
      "influences": 5022,
      "belt": 5023,
      "focuses": 5024,
      "relationships": 5025,
      "mcc": 5026,
      "museums": 5027,
      "sexuality": 5028,
      "daniel": 5029,
      "rays": 5030,
      "advancing": 5031,
      "purchased": 5032,
      "sufficiently": 5033,
      "loud": 5034,
      "armored": 5035,
      "depicts": 5036,
      "palestinian": 5037,
      "jesus": 5038,
      "cub": 5039,
      "fought": 5040,
      "hamp": 5041,
      "punt": 5042,
      "sort": 5043,
      "tank": 5044,
      "yan": 5045,
      "entitled": 5046,
      "cope": 5047,
      "lyn": 5048,
      "wid": 5049,
      "poles": 5050,
      "agno": 5051,
      "nown": 5052,
      "suic": 5053,
      "aret": 5054,
      "clou": 5055,
      "owed": 5056,
      "acknow": 5057,
      "20th": 5058,
      "evita": 5059,
      "recently": 5060,
      "18th": 5061,
      "flu": 5062,
      "flat": 5063,
      "charted": 5064,
      "useful": 5065,
      "indic": 5066,
      "appearing": 5067,
      "venus": 5068,
      "remainder": 5069,
      "justice": 5070,
      "burg": 5071,
      "1952": 5072,
      "strategy": 5073,
      "executive": 5074,
      "restricted": 5075,
      "satis": 5076,
      "briefly": 5077,
      "dissipated": 5078,
      "fungus": 5079,
      "tournament": 5080,
      "theastern": 5081,
      "iguanodon": 5082,
      "bart": 5083,
      "bones": 5084,
      "iated": 5085,
      "lights": 5086,
      "pure": 5087,
      "tions": 5088,
      "yank": 5089,
      "thai": 5090,
      "inity": 5091,
      "stic": 5092,
      "lection": 5093,
      "amend": 5094,
      "wasn": 5095,
      "heard": 5096,
      "agon": 5097,
      "sher": 5098,
      "perhap": 5099,
      "aker": 5100,
      "dock": 5101,
      "older": 5102,
      "understanding": 5103,
      "fourteen": 5104,
      "valid": 5105,
      "requires": 5106,
      "views": 5107,
      "dram": 5108,
      "camps": 5109,
      "alien": 5110,
      "killing": 5111,
      "protein": 5112,
      "queens": 5113,
      "suggests": 5114,
      "expensive": 5115,
      "broadway": 5116,
      "columbia": 5117,
      "acceptable": 5118,
      "argued": 5119,
      "reasons": 5120,
      "macle": 5121,
      "habitat": 5122,
      "alexander": 5123,
      "entertainment": 5124,
      "paintings": 5125,
      "appropriate": 5126,
      "yankovic": 5127,
      "perhaps": 5128,
      "cli": 5129,
      "hits": 5130,
      "nights": 5131,
      "pup": 5132,
      "sle": 5133,
      "von": 5134,
      "vac": 5135,
      "thesis": 5136,
      "ises": 5137,
      "stin": 5138,
      "sect": 5139,
      "amun": 5140,
      "veer": 5141,
      "abs": 5142,
      "lide": 5143,
      "dub": 5144,
      "affect": 5145,
      "homer": 5146,
      "otherwise": 5147,
      "distributed": 5148,
      "intend": 5149,
      "shipping": 5150,
      "parties": 5151,
      "visual": 5152,
      "soul": 5153,
      "tale": 5154,
      "accused": 5155,
      "passage": 5156,
      "solid": 5157,
      "clubs": 5158,
      "romani": 5159,
      "expans": 5160,
      "cruise": 5161,
      "pitcher": 5162,
      "regarding": 5163,
      "atlanta": 5164,
      "leukemic": 5165,
      "immediate": 5166,
      "concentrated": 5167,
      "scholarship": 5168,
      "jump": 5169,
      "bruins": 5170,
      "trials": 5171,
      "qualify": 5172,
      "exposure": 5173,
      "superior": 5174,
      "diplomatic": 5175,
      "ninth": 5176,
      "34": 5177,
      "dur": 5178,
      "fold": 5179,
      "gained": 5180,
      "lisa": 5181,
      "ti": 5182,
      "vas": 5183,
      "anonymous": 5184,
      "editor": 5185,
      "atro": 5186,
      "enix": 5187,
      "asking": 5188,
      "adjust": 5189,
      "admitted": 5190,
      "buy": 5191,
      "shif": 5192,
      "rific": 5193,
      "dian": 5194,
      "porters": 5195,
      "notable": 5196,
      "cious": 5197,
      "sie": 5198,
      "evil": 5199,
      "sons": 5200,
      "anyone": 5201,
      "whereas": 5202,
      "160": 5203,
      "refusing": 5204,
      "finds": 5205,
      "communications": 5206,
      "comparison": 5207,
      "holds": 5208,
      "effective": 5209,
      "studios": 5210,
      "palace": 5211,
      "strongly": 5212,
      "decisions": 5213,
      "medium": 5214,
      "concerns": 5215,
      "explain": 5216,
      "narr": 5217,
      "teeth": 5218,
      "materials": 5219,
      "temporarily": 5220,
      "replacement": 5221,
      "ambass": 5222,
      "execu": 5223,
      "corporation": 5224,
      "powered": 5225,
      "obtained": 5226,
      "observatory": 5227,
      "extremely": 5228,
      "initiative": 5229,
      "playoffs": 5230,
      "tactics": 5231,
      "darwin": 5232,
      "snl": 5233,
      "pregnancy": 5234,
      "apparently": 5235,
      "frederick": 5236,
      "destruction": 5237,
      "supreme": 5238,
      "lieutenant": 5239,
      "dictator": 5240,
      "fing": 5241,
      "ligh": 5242,
      "pian": 5243,
      "wished": 5244,
      "yu": 5245,
      "yle": 5246,
      "remo": 5247,
      "asian": 5248,
      "ilton": 5249,
      "acles": 5250,
      "dem": 5251,
      "devin": 5252,
      "convoy": 5253,
      "heat": 5254,
      "compounds": 5255,
      "nett": 5256,
      "apple": 5257,
      "resour": 5258,
      "1915": 5259,
      "owing": 5260,
      "bles": 5261,
      "hore": 5262,
      "formal": 5263,
      "atty": 5264,
      "norm": 5265,
      "monarch": 5266,
      "crim": 5267,
      "charlot": 5268,
      "gency": 5269,
      "submitted": 5270,
      "mortal": 5271,
      "stores": 5272,
      "trophy": 5273,
      "classes": 5274,
      "solution": 5275,
      "collected": 5276,
      "helping": 5277,
      "archaeologists": 5278,
      "funer": 5279,
      "erog": 5280,
      "copy": 5281,
      "surviving": 5282,
      "problem": 5283,
      "finishing": 5284,
      "document": 5285,
      "bombard": 5286,
      "brothers": 5287,
      "spaces": 5288,
      "escort": 5289,
      "mobile": 5290,
      "skills": 5291,
      "dispatched": 5292,
      "eagle": 5293,
      "ambassador": 5294,
      "charlotte": 5295,
      "88": 5296,
      "96": 5297,
      "ecess": 5298,
      "kr": 5299,
      "kang": 5300,
      "mile": 5301,
      "sid": 5302,
      "erted": 5303,
      "edkare": 5304,
      "asc": 5305,
      "cock": 5306,
      "acity": 5307,
      "noise": 5308,
      "ordon": 5309,
      "afford": 5310,
      "blu": 5311,
      "visitors": 5312,
      "locations": 5313,
      "10th": 5314,
      "passes": 5315,
      "famous": 5316,
      "scope": 5317,
      "pleas": 5318,
      "burns": 5319,
      "masters": 5320,
      "communist": 5321,
      "placing": 5322,
      "tells": 5323,
      "enterprise": 5324,
      "teachers": 5325,
      "philoso": 5326,
      "hollywood": 5327,
      "joining": 5328,
      "memory": 5329,
      "graphic": 5330,
      "feeling": 5331,
      "predecess": 5332,
      "stayed": 5333,
      "settled": 5334,
      "suffering": 5335,
      "preserved": 5336,
      "welsh": 5337,
      "pushed": 5338,
      "athletic": 5339,
      "reserve": 5340,
      "legislation": 5341,
      "djedkare": 5342,
      "poetry": 5343,
      "technology": 5344,
      "heritage": 5345,
      "prompted": 5346,
      "suicide": 5347,
      "130": 5348,
      "41": 5349,
      "dish": 5350,
      "dna": 5351,
      "fine": 5352,
      "gor": 5353,
      "kan": 5354,
      "tall": 5355,
      "zo": 5356,
      "thm": 5357,
      "inland": 5358,
      "inje": 5359,
      "assembl": 5360,
      "orient": 5361,
      "ites": 5362,
      "lev": 5363,
      "acute": 5364,
      "det": 5365,
      "terror": 5366,
      "els": 5367,
      "portu": 5368,
      "contained": 5369,
      "turk": 5370,
      "distribut": 5371,
      "partly": 5372,
      "cry": 5373,
      "jews": 5374,
      "medway": 5375,
      "warning": 5376,
      "highlight": 5377,
      "submarine": 5378,
      "howard": 5379,
      "depicted": 5380,
      "talking": 5381,
      "1948": 5382,
      "advice": 5383,
      "factors": 5384,
      "approved": 5385,
      "reading": 5386,
      "1967": 5387,
      "extends": 5388,
      "communities": 5389,
      "cution": 5390,
      "bush": 5391,
      "retire": 5392,
      "ministry": 5393,
      "richmond": 5394,
      "vietnames": 5395,
      "crews": 5396,
      "affair": 5397,
      "excavations": 5398,
      "carrying": 5399,
      "participated": 5400,
      "giants": 5401,
      "suitable": 5402,
      "detect": 5403,
      "anzac": 5404,
      "strategic": 5405,
      "organizations": 5406,
      "accompanied": 5407,
      "normally": 5408,
      "vietnamese": 5409,
      "bind": 5410,
      "dd": 5411,
      "gby": 5412,
      "kg": 5413,
      "rig": 5414,
      "zil": 5415,
      "reform": 5416,
      "arte": 5417,
      "icts": 5418,
      "seat": 5419,
      "commemor": 5420,
      "1919": 5421,
      "diagno": 5422,
      "mario": 5423,
      "landed": 5424,
      "posit": 5425,
      "partner": 5426,
      "interests": 5427,
      "interested": 5428,
      "mainland": 5429,
      "eleven": 5430,
      "1947": 5431,
      "successor": 5432,
      "1960s": 5433,
      "extend": 5434,
      "characteristics": 5435,
      "universal": 5436,
      "1937": 5437,
      "representing": 5438,
      "rugby": 5439,
      "waiting": 5440,
      "looked": 5441,
      "circle": 5442,
      "ranging": 5443,
      "criticized": 5444,
      "recognize": 5445,
      "doesn": 5446,
      "railroad": 5447,
      "survived": 5448,
      "measures": 5449,
      "objects": 5450,
      "gift": 5451,
      "consisting": 5452,
      "frequent": 5453,
      "engineering": 5454,
      "negotiate": 5455,
      "restored": 5456,
      "message": 5457,
      "punish": 5458,
      "soft": 5459,
      "andrew": 5460,
      "megaliths": 5461,
      "involvement": 5462,
      "concession": 5463,
      "macleod": 5464,
      "cd": 5465,
      "gordon": 5466,
      "hud": 5467,
      "ito": 5468,
      "iet": 5469,
      "ki": 5470,
      "nast": 5471,
      "phas": 5472,
      "ske": 5473,
      "uct": 5474,
      "xen": 5475,
      "relocated": 5476,
      "unte": 5477,
      "arc": 5478,
      "accounts": 5479,
      "amy": 5480,
      "agency": 5481,
      "olence": 5482,
      "abilities": 5483,
      "exchange": 5484,
      "ardo": 5485,
      "landings": 5486,
      "dore": 5487,
      "pressing": 5488,
      "grave": 5489,
      "adequ": 5490,
      "regions": 5491,
      "decor": 5492,
      "offers": 5493,
      "indolence": 5494,
      "longest": 5495,
      "1990s": 5496,
      "statement": 5497,
      "merge": 5498,
      "breed": 5499,
      "grey": 5500,
      "bah": 5501,
      "metall": 5502,
      "drawing": 5503,
      "volunte": 5504,
      "recognition": 5505,
      "advised": 5506,
      "favorite": 5507,
      "acceler": 5508,
      "participate": 5509,
      "beaten": 5510,
      "frequently": 5511,
      "drums": 5512,
      "hundreds": 5513,
      "historian": 5514,
      "thirty": 5515,
      "eighth": 5516,
      "adults": 5517,
      "doubt": 5518,
      "resources": 5519,
      "xenon": 5520,
      "caught": 5521,
      "dden": 5522,
      "gw": 5523,
      "jurch": 5524,
      "nad": 5525,
      "psy": 5526,
      "rating": 5527,
      "tade": 5528,
      "online": 5529,
      "rever": 5530,
      "remn": 5531,
      "asi": 5532,
      "ros": 5533,
      "roots": 5534,
      "icit": 5535,
      "convic": 5536,
      "usz": 5537,
      "aggress": 5538,
      "clin": 5539,
      "fection": 5540,
      "strict": 5541,
      "bling": 5542,
      "udes": 5543,
      "spur": 5544,
      "frig": 5545,
      "cargo": 5546,
      "colleagues": 5547,
      "wright": 5548,
      "symp": 5549,
      "mike": 5550,
      "capacity": 5551,
      "element": 5552,
      "bari": 5553,
      "populations": 5554,
      "heads": 5555,
      "1945": 5556,
      "1982": 5557,
      "weekly": 5558,
      "shots": 5559,
      "ibility": 5560,
      "profit": 5561,
      "1954": 5562,
      "loyal": 5563,
      "criticised": 5564,
      "rooms": 5565,
      "filled": 5566,
      "explore": 5567,
      "greek": 5568,
      "depicting": 5569,
      "martin": 5570,
      "sculptures": 5571,
      "scientists": 5572,
      "occasionally": 5573,
      "environment": 5574,
      "restrictions": 5575,
      "freedom": 5576,
      "siege": 5577,
      "tadeusz": 5578,
      "aa": 5579,
      "aur": 5580,
      "pum": 5581,
      "patty": 5582,
      "informed": 5583,
      "inspir": 5584,
      "reput": 5585,
      "reception": 5586,
      "accur": 5587,
      "forth": 5588,
      "condem": 5589,
      "wider": 5590,
      "romantic": 5591,
      "allies": 5592,
      "estate": 5593,
      "exact": 5594,
      "manual": 5595,
      "quo": 5596,
      "actual": 5597,
      "dota": 5598,
      "hotel": 5599,
      "fined": 5600,
      "mail": 5601,
      "spending": 5602,
      "renamed": 5603,
      "wrong": 5604,
      "consol": 5605,
      "schedu": 5606,
      "surpr": 5607,
      "mium": 5608,
      "controller": 5609,
      "burgh": 5610,
      "hamilton": 5611,
      "handed": 5612,
      "1960": 5613,
      "cash": 5614,
      "protected": 5615,
      "1973": 5616,
      "1979": 5617,
      "skull": 5618,
      "salary": 5619,
      "arrival": 5620,
      "assistance": 5621,
      "carries": 5622,
      "preparing": 5623,
      "occupy": 5624,
      "massive": 5625,
      "considerable": 5626,
      "amounts": 5627,
      "brian": 5628,
      "interesting": 5629,
      "judge": 5630,
      "motiv": 5631,
      "institution": 5632,
      "astron": 5633,
      "nazi": 5634,
      "ratings": 5635,
      "istol": 5636,
      "myelo": 5637,
      "cadmium": 5638,
      "piano": 5639,
      "reputation": 5640,
      "schedule": 5641,
      "ape": 5642,
      "gill": 5643,
      "sending": 5644,
      "vary": 5645,
      "yield": 5646,
      "ision": 5647,
      "stap": 5648,
      "irt": 5649,
      "lover": 5650,
      "peaking": 5651,
      "romes": 5652,
      "perspect": 5653,
      "divisions": 5654,
      "expression": 5655,
      "bron": 5656,
      "engines": 5657,
      "sses": 5658,
      "indicated": 5659,
      "filming": 5660,
      "simple": 5661,
      "howe": 5662,
      "derived": 5663,
      "oba": 5664,
      "prize": 5665,
      "musician": 5666,
      "identity": 5667,
      "advoc": 5668,
      "signal": 5669,
      "lanes": 5670,
      "classical": 5671,
      "describing": 5672,
      "lesser": 5673,
      "communication": 5674,
      "changing": 5675,
      "1970": 5676,
      "province": 5677,
      "treated": 5678,
      "mountains": 5679,
      "explor": 5680,
      "phoenix": 5681,
      "regularly": 5682,
      "application": 5683,
      "banks": 5684,
      "concentrate": 5685,
      "multi": 5686,
      "expert": 5687,
      "sacrific": 5688,
      "richardson": 5689,
      "constantine": 5690,
      "crowd": 5691,
      "hawai": 5692,
      "aerodromes": 5693,
      "certified": 5694,
      "illustr": 5695,
      "survivors": 5696,
      "expansion": 5697,
      "narrative": 5698,
      "53": 5699,
      "55": 5700,
      "85": 5701,
      "uly": 5702,
      "inte": 5703,
      "orches": 5704,
      "rox": 5705,
      "chest": 5706,
      "sections": 5707,
      "forty": 5708,
      "igan": 5709,
      "twin": 5710,
      "partial": 5711,
      "partially": 5712,
      "compon": 5713,
      "centuries": 5714,
      "causes": 5715,
      "myster": 5716,
      "sym": 5717,
      "submit": 5718,
      "decade": 5719,
      "thanks": 5720,
      "elect": 5721,
      "showing": 5722,
      "covering": 5723,
      "cyto": 5724,
      "organize": 5725,
      "bai": 5726,
      "harbor": 5727,
      "ski": 5728,
      "dawn": 5729,
      "motherapy": 5730,
      "philip": 5731,
      "chemotherapy": 5732,
      "spore": 5733,
      "princess": 5734,
      "suggesting": 5735,
      "celebrate": 5736,
      "lasted": 5737,
      "learning": 5738,
      "persuade": 5739,
      "revenge": 5740,
      "circulation": 5741,
      "believing": 5742,
      "hunting": 5743,
      "conservation": 5744,
      "accomplish": 5745,
      "krak": 5746,
      "nucleus": 5747,
      "fantasy": 5748,
      "exerc": 5749,
      "ulysses": 5750,
      "69": 5751,
      "87": 5752,
      "dney": 5753,
      "eat": 5754,
      "iar": 5755,
      "jain": 5756,
      "mate": 5757,
      "wave": 5758,
      "toms": 5759,
      "recreation": 5760,
      "ende": 5761,
      "encounter": 5762,
      "unknown": 5763,
      "stef": 5764,
      "chain": 5765,
      "beau": 5766,
      "ilit": 5767,
      "dean": 5768,
      "trig": 5769,
      "idol": 5770,
      "proxim": 5771,
      "plum": 5772,
      "soil": 5773,
      "rifle": 5774,
      "allen": 5775,
      "1916": 5776,
      "perce": 5777,
      "manner": 5778,
      "toronto": 5779,
      "option": 5780,
      "doctor": 5781,
      "mono": 5782,
      "tape": 5783,
      "gameplay": 5784,
      "pene": 5785,
      "realm": 5786,
      "horus": 5787,
      "solve": 5788,
      "bases": 5789,
      "denied": 5790,
      "strip": 5791,
      "introduce": 5792,
      "summon": 5793,
      "meetings": 5794,
      "mediate": 5795,
      "difficulties": 5796,
      "relied": 5797,
      "reliance": 5798,
      "feelings": 5799,
      "exeter": 5800,
      "emerged": 5801,
      "solely": 5802,
      "confirm": 5803,
      "fuel": 5804,
      "confederate": 5805,
      "opponents": 5806,
      "lbw": 5807,
      "disrupt": 5808,
      "camera": 5809,
      "eggs": 5810,
      "criminal": 5811,
      "prompting": 5812,
      "dynamic": 5813,
      "circumstances": 5814,
      "nasty": 5815,
      "phase": 5816,
      "skele": 5817,
      "proximity": 5818,
      "57": 5819,
      "71": 5820,
      "bce": 5821,
      "dered": 5822,
      "hindu": 5823,
      "jon": 5824,
      "jar": 5825,
      "kins": 5826,
      "mum": 5827,
      "pine": 5828,
      "ust": 5829,
      "ube": 5830,
      "vation": 5831,
      "thro": 5832,
      "inde": 5833,
      "ono": 5834,
      "asia": 5835,
      "rot": 5836,
      "stim": 5837,
      "beth": 5838,
      "acle": 5839,
      "ammun": 5840,
      "lob": 5841,
      "confined": 5842,
      "abc": 5843,
      "resigned": 5844,
      "ultural": 5845,
      "rie": 5846,
      "1917": 5847,
      "elabor": 5848,
      "quit": 5849,
      "affil": 5850,
      "fert": 5851,
      "sial": 5852,
      "blues": 5853,
      "dot": 5854,
      "maat": 5855,
      "miner": 5856,
      "airports": 5857,
      "article": 5858,
      "compens": 5859,
      "jose": 5860,
      "roughly": 5861,
      "singapo": 5862,
      "surprise": 5863,
      "1980s": 5864,
      "1969": 5865,
      "1935": 5866,
      "glades": 5867,
      "deaths": 5868,
      "shoulder": 5869,
      "battlefield": 5870,
      "crossing": 5871,
      "medieval": 5872,
      "divor": 5873,
      "supervis": 5874,
      "hosted": 5875,
      "poorly": 5876,
      "substance": 5877,
      "maintained": 5878,
      "subjects": 5879,
      "montreal": 5880,
      "russia": 5881,
      "demands": 5882,
      "sacred": 5883,
      "reinforcements": 5884,
      "interpret": 5885,
      "eccles": 5886,
      "1950s": 5887,
      "assassination": 5888,
      "chairman": 5889,
      "controversial": 5890,
      "agricultural": 5891,
      "cricket": 5892,
      "substantial": 5893,
      "stretch": 5894,
      "turkish": 5895,
      "stefan": 5896,
      "ammunition": 5897,
      "singapore": 5898,
      "110": 5899,
      "cure": 5900,
      "flower": 5901,
      "gia": 5902,
      "haven": 5903,
      "kore": 5904,
      "pm": 5905,
      "za": 5906,
      "zr": 5907,
      "ering": 5908,
      "unite": 5909,
      "unsuccessful": 5910,
      "unlikely": 5911,
      "aston": 5912,
      "chor": 5913,
      "amph": 5914,
      "departed": 5915,
      "imposed": 5916,
      "immig": 5917,
      "height": 5918,
      "melo": 5919,
      "empt": 5920,
      "oldest": 5921,
      "otion": 5922,
      "genre": 5923,
      "appeals": 5924,
      "iff": 5925,
      "downgraded": 5926,
      "muslim": 5927,
      "nationally": 5928,
      "priest": 5929,
      "sentenced": 5930,
      "approval": 5931,
      "1965": 5932,
      "comparing": 5933,
      "universities": 5934,
      "destiny": 5935,
      "1975": 5936,
      "ruth": 5937,
      "driven": 5938,
      "terminus": 5939,
      "encourage": 5940,
      "objective": 5941,
      "devotion": 5942,
      "forests": 5943,
      "investigate": 5944,
      "collaboration": 5945,
      "chapel": 5946,
      "junction": 5947,
      "recovery": 5948,
      "drug": 5949,
      "guardian": 5950,
      "uyghurs": 5951,
      "veeru": 5952,
      "absence": 5953,
      "ients": 5954,
      "khan": 5955,
      "pace": 5956,
      "praise": 5957,
      "ritual": 5958,
      "tts": 5959,
      "tight": 5960,
      "vive": 5961,
      "wrest": 5962,
      "yout": 5963,
      "zher": 5964,
      "zone": 5965,
      "zog": 5966,
      "erzher": 5967,
      "enab": 5968,
      "unusual": 5969,
      "iced": 5970,
      "chess": 5971,
      "beings": 5972,
      "bels": 5973,
      "forbid": 5974,
      "nebr": 5975,
      "shar": 5976,
      "bergen": 5977,
      "timbal": 5978,
      "inclusion": 5979,
      "jobs": 5980,
      "everglades": 5981,
      "downtown": 5982,
      "legs": 5983,
      "generals": 5984,
      "plants": 5985,
      "1946": 5986,
      "burial": 5987,
      "handle": 5988,
      "weekend": 5989,
      "alians": 5990,
      "organised": 5991,
      "australians": 5992,
      "restaur": 5993,
      "niel": 5994,
      "flot": 5995,
      "styles": 5996,
      "champions": 5997,
      "sitting": 5998,
      "driving": 5999,
      "stopped": 6000,
      "nesbit": 6001,
      "ranges": 6002,
      "respectively": 6003,
      "riding": 6004,
      "promotional": 6005,
      "williams": 6006,
      "ultimate": 6007,
      "principles": 6008,
      "examples": 6009,
      "maryland": 6010,
      "shrine": 6011,
      "globe": 6012,
      "global": 6013,
      "jamal": 6014,
      "biography": 6015,
      "recommend": 6016,
      "windows": 6017,
      "false": 6018,
      "elephant": 6019,
      "applewhite": 6020,
      "distribution": 6021,
      "integr": 6022,
      "youtube": 6023,
      "erzherzog": 6024,
      "nebraska": 6025,
      "timbaland": 6026,
      "nesbitt": 6027,
      "89": 6028,
      "91": 6029,
      "eco": 6030,
      "fate": 6031,
      "flies": 6032,
      "iance": 6033,
      "rho": 6034,
      "inations": 6035,
      "revi": 6036,
      "attribut": 6037,
      "unless": 6038,
      "coy": 6039,
      "amid": 6040,
      "comic": 6041,
      "mega": 6042,
      "1910": 6043,
      "liken": 6044,
      "quake": 6045,
      "twel": 6046,
      "cipl": 6047,
      "ferdin": 6048,
      "inet": 6049,
      "creative": 6050,
      "discipl": 6051,
      "shells": 6052,
      "scout": 6053,
      "longacre": 6054,
      "depends": 6055,
      "obst": 6056,
      "operating": 6057,
      "invitation": 6058,
      "valu": 6059,
      "requested": 6060,
      "speculation": 6061,
      "facts": 6062,
      "description": 6063,
      "1963": 6064,
      "1968": 6065,
      "11th": 6066,
      "pale": 6067,
      "telling": 6068,
      "villages": 6069,
      "arriving": 6070,
      "approached": 6071,
      "explicit": 6072,
      "check": 6073,
      "recognised": 6074,
      "hostile": 6075,
      "column": 6076,
      "watching": 6077,
      "annually": 6078,
      "listening": 6079,
      "jersey": 6080,
      "adopt": 6081,
      "emergency": 6082,
      "avenue": 6083,
      "cabinet": 6084,
      "evacuate": 6085,
      "plateau": 6086,
      "crusad": 6087,
      "argentina": 6088,
      "atmosphere": 6089,
      "ferdinand": 6090,
      "3d": 6091,
      "aot": 6092,
      "cket": 6093,
      "ja": 6094,
      "juni": 6095,
      "kon": 6096,
      "kat": 6097,
      "kits": 6098,
      "nas": 6099,
      "pir": 6100,
      "wine": 6101,
      "touring": 6102,
      "toler": 6103,
      "towers": 6104,
      "renov": 6105,
      "escap": 6106,
      "stro": 6107,
      "stages": 6108,
      "deliber": 6109,
      "impl": 6110,
      "terbury": 6111,
      "ceased": 6112,
      "poet": 6113,
      "sudden": 6114,
      "aine": 6115,
      "alling": 6116,
      "torres": 6117,
      "dumont": 6118,
      "outbreak": 6119,
      "outstanding": 6120,
      "actively": 6121,
      "possession": 6122,
      "umes": 6123,
      "norman": 6124,
      "1890": 6125,
      "canterbury": 6126,
      "interaction": 6127,
      "intersection": 6128,
      "tennes": 6129,
      "thoughts": 6130,
      "carbon": 6131,
      "warm": 6132,
      "submarines": 6133,
      "westward": 6134,
      "barri": 6135,
      "obser": 6136,
      "anka": 6137,
      "planes": 6138,
      "1983": 6139,
      "classified": 6140,
      "fails": 6141,
      "reader": 6142,
      "persons": 6143,
      "personnel": 6144,
      "differences": 6145,
      "organisation": 6146,
      "fallen": 6147,
      "authorized": 6148,
      "walker": 6149,
      "1974": 6150,
      "provides": 6151,
      "reducing": 6152,
      "versions": 6153,
      "douglas": 6154,
      "fundament": 6155,
      "profession": 6156,
      "commenting": 6157,
      "reveals": 6158,
      "michigan": 6159,
      "housing": 6160,
      "willingness": 6161,
      "spirit": 6162,
      "sailed": 6163,
      "shrines": 6164,
      "observations": 6165,
      "surrounded": 6166,
      "electric": 6167,
      "persuaded": 6168,
      "behavior": 6169,
      "kilo": 6170,
      "vehicles": 6171,
      "picture": 6172,
      "cinema": 6173,
      "modified": 6174,
      "mvp": 6175,
      "isolated": 6176,
      "sleep": 6177,
      "pleasure": 6178,
      "pattycake": 6179,
      "roxas": 6180,
      "penetr": 6181,
      "tennessee": 6182,
      "900": 6183,
      "bath": 6184,
      "ctors": 6185,
      "khand": 6186,
      "kyo": 6187,
      "mr": 6188,
      "mud": 6189,
      "pap": 6190,
      "rates": 6191,
      "sla": 6192,
      "tool": 6193,
      "tokyo": 6194,
      "inno": 6195,
      "infer": 6196,
      "income": 6197,
      "remarked": 6198,
      "represents": 6199,
      "allocated": 6200,
      "leaked": 6201,
      "chains": 6202,
      "ilst": 6203,
      "cos": 6204,
      "whilst": 6205,
      "contribute": 6206,
      "mound": 6207,
      "composition": 6208,
      "abd": 6209,
      "ressing": 6210,
      "diam": 6211,
      "dialo": 6212,
      "excess": 6213,
      "brut": 6214,
      "affir": 6215,
      "achuse": 6216,
      "ferry": 6217,
      "homo": 6218,
      "ivity": 6219,
      "internal": 6220,
      "interior": 6221,
      "effic": 6222,
      "reluct": 6223,
      "genes": 6224,
      "surger": 6225,
      "elections": 6226,
      "follows": 6227,
      "smen": 6228,
      "1949": 6229,
      "huge": 6230,
      "crazy": 6231,
      "flew": 6232,
      "horizon": 6233,
      "approaches": 6234,
      "donated": 6235,
      "functions": 6236,
      "experiences": 6237,
      "massachuse": 6238,
      "subsequent": 6239,
      "pier": 6240,
      "defenders": 6241,
      "newspapers": 6242,
      "acquired": 6243,
      "beliefs": 6244,
      "neutral": 6245,
      "keeper": 6246,
      "distinguish": 6247,
      "dangerous": 6248,
      "wounded": 6249,
      "passengers": 6250,
      "dramatic": 6251,
      "gwen": 6252,
      "khandoba": 6253,
      "surgery": 6254,
      "massachusetts": 6255,
      "51": 6256,
      "aus": 6257,
      "aide": 6258,
      "hat": 6259,
      "jai": 6260,
      "kies": 6261,
      "pig": 6262,
      "sic": 6263,
      "sket": 6264,
      "tis": 6265,
      "tap": 6266,
      "tended": 6267,
      "wings": 6268,
      "infras": 6269,
      "remember": 6270,
      "ensemble": 6271,
      "enabled": 6272,
      "inge": 6273,
      "leaf": 6274,
      "amaz": 6275,
      "trac": 6276,
      "cture": 6277,
      "nether": 6278,
      "nels": 6279,
      "proto": 6280,
      "erected": 6281,
      "marking": 6282,
      "wet": 6283,
      "spell": 6284,
      "crisis": 6285,
      "canal": 6286,
      "sions": 6287,
      "singh": 6288,
      "carter": 6289,
      "supporters": 6290,
      "locate": 6291,
      "ordering": 6292,
      "worldwide": 6293,
      "signs": 6294,
      "ituals": 6295,
      "bands": 6296,
      "easter": 6297,
      "1970s": 6298,
      "denomin": 6299,
      "offering": 6300,
      "offerings": 6301,
      "potentially": 6302,
      "streets": 6303,
      "earthquake": 6304,
      "directors": 6305,
      "circu": 6306,
      "employe": 6307,
      "yeo": 6308,
      "columns": 6309,
      "departure": 6310,
      "questions": 6311,
      "audiences": 6312,
      "tender": 6313,
      "attract": 6314,
      "coincide": 6315,
      "innings": 6316,
      "nomination": 6317,
      "defined": 6318,
      "croatian": 6319,
      "collaborated": 6320,
      "ethnic": 6321,
      "janeiro": 6322,
      "opponent": 6323,
      "evalu": 6324,
      "photographs": 6325,
      "resistance": 6326,
      "cloud": 6327,
      "executed": 6328,
      "adequate": 6329,
      "remnants": 6330,
      "infrastru": 6331,
      "dread": 6332,
      "ffield": 6333,
      "flet": 6334,
      "gri": 6335,
      "jok": 6336,
      "lamb": 6337,
      "nance": 6338,
      "pus": 6339,
      "rural": 6340,
      "rituals": 6341,
      "sate": 6342,
      "u2": 6343,
      "yl": 6344,
      "theater": 6345,
      "incur": 6346,
      "anime": 6347,
      "rely": 6348,
      "replay": 6349,
      "relie": 6350,
      "unlike": 6351,
      "aria": 6352,
      "stav": 6353,
      "leo": 6354,
      "sees": 6355,
      "adow": 6356,
      "acres": 6357,
      "conversion": 6358,
      "compre": 6359,
      "bull": 6360,
      "aints": 6361,
      "allah": 6362,
      "kees": 6363,
      "liqu": 6364,
      "liked": 6365,
      "clad": 6366,
      "ordnance": 6367,
      "duke": 6368,
      "brick": 6369,
      "opted": 6370,
      "marily": 6371,
      "marrow": 6372,
      "guese": 6373,
      "forming": 6374,
      "finance": 6375,
      "disabled": 6376,
      "sheffield": 6377,
      "tenure": 6378,
      "fron": 6379,
      "tribes": 6380,
      "enses": 6381,
      "clothing": 6382,
      "heading": 6383,
      "drain": 6384,
      "similarities": 6385,
      "1981": 6386,
      "senate": 6387,
      "facilit": 6388,
      "burned": 6389,
      "establishing": 6390,
      "borne": 6391,
      "rocky": 6392,
      "falls": 6393,
      "solar": 6394,
      "swiss": 6395,
      "patron": 6396,
      "frontier": 6397,
      "itarian": 6398,
      "banai": 6399,
      "civilian": 6400,
      "instruments": 6401,
      "protes": 6402,
      "leadership": 6403,
      "altered": 6404,
      "platform": 6405,
      "rhythm": 6406,
      "translated": 6407,
      "francisco": 6408,
      "patrol": 6409,
      "portuguese": 6410,
      "hudson": 6411,
      "junior": 6412,
      "dreadn": 6413,
      "satell": 6414,
      "1000": 6415,
      "350": 6416,
      "54": 6417,
      "hms": 6418,
      "jen": 6419,
      "lists": 6420,
      "mul": 6421,
      "none": 6422,
      "sas": 6423,
      "uel": 6424,
      "vital": 6425,
      "votes": 6426,
      "thed": 6427,
      "remark": 6428,
      "retail": 6429,
      "resemble": 6430,
      "rolling": 6431,
      "ille": 6432,
      "cot": 6433,
      "convers": 6434,
      "het": 6435,
      "idance": 6436,
      "suited": 6437,
      "ride": 6438,
      "1912": 6439,
      "mann": 6440,
      "feather": 6441,
      "guidance": 6442,
      "serial": 6443,
      "possess": 6444,
      "iang": 6445,
      "iving": 6446,
      "desper": 6447,
      "consent": 6448,
      "mush": 6449,
      "simon": 6450,
      "observe": 6451,
      "malay": 6452,
      "courage": 6453,
      "12th": 6454,
      "variation": 6455,
      "rocks": 6456,
      "basin": 6457,
      "patri": 6458,
      "harm": 6459,
      "sale": 6460,
      "1956": 6461,
      "stern": 6462,
      "commonwealth": 6463,
      "crossed": 6464,
      "dedication": 6465,
      "ruling": 6466,
      "instrument": 6467,
      "hospit": 6468,
      "aerial": 6469,
      "nominated": 6470,
      "cabral": 6471,
      "scientific": 6472,
      "dissipating": 6473,
      "recommended": 6474,
      "unesco": 6475,
      "manufactur": 6476,
      "laboratory": 6477,
      "vulner": 6478,
      "genetic": 6479,
      "awareness": 6480,
      "labour": 6481,
      "shifted": 6482,
      "93": 6483,
      "nc": 6484,
      "nant": 6485,
      "pin": 6486,
      "spar": 6487,
      "tz": 6488,
      "tint": 6489,
      "tany": 6490,
      "thi": 6491,
      "reactions": 6492,
      "atures": 6493,
      "alan": 6494,
      "iston": 6495,
      "leaves": 6496,
      "chicks": 6497,
      "seize": 6498,
      "usa": 6499,
      "uss": 6500,
      "usions": 6501,
      "neves": 6502,
      "prope": 6503,
      "bern": 6504,
      "bright": 6505,
      "notice": 6506,
      "commons": 6507,
      "gry": 6508,
      "desc": 6509,
      "gross": 6510,
      "gang": 6511,
      "flash": 6512,
      "taxon": 6513,
      "medal": 6514,
      "warn": 6515,
      "warned": 6516,
      "warsaw": 6517,
      "fulfill": 6518,
      "transported": 6519,
      "dynasty": 6520,
      "defences": 6521,
      "cutting": 6522,
      "authors": 6523,
      "instance": 6524,
      "videos": 6525,
      "grapher": 6526,
      "skye": 6527,
      "combination": 6528,
      "targe": 6529,
      "drove": 6530,
      "researchers": 6531,
      "1861": 6532,
      "1862": 6533,
      "slam": 6534,
      "dominated": 6535,
      "instructed": 6536,
      "oxide": 6537,
      "violent": 6538,
      "secured": 6539,
      "bella": 6540,
      "ironclad": 6541,
      "husbandman": 6542,
      "struggled": 6543,
      "publishing": 6544,
      "advertising": 6545,
      "matters": 6546,
      "gambling": 6547,
      "blown": 6548,
      "stalk": 6549,
      "behaviour": 6550,
      "treasury": 6551,
      "inscription": 6552,
      "predecessor": 6553,
      "consolid": 6554,
      "kitsune": 6555,
      "infrastructure": 6556,
      "fletcher": 6557,
      "stavanger": 6558,
      "satellite": 6559,
      "tintin": 6560,
      "nevesinje": 6561,
      "62": 6562,
      "ares": 6563,
      "bie": 6564,
      "eve": 6565,
      "gaining": 6566,
      "nut": 6567,
      "pink": 6568,
      "sunk": 6569,
      "tide": 6570,
      "witch": 6571,
      "reassigned": 6572,
      "orb": 6573,
      "isles": 6574,
      "seated": 6575,
      "coordin": 6576,
      "congreg": 6577,
      "heir": 6578,
      "cement": 6579,
      "withdrew": 6580,
      "tran": 6581,
      "trained": 6582,
      "agan": 6583,
      "abol": 6584,
      "plato": 6585,
      "metro": 6586,
      "shed": 6587,
      "ulu": 6588,
      "1911": 6589,
      "exists": 6590,
      "aude": 6591,
      "acks": 6592,
      "ava": 6593,
      "relatives": 6594,
      "logies": 6595,
      "helm": 6596,
      "viewer": 6597,
      "values": 6598,
      "breaking": 6599,
      "easier": 6600,
      "billion": 6601,
      "difference": 6602,
      "titive": 6603,
      "inflicted": 6604,
      "harmon": 6605,
      "installed": 6606,
      "goods": 6607,
      "clearly": 6608,
      "1951": 6609,
      "1953": 6610,
      "1955": 6611,
      "rants": 6612,
      "vertical": 6613,
      "spores": 6614,
      "triple": 6615,
      "analy": 6616,
      "itzer": 6617,
      "1889": 6618,
      "pagan": 6619,
      "protestant": 6620,
      "elevated": 6621,
      "weapon": 6622,
      "initiated": 6623,
      "negoti": 6624,
      "restoration": 6625,
      "slopes": 6626,
      "interpreted": 6627,
      "incorporated": 6628,
      "imagine": 6629,
      "concepts": 6630,
      "progno": 6631,
      "gliders": 6632,
      "condemned": 6633,
      "fundamental": 6634,
      "netherlands": 6635,
      "compreh": 6636,
      "platoon": 6637,
      "figh": 6638,
      "iful": 6639,
      "ku": 6640,
      "kam": 6641,
      "lt": 6642,
      "nash": 6643,
      "rons": 6644,
      "santa": 6645,
      "vish": 6646,
      "tood": 6647,
      "intel": 6648,
      "ongoing": 6649,
      "atus": 6650,
      "itim": 6651,
      "rook": 6652,
      "ouse": 6653,
      "cong": 6654,
      "confront": 6655,
      "neath": 6656,
      "appre": 6657,
      "prose": 6658,
      "hist": 6659,
      "rio": 6660,
      "eless": 6661,
      "manages": 6662,
      "ghost": 6663,
      "boot": 6664,
      "quali": 6665,
      "string": 6666,
      "ump": 6667,
      "disaster": 6668,
      "airfields": 6669,
      "spons": 6670,
      "intense": 6671,
      "underneath": 6672,
      "northward": 6673,
      "offs": 6674,
      "offman": 6675,
      "capt": 6676,
      "legitim": 6677,
      "passion": 6678,
      "viewed": 6679,
      "stands": 6680,
      "drin": 6681,
      "commandos": 6682,
      "aimed": 6683,
      "easily": 6684,
      "1962": 6685,
      "cuts": 6686,
      "representation": 6687,
      "brigades": 6688,
      "declaring": 6689,
      "activision": 6690,
      "goaltender": 6691,
      "statute": 6692,
      "catholics": 6693,
      "situations": 6694,
      "hibari": 6695,
      "educational": 6696,
      "improvements": 6697,
      "pushing": 6698,
      "innis": 6699,
      "ordinary": 6700,
      "voyage": 6701,
      "revenue": 6702,
      "hawaii": 6703,
      "bradford": 6704,
      "abuse": 6705,
      "distinguished": 6706,
      "principal": 6707,
      "proposal": 6708,
      "understood": 6709,
      "inspiration": 6710,
      "obstacles": 6711,
      "circuit": 6712,
      "marilyn": 6713,
      "68": 6714,
      "79": 6715,
      "bought": 6716,
      "catt": 6717,
      "cater": 6718,
      "cards": 6719,
      "gren": 6720,
      "hay": 6721,
      "ipel": 6722,
      "jur": 6723,
      "mall": 6724,
      "pse": 6725,
      "sab": 6726,
      "tissue": 6727,
      "wich": 6728,
      "ining": 6729,
      "eria": 6730,
      "ened": 6731,
      "alb": 6732,
      "lease": 6733,
      "beam": 6734,
      "igno": 6735,
      "convert": 6736,
      "terior": 6737,
      "verte": 6738,
      "poison": 6739,
      "ola": 6740,
      "proli": 6741,
      "abil": 6742,
      "absol": 6743,
      "plu": 6744,
      "diame": 6745,
      "owa": 6746,
      "boise": 6747,
      "quer": 6748,
      "raf": 6749,
      "raw": 6750,
      "herg": 6751,
      "emble": 6752,
      "firing": 6753,
      "notably": 6754,
      "hokies": 6755,
      "visible": 6756,
      "overcome": 6757,
      "ganges": 6758,
      "crush": 6759,
      "scatter": 6760,
      "tenny": 6761,
      "charity": 6762,
      "phr": 6763,
      "recordings": 6764,
      "archipel": 6765,
      "simult": 6766,
      "runway": 6767,
      "reflected": 6768,
      "marched": 6769,
      "1980": 6770,
      "christians": 6771,
      "receiving": 6772,
      "hypo": 6773,
      "eventual": 6774,
      "travels": 6775,
      "looks": 6776,
      "wilhelm": 6777,
      "youngest": 6778,
      "keeping": 6779,
      "graphics": 6780,
      "christianity": 6781,
      "networks": 6782,
      "spiritual": 6783,
      "suspect": 6784,
      "employment": 6785,
      "connects": 6786,
      "proceeded": 6787,
      "giant": 6788,
      "detailed": 6789,
      "consistent": 6790,
      "reflecting": 6791,
      "thrill": 6792,
      "severely": 6793,
      "surrendered": 6794,
      "isabella": 6795,
      "ownership": 6796,
      "smooth": 6797,
      "julian": 6798,
      "kurstin": 6799,
      "garden": 6800,
      "sultan": 6801,
      "vehicle": 6802,
      "extratro": 6803,
      "calculated": 6804,
      "bridges": 6805,
      "astronom": 6806,
      "absolute": 6807,
      "diameter": 6808,
      "tennyson": 6809,
      "archipelago": 6810,
      "simultane": 6811,
      "extratropical": 6812,
      "fab": 6813,
      "gates": 6814,
      "mitch": 6815,
      "rant": 6816,
      "rud": 6817,
      "zes": 6818,
      "thail": 6819,
      "rebel": 6820,
      "reverse": 6821,
      "enque": 6822,
      "isms": 6823,
      "rout": 6824,
      "sted": 6825,
      "stev": 6826,
      "beaut": 6827,
      "covers": 6828,
      "veget": 6829,
      "urn": 6830,
      "conver": 6831,
      "context": 6832,
      "terrain": 6833,
      "cease": 6834,
      "sume": 6835,
      "sover": 6836,
      "1913": 6837,
      "feud": 6838,
      "brace": 6839,
      "strain": 6840,
      "emmy": 6841,
      "cian": 6842,
      "timber": 6843,
      "utional": 6844,
      "dismissed": 6845,
      "airspace": 6846,
      "1849": 6847,
      "visits": 6848,
      "overseas": 6849,
      "compil": 6850,
      "regul": 6851,
      "izes": 6852,
      "puzz": 6853,
      "releases": 6854,
      "synd": 6855,
      "closing": 6856,
      "stood": 6857,
      "curve": 6858,
      "presentation": 6859,
      "publications": 6860,
      "refusal": 6861,
      "requiring": 6862,
      "respons": 6863,
      "campbell": 6864,
      "halt": 6865,
      "scopic": 6866,
      "voys": 6867,
      "readers": 6868,
      "limits": 6869,
      "collections": 6870,
      "palmy": 6871,
      "palenque": 6872,
      "pathetic": 6873,
      "stronger": 6874,
      "commitment": 6875,
      "influential": 6876,
      "calvert": 6877,
      "ruled": 6878,
      "1905": 6879,
      "1908": 6880,
      "situated": 6881,
      "reasonable": 6882,
      "conclusion": 6883,
      "batteries": 6884,
      "definition": 6885,
      "races": 6886,
      "tombs": 6887,
      "munic": 6888,
      "wearing": 6889,
      "throwing": 6890,
      "flesh": 6891,
      "revolutionary": 6892,
      "rarely": 6893,
      "environmental": 6894,
      "believes": 6895,
      "convey": 6896,
      "relegation": 6897,
      "collapsed": 6898,
      "merely": 6899,
      "yugo": 6900,
      "positively": 6901,
      "vulnerable": 6902,
      "thailand": 6903,
      "stevens": 6904,
      "beautiful": 6905,
      "58": 6906,
      "dal": 6907,
      "hull": 6908,
      "lined": 6909,
      "wond": 6910,
      "inning": 6911,
      "incomplete": 6912,
      "onna": 6913,
      "rebels": 6914,
      "alt": 6915,
      "romo": 6916,
      "stans": 6917,
      "leans": 6918,
      "chromo": 6919,
      "selection": 6920,
      "aggreg": 6921,
      "nolia": 6922,
      "proof": 6923,
      "rescent": 6924,
      "shaft": 6925,
      "1925": 6926,
      "liu": 6927,
      "feeding": 6928,
      "endar": 6929,
      "parody": 6930,
      "porter": 6931,
      "marl": 6932,
      "guy": 6933,
      "utz": 6934,
      "recur": 6935,
      "fifa": 6936,
      "southeastern": 6937,
      "rence": 6938,
      "oting": 6939,
      "otic": 6940,
      "myself": 6941,
      "subordin": 6942,
      "subsid": 6943,
      "conscious": 6944,
      "vener": 6945,
      "insisted": 6946,
      "haw": 6947,
      "defended": 6948,
      "13th": 6949,
      "blackburn": 6950,
      "1977": 6951,
      "travelling": 6952,
      "harbour": 6953,
      "magnolia": 6954,
      "1957": 6955,
      "activated": 6956,
      "involves": 6957,
      "garrison": 6958,
      "explains": 6959,
      "banned": 6960,
      "professor": 6961,
      "tickets": 6962,
      "bowling": 6963,
      "injured": 6964,
      "considering": 6965,
      "demolish": 6966,
      "mexican": 6967,
      "respective": 6968,
      "danny": 6969,
      "tendency": 6970,
      "ramid": 6971,
      "rumour": 6972,
      "chapters": 6973,
      "flanked": 6974,
      "seeks": 6975,
      "conception": 6976,
      "extension": 6977,
      "expeditions": 6978,
      "badly": 6979,
      "equipped": 6980,
      "acquire": 6981,
      "pyramid": 6982,
      "intensified": 6983,
      "intensify": 6984,
      "translation": 6985,
      "somalia": 6986,
      "aerodrome": 6987,
      "anthony": 6988,
      "convention": 6989,
      "hunter": 6990,
      "demonstrated": 6991,
      "constitution": 6992,
      "corresponding": 6993,
      "shorten": 6994,
      "thakur": 6995,
      "scheme": 6996,
      "punishment": 6997,
      "valuable": 6998,
      "liquid": 6999,
      "phrase": 7000,
      "stansfield": 7001,
      "fia": 7002,
      "ithe": 7003,
      "kne": 7004,
      "nit": 7005,
      "nich": 7006,
      "omar": 7007,
      "pad": 7008,
      "sung": 7009,
      "tests": 7010,
      "ucl": 7011,
      "wight": 7012,
      "wart": 7013,
      "wick": 7014,
      "zards": 7015,
      "instruct": 7016,
      "inery": 7017,
      "anasi": 7018,
      "reconstruction": 7019,
      "reagents": 7020,
      "orland": 7021,
      "bears": 7022,
      "imprison": 7023,
      "conspir": 7024,
      "consult": 7025,
      "pohl": 7026,
      "trick": 7027,
      "trains": 7028,
      "resur": 7029,
      "kevin": 7030,
      "1900": 7031,
      "1928": 7032,
      "therine": 7033,
      "lix": 7034,
      "torn": 7035,
      "bristol": 7036,
      "earning": 7037,
      "ignment": 7038,
      "fide": 7039,
      "sony": 7040,
      "scap": 7041,
      "tennant": 7042,
      "warri": 7043,
      "offshore": 7044,
      "locally": 7045,
      "closure": 7046,
      "steel": 7047,
      "steep": 7048,
      "barbar": 7049,
      "deput": 7050,
      "offices": 7051,
      "starred": 7052,
      "refuses": 7053,
      "universe": 7054,
      "drafted": 7055,
      "sulfide": 7056,
      "sixteen": 7057,
      "bills": 7058,
      "aza": 7059,
      "switzer": 7060,
      "culmin": 7061,
      "walter": 7062,
      "1938": 7063,
      "representatives": 7064,
      "huron": 7065,
      "links": 7066,
      "sounds": 7067,
      "agrees": 7068,
      "periods": 7069,
      "destroyer": 7070,
      "crosses": 7071,
      "wallis": 7072,
      "commerce": 7073,
      "fifty": 7074,
      "machinery": 7075,
      "injuries": 7076,
      "demonstrate": 7077,
      "objectives": 7078,
      "favorable": 7079,
      "printed": 7080,
      "documents": 7081,
      "cambridge": 7082,
      "colorado": 7083,
      "painted": 7084,
      "commodore": 7085,
      "rushed": 7086,
      "electronic": 7087,
      "paths": 7088,
      "mutual": 7089,
      "trouble": 7090,
      "troubles": 7091,
      "drugs": 7092,
      "evolved": 7093,
      "cardin": 7094,
      "yankees": 7095,
      "skeleton": 7096,
      "crusaders": 7097,
      "innocent": 7098,
      "ignore": 7099,
      "switzerland": 7100,
      "81": 7101,
      "84": 7102,
      "bou": 7103,
      "bats": 7104,
      "dim": 7105,
      "gap": 7106,
      "oath": 7107,
      "pam": 7108,
      "rical": 7109,
      "thic": 7110,
      "towed": 7111,
      "roger": 7112,
      "rovers": 7113,
      "icia": 7114,
      "admit": 7115,
      "users": 7116,
      "mounts": 7117,
      "noon": 7118,
      "apt": 7119,
      "abroad": 7120,
      "shark": 7121,
      "keith": 7122,
      "1926": 7123,
      "therapy": 7124,
      "bore": 7125,
      "lowest": 7126,
      "akum": 7127,
      "mars": 7128,
      "marke": 7129,
      "guild": 7130,
      "desert": 7131,
      "artific": 7132,
      "monitors": 7133,
      "centered": 7134,
      "intermediate": 7135,
      "jos": 7136,
      "mainstream": 7137,
      "labe": 7138,
      "undertaken": 7139,
      "supplement": 7140,
      "survive": 7141,
      "elementary": 7142,
      "barrel": 7143,
      "priests": 7144,
      "courses": 7145,
      "170": 7146,
      "movements": 7147,
      "hamels": 7148,
      "1966": 7149,
      "caster": 7150,
      "extending": 7151,
      "europa": 7152,
      "helps": 7153,
      "charting": 7154,
      "destination": 7155,
      "searching": 7156,
      "1976": 7157,
      "induction": 7158,
      "gliding": 7159,
      "deno": 7160,
      "politic": 7161,
      "trading": 7162,
      "torial": 7163,
      "navigation": 7164,
      "grammy": 7165,
      "radiation": 7166,
      "salv": 7167,
      "earthstar": 7168,
      "accessible": 7169,
      "teachings": 7170,
      "madrid": 7171,
      "drivers": 7172,
      "ndh": 7173,
      "statue": 7174,
      "threats": 7175,
      "aboard": 7176,
      "screens": 7177,
      "predomin": 7178,
      "agreeing": 7179,
      "georgia": 7180,
      "dancing": 7181,
      "advisories": 7182,
      "raids": 7183,
      "michaels": 7184,
      "concentration": 7185,
      "boxing": 7186,
      "contributing": 7187,
      "consistently": 7188,
      "investigation": 7189,
      "engagement": 7190,
      "policies": 7191,
      "publisher": 7192,
      "licence": 7193,
      "repairs": 7194,
      "advertise": 7195,
      "spacing": 7196,
      "legislature": 7197,
      "measurements": 7198,
      "territorial": 7199,
      "bobby": 7200,
      "batsmen": 7201,
      "constitutional": 7202,
      "sweet": 7203,
      "relegated": 7204,
      "audition": 7205,
      "mistaken": 7206,
      "amendment": 7207,
      "pupils": 7208,
      "funeral": 7209,
      "sympathetic": 7210,
      "perceived": 7211,
      "mumbai": 7212,
      "diamond": 7213,
      "facilitate": 7214,
      "protesters": 7215,
      "drinking": 7216,
      "orlando": 7217,
      "bare": 7218,
      "dino": 7219,
      "gad": 7220,
      "jason": 7221,
      "jones": 7222,
      "mam": 7223,
      "ras": 7224,
      "vaude": 7225,
      "wu": 7226,
      "zap": 7227,
      "inich": 7228,
      "eda": 7229,
      "republ": 7230,
      "orleans": 7231,
      "iser": 7232,
      "rober": 7233,
      "stability": 7234,
      "leigh": 7235,
      "depos": 7236,
      "vel": 7237,
      "loch": 7238,
      "wizards": 7239,
      "moody": 7240,
      "compr": 7241,
      "olf": 7242,
      "provision": 7243,
      "abund": 7244,
      "abnormal": 7245,
      "pled": 7246,
      "plus": 7247,
      "rescu": 7248,
      "metric": 7249,
      "ighted": 7250,
      "raising": 7251,
      "herd": 7252,
      "guin": 7253,
      "pret": 7254,
      "posing": 7255,
      "distor": 7256,
      "displays": 7257,
      "maeda": 7258,
      "prone": 7259,
      "recip": 7260,
      "shipped": 7261,
      "compare": 7262,
      "somebody": 7263,
      "jewel": 7264,
      "epithe": 7265,
      "sydney": 7266,
      "ieth": 7267,
      "gusts": 7268,
      "depict": 7269,
      "tales": 7270,
      "commanding": 7271,
      "spector": 7272,
      "justify": 7273,
      "burning": 7274,
      "grecian": 7275,
      "roundabout": 7276,
      "storylines": 7277,
      "associations": 7278,
      "formerly": 7279,
      "phillies": 7280,
      "civilians": 7281,
      "championships": 7282,
      "brazil": 7283,
      "1909": 7284,
      "feels": 7285,
      "acceptance": 7286,
      "companion": 7287,
      "birthday": 7288,
      "suspected": 7289,
      "blockade": 7290,
      "watched": 7291,
      "advisory": 7292,
      "premiere": 7293,
      "twentieth": 7294,
      "theaters": 7295,
      "listeners": 7296,
      "properties": 7297,
      "devast": 7298,
      "examine": 7299,
      "protagon": 7300,
      "motions": 7301,
      "shield": 7302,
      "appealed": 7303,
      "colonial": 7304,
      "permanently": 7305,
      "defeating": 7306,
      "constantly": 7307,
      "architecture": 7308,
      "adaptation": 7309,
      "obligation": 7310,
      "helicopters": 7311,
      "indicating": 7312,
      "detached": 7313,
      "decorated": 7314,
      "divorce": 7315,
      "chorus": 7316,
      "flotilla": 7317,
      "mitchell": 7318,
      "demolished": 7319,
      "batsman": 7320,
      "dinosaur": 7321,
      "vaudeville": 7322,
      "zapata": 7323,
      "52": 7324,
      "97": 7325,
      "bly": 7326,
      "driver": 7327,
      "gow": 7328,
      "hong": 7329,
      "nintend": 7330,
      "pas": 7331,
      "sample": 7332,
      "tum": 7333,
      "wemble": 7334,
      "innov": 7335,
      "infection": 7336,
      "aten": 7337,
      "atically": 7338,
      "encies": 7339,
      "unnamed": 7340,
      "aling": 7341,
      "icon": 7342,
      "ented": 7343,
      "devote": 7344,
      "veiled": 7345,
      "tet": 7346,
      "mogad": 7347,
      "noble": 7348,
      "pear": 7349,
      "feast": 7350,
      "illance": 7351,
      "asserted": 7352,
      "achment": 7353,
      "marg": 7354,
      "uding": 7355,
      "displayed": 7356,
      "tonnes": 7357,
      "recalled": 7358,
      "spous": 7359,
      "okovic": 7360,
      "flame": 7361,
      "tenth": 7362,
      "charlie": 7363,
      "relev": 7364,
      "decay": 7365,
      "gerard": 7366,
      "ryan": 7367,
      "privi": 7368,
      "nameless": 7369,
      "commands": 7370,
      "finale": 7371,
      "tourist": 7372,
      "comparable": 7373,
      "swim": 7374,
      "glad": 7375,
      "tradem": 7376,
      "cleared": 7377,
      "concerts": 7378,
      "teacher": 7379,
      "circular": 7380,
      "stopping": 7381,
      "moderate": 7382,
      "scribed": 7383,
      "spots": 7384,
      "sippy": 7385,
      "fitted": 7386,
      "exception": 7387,
      "pull": 7388,
      "surveillance": 7389,
      "adelaide": 7390,
      "cambo": 7391,
      "1878": 7392,
      "victories": 7393,
      "tactical": 7394,
      "petition": 7395,
      "djokovic": 7396,
      "exclusive": 7397,
      "adams": 7398,
      "resolution": 7399,
      "glasgow": 7400,
      "tigers": 7401,
      "karl": 7402,
      "temperature": 7403,
      "pictures": 7404,
      "legendary": 7405,
      "products": 7406,
      "louisiana": 7407,
      "sensitive": 7408,
      "affairs": 7409,
      "jurchen": 7410,
      "recreational": 7411,
      "joseph": 7412,
      "suddenly": 7413,
      "kilometres": 7414,
      "feathers": 7415,
      "intellect": 7416,
      "deputy": 7417,
      "nintendo": 7418,
      "wembley": 7419,
      "67": 7420,
      "aire": 7421,
      "bach": 7422,
      "bang": 7423,
      "cof": 7424,
      "cite": 7425,
      "cress": 7426,
      "fon": 7427,
      "faster": 7428,
      "hance": 7429,
      "kau": 7430,
      "lat": 7431,
      "lau": 7432,
      "mack": 7433,
      "mits": 7434,
      "matt": 7435,
      "nile": 7436,
      "oct": 7437,
      "oval": 7438,
      "sri": 7439,
      "tav": 7440,
      "tune": 7441,
      "uge": 7442,
      "thames": 7443,
      "topol": 7444,
      "reated": 7445,
      "enhance": 7446,
      "uncertain": 7447,
      "ingly": 7448,
      "unket": 7449,
      "roc": 7450,
      "stabil": 7451,
      "sevas": 7452,
      "bean": 7453,
      "adri": 7454,
      "ilty": 7455,
      "coined": 7456,
      "detro": 7457,
      "heim": 7458,
      "heavi": 7459,
      "verty": 7460,
      "poll": 7461,
      "poverty": 7462,
      "ational": 7463,
      "abra": 7464,
      "plunket": 7465,
      "resort": 7466,
      "ried": 7467,
      "keamy": 7468,
      "exceed": 7469,
      "exciting": 7470,
      "quinn": 7471,
      "rape": 7472,
      "foss": 7473,
      "blaz": 7474,
      "guilty": 7475,
      "format": 7476,
      "portico": 7477,
      "airlines": 7478,
      "oked": 7479,
      "joe": 7480,
      "anglo": 7481,
      "mayor": 7482,
      "phic": 7483,
      "cars": 7484,
      "numbered": 7485,
      "amps": 7486,
      "consists": 7487,
      "indig": 7488,
      "stewart": 7489,
      "refuge": 7490,
      "musicians": 7491,
      "childhood": 7492,
      "dams": 7493,
      "sword": 7494,
      "walking": 7495,
      "hydro": 7496,
      "1932": 7497,
      "retreated": 7498,
      "bodyline": 7499,
      "designation": 7500,
      "1958": 7501,
      "villaret": 7502,
      "ukrain": 7503,
      "wishes": 7504,
      "traits": 7505,
      "payments": 7506,
      "occurs": 7507,
      "belongs": 7508,
      "anchor": 7509,
      "boundary": 7510,
      "confidence": 7511,
      "confusion": 7512,
      "languages": 7513,
      "idaho": 7514,
      "powder": 7515,
      "literary": 7516,
      "scholarly": 7517,
      "embark": 7518,
      "chambers": 7519,
      "stanis": 7520,
      "colonel": 7521,
      "issance": 7522,
      "axis": 7523,
      "neighbour": 7524,
      "dining": 7525,
      "preferred": 7526,
      "repeatedly": 7527,
      "thaksin": 7528,
      "rhys": 7529,
      "rubber": 7530,
      "iraq": 7531,
      "seventeenth": 7532,
      "tanks": 7533,
      "assembled": 7534,
      "oriented": 7535,
      "frigate": 7536,
      "exactly": 7537,
      "perspective": 7538,
      "illustrated": 7539,
      "simultaneously": 7540,
      "responses": 7541,
      "rumours": 7542,
      "roberts": 7543,
      "cresswell": 7544,
      "sevastopol": 7545,
      "detroit": 7546,
      "59": 7547,
      "63": 7548,
      "77": 7549,
      "82": 7550,
      "dale": 7551,
      "ets": 7552,
      "fts": 7553,
      "gur": 7554,
      "gender": 7555,
      "goffman": 7556,
      "ioc": 7557,
      "jay": 7558,
      "nha": 7559,
      "oted": 7560,
      "oscar": 7561,
      "sms": 7562,
      "tent": 7563,
      "xic": 7564,
      "inau": 7565,
      "inability": 7566,
      "inhabit": 7567,
      "eric": 7568,
      "reactor": 7569,
      "enem": 7570,
      "unveiled": 7571,
      "oroz": 7572,
      "isons": 7573,
      "chant": 7574,
      "ading": 7575,
      "adher": 7576,
      "ilized": 7577,
      "cobra": 7578,
      "consequ": 7579,
      "trunk": 7580,
      "ression": 7581,
      "sovie": 7582,
      "shu": 7583,
      "arena": 7584,
      "liz": 7585,
      "lifest": 7586,
      "illness": 7587,
      "upset": 7588,
      "strange": 7589,
      "blame": 7590,
      "typical": 7591,
      "cede": 7592,
      "angle": 7593,
      "scape": 7594,
      "iza": 7595,
      "undergo": 7596,
      "missi": 7597,
      "stephen": 7598,
      "thereby": 7599,
      "barry": 7600,
      "corner": 7601,
      "obvious": 7602,
      "generated": 7603,
      "originated": 7604,
      "sentences": 7605,
      "ballad": 7606,
      "merged": 7607,
      "breast": 7608,
      "factor": 7609,
      "facility": 7610,
      "ituted": 7611,
      "personality": 7612,
      "realized": 7613,
      "contrary": 7614,
      "humanitarian": 7615,
      "patter": 7616,
      "connections": 7617,
      "install": 7618,
      "declare": 7619,
      "dah": 7620,
      "dahl": 7621,
      "donald": 7622,
      "antiquar": 7623,
      "michel": 7624,
      "1907": 7625,
      "predict": 7626,
      "preparation": 7627,
      "violation": 7628,
      "survival": 7629,
      "grav": 7630,
      "synthe": 7631,
      "jerzy": 7632,
      "olivia": 7633,
      "poems": 7634,
      "parent": 7635,
      "hearts": 7636,
      "picked": 7637,
      "architectural": 7638,
      "opinions": 7639,
      "thinking": 7640,
      "gardens": 7641,
      "pregnant": 7642,
      "tiger": 7643,
      "convection": 7644,
      "conservative": 7645,
      "tunnel": 7646,
      "controversy": 7647,
      "succeeded": 7648,
      "discussions": 7649,
      "censor": 7650,
      "removal": 7651,
      "aggressive": 7652,
      "orchestra": 7653,
      "elaborate": 7654,
      "amphib": 7655,
      "twelve": 7656,
      "barrier": 7657,
      "dialogue": 7658,
      "relieve": 7659,
      "cotton": 7660,
      "mushroom": 7661,
      "republican": 7662,
      "enemies": 7663,
      "orozco": 7664,
      "soviets": 7665,
      "aul": 7666,
      "bil": 7667,
      "dwell": 7668,
      "hide": 7669,
      "haust": 7670,
      "kaz": 7671,
      "kann": 7672,
      "mcel": 7673,
      "ole": 7674,
      "oreg": 7675,
      "rca": 7676,
      "vh": 7677,
      "wrec": 7678,
      "xiii": 7679,
      "zen": 7680,
      "theft": 7681,
      "reminis": 7682,
      "reopened": 7683,
      "reforms": 7684,
      "relying": 7685,
      "replacing": 7686,
      "unwilling": 7687,
      "alive": 7688,
      "orange": 7689,
      "arizon": 7690,
      "rod": 7691,
      "ropo": 7692,
      "stel": 7693,
      "chase": 7694,
      "bearing": 7695,
      "cob": 7696,
      "cove": 7697,
      "coven": 7698,
      "deli": 7699,
      "whate": 7700,
      "iris": 7701,
      "wives": 7702,
      "poser": 7703,
      "trap": 7704,
      "composer": 7705,
      "prob": 7706,
      "prospect": 7707,
      "persian": 7708,
      "lips": 7709,
      "exhaust": 7710,
      "manip": 7711,
      "clar": 7712,
      "ishu": 7713,
      "quiet": 7714,
      "brain": 7715,
      "cile": 7716,
      "doors": 7717,
      "doctr": 7718,
      "answer": 7719,
      "prehistoric": 7720,
      "newfound": 7721,
      "rector": 7722,
      "1870": 7723,
      "turner": 7724,
      "angular": 7725,
      "relate": 7726,
      "archbishop": 7727,
      "simone": 7728,
      "eleg": 7729,
      "curren": 7730,
      "cory": 7731,
      "operates": 7732,
      "malley": 7733,
      "naissance": 7734,
      "16th": 7735,
      "sentiment": 7736,
      "please": 7737,
      "tours": 7738,
      "findings": 7739,
      "organic": 7740,
      "household": 7741,
      "deny": 7742,
      "dennis": 7743,
      "240": 7744,
      "draws": 7745,
      "sounding": 7746,
      "distant": 7747,
      "quartet": 7748,
      "1959": 7749,
      "wishing": 7750,
      "concern": 7751,
      "ranking": 7752,
      "programme": 7753,
      "bennett": 7754,
      "antiqu": 7755,
      "loyalty": 7756,
      "1860": 7757,
      "ambia": 7758,
      "instrumental": 7759,
      "hiatus": 7760,
      "blocks": 7761,
      "encouraging": 7762,
      "pulse": 7763,
      "repeat": 7764,
      "caliber": 7765,
      "examination": 7766,
      "celebrity": 7767,
      "judged": 7768,
      "liberty": 7769,
      "wintering": 7770,
      "loosely": 7771,
      "historians": 7772,
      "platforms": 7773,
      "maps": 7774,
      "sporting": 7775,
      "escorted": 7776,
      "sweden": 7777,
      "reconnaissance": 7778,
      "persist": 7779,
      "genetics": 7780,
      "hornung": 7781,
      "scheer": 7782,
      "maskray": 7783,
      "commemorate": 7784,
      "rhode": 7785,
      "vishnu": 7786,
      "nichol": 7787,
      "mogadishu": 7788,
      "trademark": 7789,
      "abraham": 7790,
      "amphibious": 7791,
      "kannada": 7792,
      "mcelroy": 7793,
      "oregon": 7794,
      "reminiscent": 7795,
      "arizona": 7796,
      "whatever": 7797,
      "66": 7798,
      "cated": 7799,
      "crescent": 7800,
      "dave": 7801,
      "dwight": 7802,
      "ecu": 7803,
      "gil": 7804,
      "gary": 7805,
      "ik": 7806,
      "jet": 7807,
      "jif": 7808,
      "mage": 7809,
      "nice": 7810,
      "oto": 7811,
      "ound": 7812,
      "pto": 7813,
      "penter": 7814,
      "sang": 7815,
      "uine": 7816,
      "vince": 7817,
      "wf": 7818,
      "wim": 7819,
      "wwf": 7820,
      "indis": 7821,
      "inction": 7822,
      "aniston": 7823,
      "eds": 7824,
      "remin": 7825,
      "reunited": 7826,
      "asts": 7827,
      "artwork": 7828,
      "semin": 7829,
      "segment": 7830,
      "dee": 7831,
      "trond": 7832,
      "ags": 7833,
      "compose": 7834,
      "propose": 7835,
      "shallow": 7836,
      "persis": 7837,
      "elli": 7838,
      "torture": 7839,
      "geastr": 7840,
      "essay": 7841,
      "dodo": 7842,
      "prerog": 7843,
      "centers": 7844,
      "themed": 7845,
      "tenham": 7846,
      "phrey": 7847,
      "carpenter": 7848,
      "genuine": 7849,
      "lesund": 7850,
      "suburb": 7851,
      "addicted": 7852,
      "ifeng": 7853,
      "corrup": 7854,
      "venues": 7855,
      "township": 7856,
      "vicinity": 7857,
      "dying": 7858,
      "balls": 7859,
      "varanasi": 7860,
      "completing": 7861,
      "topped": 7862,
      "successive": 7863,
      "yorkshire": 7864,
      "scorer": 7865,
      "lawton": 7866,
      "profile": 7867,
      "profound": 7868,
      "woods": 7869,
      "wilde": 7870,
      "stony": 7871,
      "studying": 7872,
      "staying": 7873,
      "kaifeng": 7874,
      "discussed": 7875,
      "luis": 7876,
      "coaching": 7877,
      "friendly": 7878,
      "susp": 7879,
      "flown": 7880,
      "armour": 7881,
      "armament": 7882,
      "lennon": 7883,
      "gregory": 7884,
      "separated": 7885,
      "proceeds": 7886,
      "hearing": 7887,
      "humphrey": 7888,
      "bono": 7889,
      "nominations": 7890,
      "requirement": 7891,
      "budd": 7892,
      "1930s": 7893,
      "climate": 7894,
      "shelter": 7895,
      "wicca": 7896,
      "demonstration": 7897,
      "vulcan": 7898,
      "minimum": 7899,
      "replied": 7900,
      "fragments": 7901,
      "thosaurus": 7902,
      "arrangement": 7903,
      "democratic": 7904,
      "austria": 7905,
      "recruit": 7906,
      "neighborhood": 7907,
      "cubs": 7908,
      "acknowled": 7909,
      "acknowledge": 7910,
      "nadal": 7911,
      "symptoms": 7912,
      "surprised": 7913,
      "encountered": 7914,
      "enabling": 7915,
      "nielsen": 7916,
      "compilation": 7917,
      "plunketts": 7918,
      "inhabitants": 7919,
      "patterson": 7920,
      "corythosaurus": 7921,
      "jifna": 7922,
      "trondheim": 7923,
      "persisted": 7924,
      "geastrum": 7925,
      "atop": 7926,
      "avia": 7927,
      "aero": 7928,
      "bac": 7929,
      "cous": 7930,
      "jas": 7931,
      "mns": 7932,
      "nl": 7933,
      "pave": 7934,
      "rar": 7935,
      "sak": 7936,
      "trough": 7937,
      "ymp": 7938,
      "theless": 7939,
      "intim": 7940,
      "erry": 7941,
      "edi": 7942,
      "reject": 7943,
      "assum": 7944,
      "ashore": 7945,
      "aled": 7946,
      "alph": 7947,
      "esar": 7948,
      "estone": 7949,
      "itunes": 7950,
      "rosaurus": 7951,
      "chen": 7952,
      "chord": 7953,
      "outr": 7954,
      "cosmo": 7955,
      "acclaim": 7956,
      "degre": 7957,
      "veter": 7958,
      "veland": 7959,
      "vegas": 7960,
      "fork": 7961,
      "whel": 7962,
      "ura": 7963,
      "convoys": 7964,
      "hem": 7965,
      "teor": 7966,
      "withdra": 7967,
      "moments": 7968,
      "comics": 7969,
      "neth": 7970,
      "absor": 7971,
      "meteor": 7972,
      "shadow": 7973,
      "diverted": 7974,
      "icherry": 7975,
      "mano": 7976,
      "fears": 7977,
      "updated": 7978,
      "quite": 7979,
      "herent": 7980,
      "opy": 7981,
      "options": 7982,
      "worn": 7983,
      "marge": 7984,
      "turks": 7985,
      "disgu": 7986,
      "shear": 7987,
      "typho": 7988,
      "recap": 7989,
      "fires": 7990,
      "overwhel": 7991,
      "tempo": 7992,
      "intervent": 7993,
      "regulation": 7994,
      "jean": 7995,
      "tenance": 7996,
      "carving": 7997,
      "carib": 7998,
      "backing": 7999
    },
    "merges": [
      [
        "t",
        "h"
      ],
      [
        "th",
        "e"
      ],
      [
        "t",
        "o"
      ],
      [
        "i",
        "n"
      ],
      [
        "o",
        "n"
      ],
      [
        "a",
        "n"
      ],
      [
        "e",
        "r"
      ],
      [
        "e",
        "d"
      ],
      [
        "r",
        "e"
      ],
      [
        "a",
        "t"
      ],
      [
        "e",
        "n"
      ],
      [
        "u",
        "n"
      ],
      [
        "a",
        "s"
      ],
      [
        "a",
        "l"
      ],
      [
        "o",
        "r"
      ],
      [
        "a",
        "r"
      ],
      [
        "an",
        "d"
      ],
      [
        "i",
        "s"
      ],
      [
        "e",
        "s"
      ],
      [
        "o",
        "f"
      ],
      [
        "in",
        "g"
      ],
      [
        "i",
        "t"
      ],
      [
        "un",
        "k"
      ],
      [
        "r",
        "o"
      ],
      [
        "i",
        "c"
      ],
      [
        "s",
        "t"
      ],
      [
        "l",
        "e"
      ],
      [
        "i",
        "on"
      ],
      [
        "c",
        "h"
      ],
      [
        "s",
        "e"
      ],
      [
        "b",
        "e"
      ],
      [
        "o",
        "u"
      ],
      [
        "a",
        "d"
      ],
      [
        "en",
        "t"
      ],
      [
        "i",
        "l"
      ],
      [
        "c",
        "o"
      ],
      [
        "a",
        "c"
      ],
      [
        "a",
        "m"
      ],
      [
        "d",
        "e"
      ],
      [
        "v",
        "e"
      ],
      [
        "l",
        "y"
      ],
      [
        "f",
        "or"
      ],
      [
        "w",
        "as"
      ],
      [
        "w",
        "h"
      ],
      [
        "i",
        "r"
      ],
      [
        "l",
        "o"
      ],
      [
        "u",
        "r"
      ],
      [
        "i",
        "m"
      ],
      [
        "i",
        "g"
      ],
      [
        "c",
        "on"
      ],
      [
        "h",
        "e"
      ],
      [
        "a",
        "y"
      ],
      [
        "t",
        "er"
      ],
      [
        "w",
        "i"
      ],
      [
        "c",
        "e"
      ],
      [
        "th",
        "at"
      ],
      [
        "t",
        "e"
      ],
      [
        "v",
        "er"
      ],
      [
        "wi",
        "th"
      ],
      [
        "p",
        "o"
      ],
      [
        "t",
        "r"
      ],
      [
        "u",
        "s"
      ],
      [
        "i",
        "d"
      ],
      [
        "at",
        "ion"
      ],
      [
        "m",
        "o"
      ],
      [
        "a",
        "g"
      ],
      [
        "co",
        "m"
      ],
      [
        "n",
        "o"
      ],
      [
        "s",
        "u"
      ],
      [
        "p",
        "e"
      ],
      [
        "c",
        "t"
      ],
      [
        "b",
        "u"
      ],
      [
        "n",
        "e"
      ],
      [
        "o",
        "l"
      ],
      [
        "a",
        "p"
      ],
      [
        "p",
        "ro"
      ],
      [
        "a",
        "b"
      ],
      [
        "h",
        "is"
      ],
      [
        "er",
        "e"
      ],
      [
        "p",
        "l"
      ],
      [
        "b",
        "y"
      ],
      [
        "ro",
        "m"
      ],
      [
        "re",
        "s"
      ],
      [
        "m",
        "e"
      ],
      [
        "a",
        "in"
      ],
      [
        "s",
        "o"
      ],
      [
        "s",
        "h"
      ],
      [
        "u",
        "l"
      ],
      [
        "r",
        "i"
      ],
      [
        "t",
        "s"
      ],
      [
        "t",
        "ed"
      ],
      [
        "f",
        "rom"
      ],
      [
        "al",
        "l"
      ],
      [
        "at",
        "e"
      ],
      [
        "k",
        "e"
      ],
      [
        "0",
        "0"
      ],
      [
        "1",
        "9"
      ],
      [
        "b",
        "er"
      ],
      [
        "es",
        "t"
      ],
      [
        "p",
        "er"
      ],
      [
        "e",
        "l"
      ],
      [
        "the",
        "r"
      ],
      [
        "a",
        "re"
      ],
      [
        "l",
        "i"
      ],
      [
        "d",
        "i"
      ],
      [
        "w",
        "ere"
      ],
      [
        "un",
        "d"
      ],
      [
        "ig",
        "h"
      ],
      [
        "m",
        "ent"
      ],
      [
        "e",
        "x"
      ],
      [
        "ic",
        "h"
      ],
      [
        "m",
        "an"
      ],
      [
        "c",
        "l"
      ],
      [
        "f",
        "e"
      ],
      [
        "en",
        "d"
      ],
      [
        "o",
        "w"
      ],
      [
        "to",
        "r"
      ],
      [
        "a",
        "ve"
      ],
      [
        "g",
        "e"
      ],
      [
        "er",
        "s"
      ],
      [
        "or",
        "d"
      ],
      [
        "it",
        "y"
      ],
      [
        "l",
        "d"
      ],
      [
        "is",
        "h"
      ],
      [
        "a",
        "u"
      ],
      [
        "wh",
        "ich"
      ],
      [
        "il",
        "l"
      ],
      [
        "g",
        "h"
      ],
      [
        "p",
        "ar"
      ],
      [
        "d",
        "u"
      ],
      [
        "b",
        "o"
      ],
      [
        "i",
        "es"
      ],
      [
        "at",
        "ed"
      ],
      [
        "ar",
        "d"
      ],
      [
        "u",
        "p"
      ],
      [
        "g",
        "o"
      ],
      [
        "q",
        "u"
      ],
      [
        "p",
        "or"
      ],
      [
        "m",
        "ber"
      ],
      [
        "r",
        "a"
      ],
      [
        "h",
        "ad"
      ],
      [
        "bu",
        "t"
      ],
      [
        "on",
        "g"
      ],
      [
        "h",
        "er"
      ],
      [
        "t",
        "w"
      ],
      [
        "es",
        "s"
      ],
      [
        "ac",
        "k"
      ],
      [
        "i",
        "ve"
      ],
      [
        "am",
        "e"
      ],
      [
        "on",
        "e"
      ],
      [
        "f",
        "o"
      ],
      [
        "the",
        "ir"
      ],
      [
        "v",
        "i"
      ],
      [
        "ou",
        "t"
      ],
      [
        "b",
        "r"
      ],
      [
        "o",
        "p"
      ],
      [
        "an",
        "t"
      ],
      [
        "ou",
        "r"
      ],
      [
        "is",
        "t"
      ],
      [
        "lo",
        "w"
      ],
      [
        "it",
        "s"
      ],
      [
        "i",
        "p"
      ],
      [
        "as",
        "s"
      ],
      [
        "a",
        "v"
      ],
      [
        "a",
        "f"
      ],
      [
        "e",
        "ar"
      ],
      [
        "st",
        "r"
      ],
      [
        "e",
        "m"
      ],
      [
        "f",
        "ir"
      ],
      [
        "ar",
        "y"
      ],
      [
        "al",
        "ly"
      ],
      [
        "no",
        "t"
      ],
      [
        "c",
        "i"
      ],
      [
        "h",
        "ave"
      ],
      [
        "a",
        "k"
      ],
      [
        "a",
        "ch"
      ],
      [
        "igh",
        "t"
      ],
      [
        "w",
        "or"
      ],
      [
        "f",
        "er"
      ],
      [
        "as",
        "t"
      ],
      [
        "in",
        "e"
      ],
      [
        "ac",
        "t"
      ],
      [
        "s",
        "i"
      ],
      [
        "wh",
        "o"
      ],
      [
        "ou",
        "ld"
      ],
      [
        "m",
        "ar"
      ],
      [
        "c",
        "re"
      ],
      [
        "l",
        "and"
      ],
      [
        "f",
        "ic"
      ],
      [
        "fir",
        "st"
      ],
      [
        "v",
        "ed"
      ],
      [
        "b",
        "l"
      ],
      [
        "t",
        "im"
      ],
      [
        "ag",
        "e"
      ],
      [
        "g",
        "u"
      ],
      [
        "d",
        "o"
      ],
      [
        "pl",
        "ay"
      ],
      [
        "h",
        "o"
      ],
      [
        "p",
        "res"
      ],
      [
        "for",
        "m"
      ],
      [
        "por",
        "t"
      ],
      [
        "com",
        "m"
      ],
      [
        "l",
        "l"
      ],
      [
        "ig",
        "n"
      ],
      [
        "ab",
        "le"
      ],
      [
        "the",
        "y"
      ],
      [
        "s",
        "er"
      ],
      [
        "o",
        "d"
      ],
      [
        "an",
        "s"
      ],
      [
        "p",
        "re"
      ],
      [
        "it",
        "ion"
      ],
      [
        "ne",
        "w"
      ],
      [
        "con",
        "t"
      ],
      [
        "2",
        "00"
      ],
      [
        "u",
        "t"
      ],
      [
        "f",
        "in"
      ],
      [
        "re",
        "e"
      ],
      [
        "ou",
        "s"
      ],
      [
        "t",
        "ur"
      ],
      [
        "o",
        "ther"
      ],
      [
        "po",
        "s"
      ],
      [
        "ic",
        "al"
      ],
      [
        "r",
        "ed"
      ],
      [
        "2",
        "0"
      ],
      [
        "u",
        "m"
      ],
      [
        "u",
        "d"
      ],
      [
        "at",
        "t"
      ],
      [
        "u",
        "re"
      ],
      [
        "d",
        "is"
      ],
      [
        "as",
        "ed"
      ],
      [
        "p",
        "t"
      ],
      [
        "n",
        "or"
      ],
      [
        "i",
        "a"
      ],
      [
        "s",
        "he"
      ],
      [
        "tw",
        "o"
      ],
      [
        "g",
        "r"
      ],
      [
        "be",
        "en"
      ],
      [
        "m",
        "a"
      ],
      [
        "h",
        "im"
      ],
      [
        "w",
        "n"
      ],
      [
        "m",
        "in"
      ],
      [
        "an",
        "ce"
      ],
      [
        "to",
        "n"
      ],
      [
        "e",
        "v"
      ],
      [
        "h",
        "as"
      ],
      [
        "th",
        "is"
      ],
      [
        "t",
        "y"
      ],
      [
        "p",
        "r"
      ],
      [
        "ou",
        "gh"
      ],
      [
        "re",
        "c"
      ],
      [
        "ro",
        "u"
      ],
      [
        "at",
        "er"
      ],
      [
        "en",
        "ce"
      ],
      [
        "w",
        "ay"
      ],
      [
        "a",
        "ir"
      ],
      [
        "ct",
        "ion"
      ],
      [
        "us",
        "ed"
      ],
      [
        "i",
        "an"
      ],
      [
        "i",
        "v"
      ],
      [
        "ad",
        "e"
      ],
      [
        "d",
        "es"
      ],
      [
        "it",
        "e"
      ],
      [
        "w",
        "e"
      ],
      [
        "ac",
        "e"
      ],
      [
        "f",
        "i"
      ],
      [
        "1",
        "8"
      ],
      [
        "ow",
        "n"
      ],
      [
        "c",
        "ed"
      ],
      [
        "ar",
        "t"
      ],
      [
        "af",
        "ter"
      ],
      [
        "al",
        "so"
      ],
      [
        "tur",
        "n"
      ],
      [
        "wor",
        "k"
      ],
      [
        "s",
        "p"
      ],
      [
        "s",
        "pe"
      ],
      [
        "g",
        "ro"
      ],
      [
        "in",
        "t"
      ],
      [
        "sh",
        "ip"
      ],
      [
        "par",
        "t"
      ],
      [
        "c",
        "k"
      ],
      [
        "v",
        "is"
      ],
      [
        "it",
        "ed"
      ],
      [
        "m",
        "on"
      ],
      [
        "n",
        "u"
      ],
      [
        "o",
        "ver"
      ],
      [
        "e",
        "t"
      ],
      [
        "g",
        "an"
      ],
      [
        "c",
        "r"
      ],
      [
        "o",
        "k"
      ],
      [
        "u",
        "e"
      ],
      [
        "i",
        "le"
      ],
      [
        "f",
        "l"
      ],
      [
        "o",
        "c"
      ],
      [
        "s",
        "ou"
      ],
      [
        "com",
        "p"
      ],
      [
        "c",
        "ent"
      ],
      [
        "mo",
        "re"
      ],
      [
        "the",
        "m"
      ],
      [
        "te",
        "m"
      ],
      [
        "w",
        "ould"
      ],
      [
        "s",
        "a"
      ],
      [
        "s",
        "on"
      ],
      [
        "c",
        "an"
      ],
      [
        "ol",
        "d"
      ],
      [
        "in",
        "cl"
      ],
      [
        "re",
        "n"
      ],
      [
        "ation",
        "s"
      ],
      [
        "20",
        "1"
      ],
      [
        "in",
        "ter"
      ],
      [
        "j",
        "o"
      ],
      [
        "i",
        "al"
      ],
      [
        "t",
        "a"
      ],
      [
        "tim",
        "e"
      ],
      [
        "du",
        "e"
      ],
      [
        "re",
        "g"
      ],
      [
        "m",
        "ain"
      ],
      [
        "s",
        "ion"
      ],
      [
        "f",
        "t"
      ],
      [
        "wh",
        "en"
      ],
      [
        "an",
        "g"
      ],
      [
        "rou",
        "gh"
      ],
      [
        "ct",
        "ed"
      ],
      [
        "fo",
        "re"
      ],
      [
        "so",
        "me"
      ],
      [
        "j",
        "e"
      ],
      [
        "y",
        "ear"
      ],
      [
        "s",
        "ing"
      ],
      [
        "on",
        "ly"
      ],
      [
        "il",
        "d"
      ],
      [
        "s",
        "c"
      ],
      [
        "t",
        "en"
      ],
      [
        "c",
        "es"
      ],
      [
        "l",
        "ed"
      ],
      [
        "m",
        "ay"
      ],
      [
        "as",
        "e"
      ],
      [
        "j",
        "u"
      ],
      [
        "c",
        "ess"
      ],
      [
        "i",
        "z"
      ],
      [
        "mo",
        "st"
      ],
      [
        "f",
        "r"
      ],
      [
        "ic",
        "e"
      ],
      [
        "ch",
        "ar"
      ],
      [
        "p",
        "h"
      ],
      [
        "en",
        "g"
      ],
      [
        "un",
        "t"
      ],
      [
        "ur",
        "ing"
      ],
      [
        "th",
        "ough"
      ],
      [
        "s",
        "ong"
      ],
      [
        "l",
        "a"
      ],
      [
        "p",
        "u"
      ],
      [
        "w",
        "ard"
      ],
      [
        "f",
        "il"
      ],
      [
        "tor",
        "y"
      ],
      [
        "be",
        "c"
      ],
      [
        "c",
        "ar"
      ],
      [
        "d",
        "ay"
      ],
      [
        "l",
        "ar"
      ],
      [
        "o",
        "t"
      ],
      [
        "c",
        "a"
      ],
      [
        "wh",
        "ile"
      ],
      [
        "as",
        "on"
      ],
      [
        "an",
        "y"
      ],
      [
        "wh",
        "ere"
      ],
      [
        "nu",
        "mber"
      ],
      [
        "e",
        "f"
      ],
      [
        "cont",
        "in"
      ],
      [
        "re",
        "le"
      ],
      [
        "er",
        "ed"
      ],
      [
        "re",
        "l"
      ],
      [
        "in",
        "to"
      ],
      [
        "rec",
        "ord"
      ],
      [
        "b",
        "ack"
      ],
      [
        "g",
        "en"
      ],
      [
        "b",
        "le"
      ],
      [
        "ap",
        "pe"
      ],
      [
        "ing",
        "s"
      ],
      [
        "m",
        "ed"
      ],
      [
        "m",
        "y"
      ],
      [
        "l",
        "es"
      ],
      [
        "co",
        "l"
      ],
      [
        "f",
        "a"
      ],
      [
        "at",
        "es"
      ],
      [
        "w",
        "r"
      ],
      [
        "incl",
        "ud"
      ],
      [
        "w",
        "ar"
      ],
      [
        "e",
        "p"
      ],
      [
        "h",
        "igh"
      ],
      [
        "und",
        "er"
      ],
      [
        "re",
        "turn"
      ],
      [
        "bu",
        "m"
      ],
      [
        "ion",
        "s"
      ],
      [
        "u",
        "se"
      ],
      [
        "al",
        "bum"
      ],
      [
        "pu",
        "bl"
      ],
      [
        "g",
        "ame"
      ],
      [
        "s",
        "y"
      ],
      [
        "su",
        "p"
      ],
      [
        "su",
        "b"
      ],
      [
        "ar",
        "ch"
      ],
      [
        "nor",
        "th"
      ],
      [
        "str",
        "u"
      ],
      [
        "be",
        "ing"
      ],
      [
        "se",
        "l"
      ],
      [
        "tr",
        "i"
      ],
      [
        "al",
        "s"
      ],
      [
        "am",
        "p"
      ],
      [
        "le",
        "ad"
      ],
      [
        "con",
        "s"
      ],
      [
        "lo",
        "g"
      ],
      [
        "th",
        "ree"
      ],
      [
        "the",
        "n"
      ],
      [
        "con",
        "d"
      ],
      [
        "s",
        "s"
      ],
      [
        "de",
        "c"
      ],
      [
        "v",
        "es"
      ],
      [
        "ag",
        "ain"
      ],
      [
        "of",
        "f"
      ],
      [
        "in",
        "d"
      ],
      [
        "f",
        "ul"
      ],
      [
        "ab",
        "out"
      ],
      [
        "lo",
        "c"
      ],
      [
        "th",
        "an"
      ],
      [
        "s",
        "ch"
      ],
      [
        "d",
        "uring"
      ],
      [
        "fil",
        "m"
      ],
      [
        "co",
        "un"
      ],
      [
        "m",
        "is"
      ],
      [
        "l",
        "ish"
      ],
      [
        "el",
        "l"
      ],
      [
        "ic",
        "an"
      ],
      [
        "re",
        "at"
      ],
      [
        "ad",
        "d"
      ],
      [
        "o",
        "m"
      ],
      [
        "en",
        "s"
      ],
      [
        "m",
        "ade"
      ],
      [
        "ic",
        "k"
      ],
      [
        "th",
        "rough"
      ],
      [
        "f",
        "our"
      ],
      [
        "be",
        "fore"
      ],
      [
        "appe",
        "ar"
      ],
      [
        "at",
        "tem"
      ],
      [
        "il",
        "y"
      ],
      [
        "c",
        "ity"
      ],
      [
        "s",
        "ur"
      ],
      [
        "it",
        "ies"
      ],
      [
        "al",
        "low"
      ],
      [
        "se",
        "ason"
      ],
      [
        "g",
        "er"
      ],
      [
        "ul",
        "ar"
      ],
      [
        "i",
        "re"
      ],
      [
        "sou",
        "th"
      ],
      [
        "tr",
        "ans"
      ],
      [
        "b",
        "ased"
      ],
      [
        "e",
        "ver"
      ],
      [
        "u",
        "ary"
      ],
      [
        "pro",
        "du"
      ],
      [
        "k",
        "no"
      ],
      [
        "be",
        "gan"
      ],
      [
        "i",
        "f"
      ],
      [
        "c",
        "lo"
      ],
      [
        "se",
        "t"
      ],
      [
        "p",
        "ed"
      ],
      [
        "ment",
        "s"
      ],
      [
        "st",
        "e"
      ],
      [
        "l",
        "ong"
      ],
      [
        "ter",
        "s"
      ],
      [
        "tr",
        "y"
      ],
      [
        "l",
        "ater"
      ],
      [
        "19",
        "9"
      ],
      [
        "i",
        "e"
      ],
      [
        "com",
        "e"
      ],
      [
        "d",
        "own"
      ],
      [
        "se",
        "cond"
      ],
      [
        "e",
        "en"
      ],
      [
        "1",
        "0"
      ],
      [
        "f",
        "ol"
      ],
      [
        "k",
        "ing"
      ],
      [
        "m",
        "us"
      ],
      [
        "s",
        "im"
      ],
      [
        "w",
        "est"
      ],
      [
        "m",
        "i"
      ],
      [
        "ent",
        "s"
      ],
      [
        "br",
        "it"
      ],
      [
        "re",
        "fer"
      ],
      [
        "l",
        "it"
      ],
      [
        "at",
        "ing"
      ],
      [
        "m",
        "or"
      ],
      [
        "b",
        "ro"
      ],
      [
        "ter",
        "n"
      ],
      [
        "the",
        "re"
      ],
      [
        "n",
        "ation"
      ],
      [
        "c",
        "all"
      ],
      [
        "gu",
        "st"
      ],
      [
        "te",
        "am"
      ],
      [
        "on",
        "d"
      ],
      [
        "di",
        "f"
      ],
      [
        "n",
        "ing"
      ],
      [
        "li",
        "ke"
      ],
      [
        "c",
        "ap"
      ],
      [
        "e",
        "le"
      ],
      [
        "00",
        "0"
      ],
      [
        "h",
        "ow"
      ],
      [
        "su",
        "ch"
      ],
      [
        "a",
        "th"
      ],
      [
        "ul",
        "t"
      ],
      [
        "is",
        "e"
      ],
      [
        "s",
        "to"
      ],
      [
        "b",
        "ar"
      ],
      [
        "man",
        "y"
      ],
      [
        "ma",
        "ke"
      ],
      [
        "de",
        "p"
      ],
      [
        "t",
        "ro"
      ],
      [
        "o",
        "se"
      ],
      [
        "of",
        "fic"
      ],
      [
        "id",
        "ed"
      ],
      [
        "r",
        "y"
      ],
      [
        "am",
        "es"
      ],
      [
        "d",
        "er"
      ],
      [
        "un",
        "ited"
      ],
      [
        "c",
        "ur"
      ],
      [
        "contin",
        "u"
      ],
      [
        "ur",
        "ch"
      ],
      [
        "fo",
        "und"
      ],
      [
        "c",
        "or"
      ],
      [
        "o",
        "b"
      ],
      [
        "am",
        "er"
      ],
      [
        "fol",
        "low"
      ],
      [
        "au",
        "gust"
      ],
      [
        "sh",
        "ow"
      ],
      [
        "o",
        "per"
      ],
      [
        "go",
        "d"
      ],
      [
        "st",
        "ar"
      ],
      [
        "au",
        "se"
      ],
      [
        "m",
        "al"
      ],
      [
        "no",
        "ve"
      ],
      [
        "1",
        "5"
      ],
      [
        "ign",
        "ed"
      ],
      [
        "w",
        "ell"
      ],
      [
        "he",
        "l"
      ],
      [
        "ch",
        "r"
      ],
      [
        "vi",
        "e"
      ],
      [
        "i",
        "de"
      ],
      [
        "v",
        "en"
      ],
      [
        "un",
        "e"
      ],
      [
        "wr",
        "it"
      ],
      [
        "bo",
        "th"
      ],
      [
        "t",
        "ain"
      ],
      [
        "u",
        "al"
      ],
      [
        "c",
        "er"
      ],
      [
        "se",
        "p"
      ],
      [
        "st",
        "ate"
      ],
      [
        "l",
        "ine"
      ],
      [
        "be",
        "tw"
      ],
      [
        "te",
        "mber"
      ],
      [
        "sep",
        "tember"
      ],
      [
        "betw",
        "een"
      ],
      [
        "pres",
        "ent"
      ],
      [
        "se",
        "ver"
      ],
      [
        "ver",
        "s"
      ],
      [
        "ord",
        "er"
      ],
      [
        "sel",
        "f"
      ],
      [
        "e",
        "k"
      ],
      [
        "in",
        "v"
      ],
      [
        "w",
        "in"
      ],
      [
        "vis",
        "ion"
      ],
      [
        "po",
        "p"
      ],
      [
        "w",
        "er"
      ],
      [
        "at",
        "ch"
      ],
      [
        "an",
        "k"
      ],
      [
        "n",
        "a"
      ],
      [
        "ta",
        "ke"
      ],
      [
        "le",
        "g"
      ],
      [
        "p",
        "ri"
      ],
      [
        "or",
        "k"
      ],
      [
        "t",
        "al"
      ],
      [
        "si",
        "de"
      ],
      [
        "je",
        "ct"
      ],
      [
        "nation",
        "al"
      ],
      [
        "ac",
        "c"
      ],
      [
        "rele",
        "ased"
      ],
      [
        "ic",
        "s"
      ],
      [
        "op",
        "en"
      ],
      [
        "op",
        "le"
      ],
      [
        "m",
        "s"
      ],
      [
        "j",
        "an"
      ],
      [
        "i",
        "ous"
      ],
      [
        "r",
        "un"
      ],
      [
        "gen",
        "er"
      ],
      [
        "pe",
        "ople"
      ],
      [
        "he",
        "ad"
      ],
      [
        "publ",
        "ic"
      ],
      [
        "cons",
        "id"
      ],
      [
        "p",
        "ass"
      ],
      [
        "pl",
        "an"
      ],
      [
        "to",
        "wn"
      ],
      [
        "v",
        "ing"
      ],
      [
        "ve",
        "lo"
      ],
      [
        "so",
        "ci"
      ],
      [
        "m",
        "u"
      ],
      [
        "end",
        "ed"
      ],
      [
        "brit",
        "ish"
      ],
      [
        "t",
        "ing"
      ],
      [
        "b",
        "att"
      ],
      [
        "v",
        "al"
      ],
      [
        "v",
        "ic"
      ],
      [
        "again",
        "st"
      ],
      [
        "de",
        "velo"
      ],
      [
        "el",
        "d"
      ],
      [
        "in",
        "di"
      ],
      [
        "1",
        "6"
      ],
      [
        "wor",
        "ld"
      ],
      [
        "includ",
        "ing"
      ],
      [
        "fe",
        "at"
      ],
      [
        "re",
        "f"
      ],
      [
[...]
