{
  "version": "1.0",
  "truncation": null,
  "padding": null,
  "added_tokens": [
    {
      "id": 0,
      "content": "[PAD]",
      "single_word": false,
      "lstrip": false,
      "rstrip": false,
      "normalized": false,
      "special": true
    },
    {
      "id": 1,
      "content": "[UNK]",
      "single_word": false,
      "lstrip": false,
      "rstrip": false,
      "normalized": false,
      "special": true
    },
    {
      "id": 2,
      "content": "[BOS]",
      "single_word": false,
      "lstrip": false,
      "rstrip": false,
      "normalized": false,
      "special": true
    },
    {
      "id": 3,
      "content": "[EOS]",
      "single_word": false,
      "lstrip": false,
      "rstrip": false,
      "normalized": false,
      "special": true
    }
  ],
  "normalizer": null,
  "pre_tokenizer": {
    "type": "Whitespace"
  },
  "post_processor": {
    "type": "TemplateProcessing",
    "single": [
      {
        "SpecialToken": {
          "id": "[BOS]",
          "type_id": 0
        }
      },
      {
        "Sequence": {
          "id": "A",
          "type_id": 0
        }
      },
      {
        "SpecialToken": {
          "id": "[EOS]",
          "type_id": 0
        }
      }
    ],
    "pair": [
      {
        "Sequence": {
          "id": "A",
          "type_id": 0
        }
      },
      {
        "Sequence": {
          "id": "B",
          "type_id": 1
        }
      }
    ],
    "special_tokens": {
      "[BOS]": {
        "id": "[BOS]",
        "ids": [
          2
        ],
        "tokens": [
          "[BOS]"
        ]
      },
      "[EOS]": {
        "id": "[EOS]",
        "ids": [
          3
        ],
        "tokens": [
          "[EOS]"
        ]
      }
    }
  },
  "decoder": null,
  "model": {
    "type": "BPE",
    "dropout": null,
    "unk_token": "[UNK]",
    "continuing_subword_prefix": null,
    "end_of_word_suffix": null,
    "fuse_unk": false,
    "byte_fallback": false,
    "ignore_merges": false,
    "vocab": {
      "[PAD]": 0,
      "[UNK]": 1,
      "[BOS]": 2,
      "[EOS]": 3,
      "0": 4,
      "1": 5,
      "2": 6,
      "3": 7,
      "4": 8,
      "5": 9,
      "7": 10,
      "8": 11,
      "9": 12,
      "a": 13,
      "b": 14,
      "c": 15,
      "d": 16,
      "e": 17,
      "f": 18,
      "g": 19,
      "h": 20,
      "i": 21,
      "j": 22,
      "k": 23,
      "l": 24,
      "m": 25,
      "n": 26,
      "o": 27,
      "p": 28,
      "q": 29,
      "r": 30,
      "s": 31,
      "t": 32,
      "u": 33,
      "v": 34,
      "w": 35,
      "x": 36,
      "y": 37,
      "z": 38,
      "he": 39,
      "to": 40,
      "the": 41,
      "an": 42,
      "ed": 43,
      "and": 44,
      "in": 45,
      "it": 46,
      "re": 47,
      "ou": 48,
      "ha": 49,
      "wa": 50,
      "on": 51,
      "en": 52,
      "is": 53,
      "ay": 54,
      "ar": 55,
      "er": 56,
      "le": 57,
      "id": 58,
      "ing": 59,
      "om": 60,
      "ll": 61,
      "sa": 62,
      "was": 63,
      "st": 64,
      "im": 65,
      "be": 66,
      "or": 67,
      "pl": 68,
      "his": 69,
      "ant": 70,
      "ut": 71,
      "ir": 72,
      "ot": 73,
      "ri": 74,
      "her": 75,
      "they": 76,
      "se": 77,
      "ow": 78,
      "ke": 79,
      "wit": 80,
      "at": 81,
      "li": 82,
      "with": 83,
      "want": 84,
      "play": 85,
      "she": 86,
      "ck": 87,
      "ld": 88,
      "ma": 89,
      "hat": 90,
      "ig": 91,
      "am": 92,
      "lo": 93,
      "ve": 94,
      "but": 95,
      "tim": 96,
      "ne": 97,
      "ent": 98,
      "th": 99,
      "end": 100,
      "un": 101,
      "wanted": 102,
      "ba": 103,
      "day": 104,
      "ver": 105,
      "so": 106,
      "that": 107,
      "ked": 108,
      "said": 109,
      "pp": 110,
      "ly": 111,
      "you": 112,
      "big": 113,
      "ch": 114,
      "al": 115,
      "fri": 116,
      "friend": 117,
      "of": 118,
      "go": 119,
      "we": 120,
      "went": 121,
      "ome": 122,
      "ge": 123,
      "mom": 124,
      "ould": 125,
      "for": 126,
      "not": 127,
      "do": 128,
      "ce": 129,
      "de": 130,
      "bo": 131,
      "had": 132,
      "ther": 133,
      "as": 134,
      "all": 135,
      "happ": 136,
      "ro": 137,
      "oun": 138,
      "very": 139,
      "sh": 140,
      "one": 141,
      "art": 142,
      "ok": 143,
      "hel": 144,
      "happy": 145,
      "out": 146,
      "saw": 147,
      "ind": 148,
      "itt": 149,
      "help": 150,
      "ra": 151,
      "ound": 152,
      "way": 153,
      "ca": 154,
      "ad": 155,
      "ry": 156,
      "up": 157,
      "friends": 158,
      "es": 159,
      "fe": 160,
      "ved": 161,
      "start": 162,
      "sp": 163,
      "su": 164,
      "bir": 165,
      "ho": 166,
      "back": 167,
      "thing": 168,
      "bird": 169,
      "litt": 170,
      "little": 171,
      "ide": 172,
      "ame": 173,
      "started": 174,
      "gh": 175,
      "new": 176,
      "their": 177,
      "ta": 178,
      "some": 179,
      "lily": 180,
      "tom": 181,
      "make": 182,
      "were": 183,
      "ter": 184,
      "car": 185,
      "have": 186,
      "toy": 187,
      "him": 188,
      "whe": 189,
      "did": 190,
      "ore": 191,
      "me": 192,
      "see": 193,
      "od": 194,
      "cat": 195,
      "came": 196,
      "could": 197,
      "tri": 198,
      "fu": 199,
      "nam": 200,
      "tre": 201,
      "rom": 202,
      "ill": 203,
      "named": 204,
      "dec": 205,
      "loved": 206,
      "il": 207,
      "put": 208,
      "them": 209,
      "find": 210,
      "ided": 211,
      "decided": 212,
      "can": 213,
      "ball": 214,
      "liked": 215,
      "fun": 216,
      "ght": 217,
      "other": 218,
      "um": 219,
      "my": 220,
      "tried": 221,
      "would": 222,
      "dog": 223,
      "ran": 224,
      "ark": 225,
      "co": 226,
      "bu": 227,
      "time": 228,
      "man": 229,
      "tree": 230,
      "from": 231,
      "own": 232,
      "ful": 233,
      "sto": 234,
      "toge": 235,
      "together": 236,
      "pe": 237,
      "ga": 238,
      "ic": 239,
      "when": 240,
      "use": 241,
      "there": 242,
      "get": 243,
      "ways": 244,
      "lu": 245,
      "op": 246,
      "who": 247,
      "ex": 248,
      "ick": 249,
      "sha": 250,
      "always": 251,
      "side": 252,
      "irl": 253,
      "gr": 254,
      "girl": 255,
      "ur": 256,
      "ab": 257,
      "what": 258,
      "arn": 259,
      "found": 260,
      "now": 261,
      "like": 262,
      "fa": 263,
      "park": 264,
      "learn": 265,
      "too": 266,
      "max": 267,
      "la": 268,
      "ouse": 269,
      "take": 270,
      "ach": 271,
      "sue": 272,
      "wor": 273,
      "look": 274,
      "pa": 275,
      "home": 276,
      "good": 277,
      "played": 278,
      "how": 279,
      "ep": 280,
      "che": 281,
      "things": 282,
      "mi": 283,
      "boy": 284,
      "show": 285,
      "if": 286,
      "ice": 287,
      "ong": 288,
      "ist": 289,
      "every": 290,
      "te": 291,
      "wal": 292,
      "more": 293,
      "by": 294,
      "ard": 295,
      "down": 296,
      "ru": 297,
      "igh": 298,
      "got": 299,
      "no": 300,
      "let": 301,
      "asked": 302,
      "ret": 303,
      "sam": 304,
      "care": 305,
      "fo": 306,
      "jo": 307,
      "ss": 308,
      "red": 309,
      "ought": 310,
      "ited": 311,
      "mall": 312,
      "try": 313,
      "ie": 314,
      "pr": 315,
      "small": 316,
      "spot": 317,
      "need": 318,
      "around": 319,
      "then": 320,
      "qu": 321,
      "house": 322,
      "us": 323,
      "cause": 324,
      "something": 325,
      "eat": 326,
      "because": 327,
      "took": 328,
      "lt": 329,
      "knew": 330,
      "playing": 331,
      "toys": 332,
      "are": 333,
      "oked": 334,
      "clo": 335,
      "ive": 336,
      "made": 337,
      "learned": 338,
      "sad": 339,
      "ump": 340,
      "ben": 341,
      "away": 342,
      "looked": 343,
      "ure": 344,
      "list": 345,
      "listen": 346,
      "cl": 347,
      "el": 348,
      "ish": 349,
      "your": 350,
      "share": 351,
      "than": 352,
      "about": 353,
      "exc": 354,
      "ug": 355,
      "der": 356,
      "ust": 357,
      "box": 358,
      "dad": 359,
      "low": 360,
      "mo": 361,
      "come": 362,
      "sun": 363,
      "king": 364,
      "know": 365,
      "told": 366,
      "ny": 367,
      "ble": 368,
      "pu": 369,
      "lea": 370,
      "pret": 371,
      "excited": 372,
      "room": 373,
      "scar": 374,
      "jump": 375,
      "cle": 376,
      "bot": 377,
      "thought": 378,
      "wh": 379,
      "run": 380,
      "ite": 381,
      "felt": 382,
      "pla": 383,
      "outside": 384,
      "na": 385,
      "pped": 386,
      "ct": 387,
      "gre": 388,
      "this": 389,
      "ise": 390,
      "bed": 391,
      "water": 392,
      "sw": 393,
      "its": 394,
      "cy": 395,
      "best": 396,
      "read": 397,
      "gain": 398,
      "will": 399,
      "gave": 400,
      "ort": 401,
      "say": 402,
      "spe": 403,
      "give": 404,
      "po": 405,
      "ate": 406,
      "again": 407,
      "pick": 408,
      "lly": 409,
      "ven": 410,
      "ty": 411,
      "kind": 412,
      "fly": 413,
      "per": 414,
      "each": 415,
      "didn": 416,
      "scared": 417,
      "ber": 418,
      "careful": 419,
      "sm": 420,
      "mia": 421,
      "nice": 422,
      "wat": 423,
      "rock": 424,
      "ci": 425,
      "imp": 426,
      "never": 427,
      "lucy": 428,
      "many": 429,
      "open": 430,
      "ink": 431,
      "fore": 432,
      "both": 433,
      "ft": 434,
      "ous": 435,
      "urn": 436,
      "into": 437,
      "feel": 438,
      "iled": 439,
      "br": 440,
      "just": 441,
      "long": 442,
      "rab": 443,
      "don": 444,
      "lot": 445,
      "hed": 446,
      "anim": 447,
      "animal": 448,
      "oud": 449,
      "stay": 450,
      "fle": 451,
      "yes": 452,
      "old": 453,
      "uch": 454,
      "even": 455,
      "keep": 456,
      "place": 457,
      "our": 458,
      "where": 459,
      "ight": 460,
      "lower": 461,
      "smiled": 462,
      "tal": 463,
      "rd": 464,
      "flower": 465,
      "off": 466,
      "used": 467,
      "et": 468,
      "lf": 469,
      "wo": 470,
      "fi": 471,
      "ily": 472,
      "fast": 473,
      "hand": 474,
      "gan": 475,
      "became": 476,
      "int": 477,
      "ion": 478,
      "bear": 479,
      "clim": 480,
      "over": 481,
      "sk": 482,
      "iny": 483,
      "ised": 484,
      "walked": 485,
      "clean": 486,
      "animals": 487,
      "fin": 488,
      "inside": 489,
      "import": 490,
      "peop": 491,
      "people": 492,
      "turn": 493,
      "food": 494,
      "ground": 495,
      "ket": 496,
      "bet": 497,
      "ren": 498,
      "important": 499,
      "under": 500,
      "able": 501,
      "nex": 502,
      "wait": 503,
      "going": 504,
      "flew": 505,
      "ile": 506,
      "lived": 507,
      "cial": 508,
      "special": 509,
      "dy": 510,
      "unt": 511,
      "fish": 512,
      "any": 513,
      "ass": 514,
      "watch": 515,
      "ched": 516,
      "sur": 517,
      "bob": 518,
      "better": 519,
      "began": 520,
      "ine": 521,
      "rain": 522,
      "everyone": 523,
      "cre": 524,
      "dan": 525,
      "com": 526,
      "dre": 527,
      "pretty": 528,
      "ild": 529,
      "near": 530,
      "cha": 531,
      "bug": 532,
      "showed": 533,
      "squ": 534,
      "ough": 535,
      "mem": 536,
      "stick": 537,
      "ol": 538,
      "ged": 539,
      "af": 540,
      "col": 541,
      "ving": 542,
      "fam": 543,
      "until": 544,
      "far": 545,
      "high": 546,
      "walk": 547,
      "tell": 548,
      "store": 549,
      "pic": 550,
      "next": 551,
      "thank": 552,
      "book": 553,
      "tow": 554,
      "mommy": 555,
      "uck": 556,
      "con": 557,
      "ser": 558,
      "surpr": 559,
      "tru": 560,
      "member": 561,
      "remember": 562,
      "hug": 563,
      "prom": 564,
      "sor": 565,
      "hard": 566,
      "swing": 567,
      "str": 568,
      "lad": 569,
      "should": 570,
      "door": 571,
      "lue": 572,
      "amy": 573,
      "safe": 574,
      "top": 575,
      "catch": 576,
      "leave": 577,
      "sl": 578,
      "rea": 579,
      "family": 580,
      "cake": 581,
      "trying": 582,
      "close": 583,
      "gard": 584,
      "garden": 585,
      "ture": 586,
      "others": 587,
      "still": 588,
      "right": 589,
      "cu": 590,
      "llow": 591,
      "couldn": 592,
      "story": 593,
      "bit": 594,
      "bra": 595,
      "ang": 596,
      "ara": 597,
      "picture": 598,
      "climb": 599,
      "vent": 600,
      "rm": 601,
      "mag": 602,
      "sorry": 603,
      "wind": 604,
      "bea": 605,
      "kid": 606,
      "raw": 607,
      "joy": 608,
      "blue": 609,
      "shiny": 610,
      "expl": 611,
      "sat": 612,
      "pt": 613,
      "ye": 614,
      "ally": 615,
      "self": 616,
      "jumped": 617,
      "work": 618,
      "heard": 619,
      "much": 620,
      "flo": 621,
      "bye": 622,
      "pretend": 623,
      "table": 624,
      "rent": 625,
      "bro": 626,
      "ff": 627,
      "lots": 628,
      "sit": 629,
      "anna": 630,
      "leep": 631,
      "app": 632,
      "part": 633,
      "kids": 634,
      "sure": 635,
      "ask": 636,
      "goodbye": 637,
      "lock": 638,
      "ja": 639,
      "call": 640,
      "also": 641,
      "love": 642,
      "kitt": 643,
      "set": 644,
      "magic": 645,
      "ger": 646,
      "sky": 647,
      "ning": 648,
      "tin": 649,
      "ready": 650,
      "says": 651,
      "rel": 652,
      "slide": 653,
      "being": 654,
      "picked": 655,
      "while": 656,
      "ste": 657,
      "talk": 658,
      "dd": 659,
      "urt": 660,
      "soft": 661,
      "laug": 662,
      "laughed": 663,
      "sleep": 664,
      "listened": 665,
      "thr": 666,
      "sara": 667,
      "boat": 668,
      "needed": 669,
      "why": 670,
      "face": 671,
      "worked": 672,
      "before": 673,
      "after": 674,
      "closer": 675,
      "bun": 676,
      "fix": 677,
      "forest": 678,
      "brave": 679,
      "color": 680,
      "beaut": 681,
      "sally": 682,
      "contin": 683,
      "continu": 684,
      "explore": 685,
      "sing": 686,
      "soon": 687,
      "floor": 688,
      "mouse": 689,
      "sho": 690,
      "bow": 691,
      "mile": 692,
      "rest": 693,
      "plan": 694,
      "smile": 695,
      "bunny": 696,
      "game": 697,
      "helped": 698,
      "strong": 699,
      "beauti": 700,
      "enjoy": 701,
      "beautiful": 702,
      "pat": 703,
      "times": 704,
      "upon": 705,
      "promised": 706,
      "fro": 707,
      "ummy": 708,
      "continued": 709,
      "grab": 710,
      "truck": 711,
      "move": 712,
      "ond": 713,
      "town": 714,
      "pull": 715,
      "warm": 716,
      "doll": 717,
      "ze": 718,
      "flowers": 719,
      "mar": 720,
      "ugh": 721,
      "bad": 722,
      "ip": 723,
      "key": 724,
      "thanked": 725,
      "frog": 726,
      "kitty": 727,
      "squir": 728,
      "okay": 729,
      "squirrel": 730,
      "draw": 731,
      "pie": 732,
      "kept": 733,
      "dif": 734,
      "duck": 735,
      "buy": 736,
      "irst": 737,
      "head": 738,
      "looking": 739,
      "age": 740,
      "led": 741,
      "advent": 742,
      "opened": 743,
      "tor": 744,
      "proud": 745,
      "vis": 746,
      "paper": 747,
      "race": 748,
      "hands": 749,
      "fav": 750,
      "sometimes": 751,
      "dress": 752,
      "sed": 753,
      "grass": 754,
      "cho": 755,
      "stop": 756,
      "less": 757,
      "called": 758,
      "agre": 759,
      "rabbit": 760,
      "ph": 761,
      "zz": 762,
      "mon": 763,
      "reach": 764,
      "ffy": 765,
      "ars": 766,
      "first": 767,
      "flu": 768,
      "stand": 769,
      "hill": 770,
      "hole": 771,
      "grand": 772,
      "tra": 773,
      "build": 774,
      "fluffy": 775,
      "two": 776,
      "ash": 777,
      "wear": 778,
      "land": 779,
      "touch": 780,
      "kit": 781,
      "cut": 782,
      "dis": 783,
      "sand": 784,
      "cook": 785,
      "cry": 786,
      "thre": 787,
      "cket": 788,
      "pond": 789,
      "ried": 790,
      "apple": 791,
      "fell": 792,
      "follow": 793,
      "lan": 794,
      "ess": 795,
      "wr": 796,
      "ray": 797,
      "paint": 798,
      "dance": 799,
      "mean": 800,
      "chen": 801,
      "kitchen": 802,
      "ers": 803,
      "ac": 804,
      "adventure": 805,
      "jack": 806,
      "birds": 807,
      "hurt": 808,
      "ign": 809,
      "met": 810,
      "mat": 811,
      "party": 812,
      "think": 813,
      "gu": 814,
      "farm": 815,
      "swim": 816,
      "loud": 817,
      "piece": 818,
      "ted": 819,
      "yummy": 820,
      "ished": 821,
      "dri": 822,
      "favor": 823,
      "favorite": 824,
      "da": 825,
      "green": 826,
      "remembered": 827,
      "surprised": 828,
      "curi": 829,
      "bag": 830,
      "join": 831,
      "hop": 832,
      "orn": 833,
      "curious": 834,
      "great": 835,
      "stopped": 836,
      "sunny": 837,
      "shed": 838,
      "leaves": 839,
      "cream": 840,
      "light": 841,
      "hold": 842,
      "block": 843,
      "visit": 844,
      "ring": 845,
      "won": 846,
      "here": 847,
      "ange": 848,
      "ride": 849,
      "agreed": 850,
      "been": 851,
      "illy": 852,
      "roll": 853,
      "another": 854,
      "hugged": 855,
      "ired": 856,
      "sudd": 857,
      "fire": 858,
      "sudden": 859,
      "chair": 860,
      "shared": 861,
      "coun": 862,
      "feeling": 863,
      "dro": 864,
      "je": 865,
      "tall": 866,
      "happen": 867,
      "lease": 868,
      "fru": 869,
      "ak": 870,
      "win": 871,
      "diffe": 872,
      "cars": 873,
      "turned": 874,
      "making": 875,
      "funny": 876,
      "ced": 877,
      "med": 878,
      "yard": 879,
      "idea": 880,
      "bring": 881,
      "oon": 882,
      "suddenly": 883,
      "ting": 884,
      "different": 885,
      "zed": 886,
      "whis": 887,
      "lion": 888,
      "walking": 889,
      "dr": 890,
      "tired": 891,
      "surprise": 892,
      "arm": 893,
      "laugh": 894,
      "pen": 895,
      "mis": 896,
      "must": 897,
      "ike": 898,
      "deli": 899,
      "push": 900,
      "hide": 901,
      "wel": 902,
      "air": 903,
      "tle": 904,
      "ught": 905,
      "ple": 906,
      "grow": 907,
      "ung": 908,
      "train": 909,
      "please": 910,
      "timmy": 911,
      "pet": 912,
      "night": 913,
      "baby": 914,
      "ied": 915,
      "em": 916,
      "wise": 917,
      "sna": 918,
      "isy": 919,
      "quick": 920,
      "brought": 921,
      "mu": 922,
      "mum": 923,
      "iced": 924,
      "only": 925,
      "ries": 926,
      "bran": 927,
      "through": 928,
      "ken": 929,
      "tiny": 930,
      "ster": 931,
      "eyes": 932,
      "oney": 933,
      "someone": 934,
      "teach": 935,
      "itting": 936,
      "bright": 937,
      "anymore": 938,
      "oth": 939,
      "grandma": 940,
      "song": 941,
      "ient": 942,
      "ies": 943,
      "climbed": 944,
      "trees": 945,
      "av": 946,
      "watched": 947,
      "swa": 948,
      "ath": 949,
      "wall": 950,
      "wood": 951,
      "ded": 952,
      "hell": 953,
      "ation": 954,
      "hello": 955,
      "sign": 956,
      "pre": 957,
      "blocks": 958,
      "hopped": 959,
      "child": 960,
      "hi": 961,
      "having": 962,
      "noticed": 963,
      "dir": 964,
      "sitting": 965,
      "swam": 966,
      "word": 967,
      "lost": 968,
      "beach": 969,
      "swe": 970,
      "waved": 971,
      "ined": 972,
      "hind": 973,
      "mor": 974,
      "slow": 975,
      "lady": 976,
      "running": 977,
      "glad": 978,
      "behind": 979,
      "parent": 980,
      "que": 981,
      "owl": 982,
      "has": 983,
      "stu": 984,
      "finally": 985,
      "asure": 986,
      "quickly": 987,
      "fill": 988,
      "gent": 989,
      "may": 990,
      "zo": 991,
      "bor": 992,
      "cool": 993,
      "waited": 994,
      "left": 995,
      "ear": 996,
      "sy": 997,
      "sound": 998,
      "hear": 999,
      "cold": 1000,
      "ield": 1001,
      "bobo": 1002,
      "turns": 1003,
      "noise": 1004,
      "ward": 1005,
      "mix": 1006,
      "jan": 1007,
      "friendly": 1008,
      "joh": 1009,
      "john": 1010,
      "wants": 1011,
      "forgot": 1012,
      "enough": 1013,
      "dream": 1014,
      "held": 1015,
      "brea": 1016,
      "hot": 1017,
      "wi": 1018,
      "rag": 1019,
      "himself": 1020,
      "ants": 1021,
      "pictures": 1022,
      "hid": 1023,
      "row": 1024,
      "happily": 1025,
      "icy": 1026,
      "cou": 1027,
      "butter": 1028,
      "bike": 1029,
      "wing": 1030,
      "din": 1031,
      "hair": 1032,
      "lla": 1033,
      "cked": 1034,
      "real": 1035,
      "leaf": 1036,
      "grabbed": 1037,
      "reached": 1038,
      "lie": 1039,
      "live": 1040,
      "worry": 1041,
      "fair": 1042,
      "cast": 1043,
      "jane": 1044,
      "colors": 1045,
      "pink": 1046,
      "swings": 1047,
      "yellow": 1048,
      "ever": 1049,
      "nest": 1050,
      "moment": 1051,
      "stayed": 1052,
      "castle": 1053,
      "snow": 1054,
      "board": 1055,
      "window": 1056,
      "wonder": 1057,
      "ddy": 1058,
      "bar": 1059,
      "cup": 1060,
      "helping": 1061,
      "clothe": 1062,
      "branch": 1063,
      "clothes": 1064,
      "fall": 1065,
      "ju": 1066,
      "fr": 1067,
      "gi": 1068,
      "di": 1069,
      "daddy": 1070,
      "enjoyed": 1071,
      "mess": 1072,
      "brother": 1073,
      "rocks": 1074,
      "parents": 1075,
      "fl": 1076,
      "daisy": 1077,
      "stuck": 1078,
      "ross": 1079,
      "carry": 1080,
      "fight": 1081,
      "throw": 1082,
      "ote": 1083,
      "does": 1084,
      "zy": 1085,
      "oup": 1086,
      "break": 1087,
      "gg": 1088,
      "world": 1089,
      "dry": 1090,
      "mus": 1091,
      "tail": 1092,
      "ner": 1093,
      "once": 1094,
      "angry": 1095,
      "ppy": 1096,
      "shoes": 1097,
      "inv": 1098,
      "fruit": 1099,
      "coming": 1100,
      "tight": 1101,
      "pushed": 1102,
      "blan": 1103,
      "cla": 1104,
      "ton": 1105,
      "full": 1106,
      "buddy": 1107,
      "done": 1108,
      "dark": 1109,
      "belong": 1110,
      "fully": 1111,
      "nap": 1112,
      "tw": 1113,
      "drink": 1114,
      "blanket": 1115,
      "broken": 1116,
      "hung": 1117,
      "coat": 1118,
      "stone": 1119,
      "promise": 1120,
      "lesson": 1121,
      "shop": 1122,
      "tower": 1123,
      "pulled": 1124,
      "cover": 1125,
      "nod": 1126,
      "point": 1127,
      "maybe": 1128,
      "boun": 1129,
      "vo": 1130,
      "wished": 1131,
      "ered": 1132,
      "cloud": 1133,
      "voice": 1134,
      "gif": 1135,
      "lift": 1136,
      "treat": 1137,
      "cks": 1138,
      "star": 1139,
      "music": 1140,
      "balloon": 1141,
      "paw": 1142,
      "rot": 1143,
      "sweet": 1144,
      "mind": 1145,
      "scho": 1146,
      "ames": 1147,
      "school": 1148,
      "threw": 1149,
      "wet": 1150,
      "bath": 1151,
      "trip": 1152,
      "pack": 1153,
      "phone": 1154,
      "drive": 1155,
      "bench": 1156,
      "likes": 1157,
      "cted": 1158,
      "kno": 1159,
      "fit": 1160,
      "andy": 1161,
      "bee": 1162,
      "books": 1163,
      "count": 1164,
      "ama": 1165,
      "pass": 1166,
      "sec": 1167,
      "lay": 1168,
      "bble": 1169,
      "luck": 1170,
      "quie": 1171,
      "ister": 1172,
      "meet": 1173,
      "pur": 1174,
      "tie": 1175,
      "sister": 1176,
      "pi": 1177,
      "val": 1178,
      "ace": 1179,
      "quiet": 1180,
      "ree": 1181,
      "leg": 1182,
      "rope": 1183,
      "secret": 1184,
      "pro": 1185,
      "carefully": 1186,
      "ctor": 1187,
      "outh": 1188,
      "lar": 1189,
      "lve": 1190,
      "mark": 1191,
      "talked": 1192,
      "anything": 1193,
      "sme": 1194,
      "corn": 1195,
      "living": 1196,
      "happened": 1197,
      "followed": 1198,
      "colorful": 1199,
      "mouth": 1200,
      "ince": 1201,
      "fect": 1202,
      "pow": 1203,
      "ney": 1204,
      "games": 1205,
      "tr": 1206,
      "chew": 1207,
      "wave": 1208,
      "pot": 1209,
      "write": 1210,
      "shelf": 1211,
      "bigger": 1212,
      "landed": 1213,
      "ence": 1214,
      "sail": 1215,
      "spin": 1216,
      "jour": 1217,
      "return": 1218,
      "three": 1219,
      "ose": 1220,
      "pes": 1221,
      "ater": 1222,
      "letter": 1223,
      "rub": 1224,
      "sarah": 1225,
      "heav": 1226,
      "river": 1227,
      "field": 1228,
      "sc": 1229,
      "fur": 1230,
      "doctor": 1231,
      "pol": 1232,
      "button": 1233,
      "perfect": 1234,
      "nodded": 1235,
      "bla": 1236,
      "pping": 1237,
      "heavy": 1238,
      "taking": 1239,
      "white": 1240,
      "patient": 1241,
      "wash": 1242,
      "mother": 1243,
      "wra": 1244,
      "repl": 1245,
      "blew": 1246,
      "shout": 1247,
      "add": 1248,
      "fox": 1249,
      "ea": 1250,
      "gy": 1251,
      "everything": 1252,
      "bowl": 1253,
      "ary": 1254,
      "black": 1255,
      "joe": 1256,
      "woods": 1257,
      "deep": 1258,
      "lake": 1259,
      "butterfly": 1260,
      "hungry": 1261,
      "ap": 1262,
      "round": 1263,
      "sharing": 1264,
      "sea": 1265,
      "without": 1266,
      "tain": 1267,
      "most": 1268,
      "gift": 1269,
      "spl": 1270,
      "hang": 1271,
      "hit": 1272,
      "replied": 1273,
      "uce": 1274,
      "lucky": 1275,
      "money": 1276,
      "les": 1277,
      "understand": 1278,
      "band": 1279,
      "mail": 1280,
      "thy": 1281,
      "stran": 1282,
      "prince": 1283,
      "teddy": 1284,
      "wings": 1285,
      "children": 1286,
      "umber": 1287,
      "getting": 1288,
      "gone": 1289,
      "orange": 1290,
      "plant": 1291,
      "net": 1292,
      "kick": 1293,
      "pieces": 1294,
      "ag": 1295,
      "really": 1296,
      "wish": 1297,
      "gentle": 1298,
      "pill": 1299,
      "wag": 1300,
      "monster": 1301,
      "dig": 1302,
      "herself": 1303,
      "else": 1304,
      "apples": 1305,
      "kn": 1306,
      "step": 1307,
      "cow": 1308,
      "ue": 1309,
      "sees": 1310,
      "expla": 1311,
      "pend": 1312,
      "son": 1313,
      "reali": 1314,
      "sist": 1315,
      "depend": 1316,
      "tast": 1317,
      "creat": 1318,
      "silly": 1319,
      "save": 1320,
      "stre": 1321,
      "fan": 1322,
      "ious": 1323,
      "jar": 1324,
      "flying": 1325,
      "pretended": 1326,
      "ek": 1327,
      "sear": 1328,
      "prote": 1329,
      "fold": 1330,
      "morning": 1331,
      "billy": 1332,
      "ele": 1333,
      "pig": 1334,
      "same": 1335,
      "amp": 1336,
      "rush": 1337,
      "bottle": 1338,
      "brown": 1339,
      "well": 1340,
      "path": 1341,
      "lance": 1342,
      "finish": 1343,
      "monkey": 1344,
      "idge": 1345,
      "such": 1346,
      "pected": 1347,
      "sli": 1348,
      "tu": 1349,
      "days": 1350,
      "owner": 1351,
      "cloth": 1352,
      "runs": 1353,
      "danced": 1354,
      "string": 1355,
      "act": 1356,
      "might": 1357,
      "plane": 1358,
      "uni": 1359,
      "dirty": 1360,
      "protect": 1361,
      "few": 1362,
      "shar": 1363,
      "cing": 1364,
      "wand": 1365,
      "hor": 1366,
      "eager": 1367,
      "atta": 1368,
      "measure": 1369,
      "umb": 1370,
      "zoom": 1371,
      "journey": 1372,
      "card": 1373,
      "free": 1374,
      "puppy": 1375,
      "ches": 1376,
      "nose": 1377,
      "change": 1378,
      "job": 1379,
      "alone": 1380,
      "shake": 1381,
      "bb": 1382,
      "par": 1383,
      "crab": 1384,
      "tommy": 1385,
      "talking": 1386,
      "bas": 1387,
      "seemed": 1388,
      "ons": 1389,
      "past": 1390,
      "realized": 1391,
      "unex": 1392,
      "ses": 1393,
      "seed": 1394,
      "words": 1395,
      "unexpected": 1396,
      "pay": 1397,
      "moved": 1398,
      "faster": 1399,
      "carried": 1400,
      "stood": 1401,
      "eating": 1402,
      "comfor": 1403,
      "dinner": 1404,
      "tea": 1405,
      "coin": 1406,
      "pudd": 1407,
      "bite": 1408,
      "pile": 1409,
      "tries": 1410,
      "mud": 1411,
      "spray": 1412,
      "match": 1413,
      "ese": 1414,
      "lun": 1415,
      "print": 1416,
      "purple": 1417,
      "basket": 1418,
      "bus": 1419,
      "filled": 1420,
      "eas": 1421,
      "cal": 1422,
      "va": 1423,
      "vel": 1424,
      "mim": 1425,
      "llie": 1426,
      "lead": 1427,
      "road": 1428,
      "miss": 1429,
      "ten": 1430,
      "heart": 1431,
      "shell": 1432,
      "dropped": 1433,
      "power": 1434,
      "mimi": 1435,
      "ible": 1436,
      "today": 1437,
      "drove": 1438,
      "shouted": 1439,
      "vill": 1440,
      "scary": 1441,
      "kne": 1442,
      "note": 1443,
      "cheese": 1444,
      "nut": 1445,
      "craw": 1446,
      "slowly": 1447,
      "cray": 1448,
      "dist": 1449,
      "cer": 1450,
      "sack": 1451,
      "doing": 1452,
      "shine": 1453,
      "name": 1454,
      "cious": 1455,
      "war": 1456,
      "rod": 1457,
      "makes": 1458,
      "bounce": 1459,
      "ob": 1460,
      "fence": 1461,
      "gl": 1462,
      "cross": 1463,
      "finished": 1464,
      "ize": 1465,
      "althy": 1466,
      "feed": 1467,
      "years": 1468,
      "stead": 1469,
      "coura": 1470,
      "seen": 1471,
      "gather": 1472,
      "farmer": 1473,
      "dirt": 1474,
      "seat": 1475,
      "rolled": 1476,
      "neck": 1477,
      "hig": 1478,
      "jen": 1479,
      "chan": 1480,
      "closed": 1481,
      "quest": 1482,
      "dest": 1483,
      "spoon": 1484,
      "soup": 1485,
      "respe": 1486,
      "cape": 1487,
      "spo": 1488,
      "cor": 1489,
      "zing": 1490,
      "pper": 1491,
      "allow": 1492,
      "dish": 1493,
      "tent": 1494,
      "bella": 1495,
      "village": 1496,
      "delicious": 1497,
      "drag": 1498,
      "fairy": 1499,
      "trust": 1500,
      "year": 1501,
      "egg": 1502,
      "instead": 1503,
      "ises": 1504,
      "bread": 1505,
      "respect": 1506,
      "lect": 1507,
      "wheel": 1508,
      "rainbow": 1509,
      "ult": 1510,
      "aged": 1511,
      "bucket": 1512,
      "tasty": 1513,
      "honey": 1514,
      "har": 1515,
      "irt": 1516,
      "shy": 1517,
      "moon": 1518,
      "organ": 1519,
      "spark": 1520,
      "managed": 1521,
      "zzy": 1522,
      "answ": 1523,
      "legs": 1524,
      "bubble": 1525,
      "shapes": 1526,
      "smart": 1527,
      "horse": 1528,
      "wrap": 1529,
      "number": 1530,
      "bake": 1531,
      "cookies": 1532,
      "puddle": 1533,
      "cir": 1534,
      "stret": 1535,
      "helpful": 1536,
      "grate": 1537,
      "puzz": 1538,
      "grew": 1539,
      "arms": 1540,
      "grateful": 1541,
      "stars": 1542,
      "serve": 1543,
      "ated": 1544,
      "whi": 1545,
      "dolls": 1546,
      "wonderful": 1547,
      "glow": 1548,
      "ment": 1549,
      "sang": 1550,
      "stories": 1551,
      "looks": 1552,
      "knocked": 1553,
      "waiting": 1554,
      "ier": 1555,
      "sup": 1556,
      "sug": 1557,
      "moral": 1558,
      "remind": 1559,
      "witch": 1560,
      "ship": 1561,
      "carrot": 1562,
      "wake": 1563,
      "pocket": 1564,
      "strange": 1565,
      "wasn": 1566,
      "stri": 1567,
      "forget": 1568,
      "decor": 1569,
      "min": 1570,
      "deer": 1571,
      "foot": 1572,
      "stepped": 1573,
      "march": 1574,
      "order": 1575,
      "spread": 1576,
      "driver": 1577,
      "treasure": 1578,
      "woke": 1579,
      "bush": 1580,
      "search": 1581,
      "cave": 1582,
      "which": 1583,
      "loom": 1584,
      "easy": 1585,
      "giant": 1586,
      "fing": 1587,
      "ducks": 1588,
      "onto": 1589,
      "later": 1590,
      "deliver": 1591,
      "mach": 1592,
      "teac": 1593,
      "person": 1594,
      "emma": 1595,
      "teacher": 1596,
      "hu": 1597,
      "stir": 1598,
      "magical": 1599,
      "caught": 1600,
      "smell": 1601,
      "lila": 1602,
      "sticks": 1603,
      "amazing": 1604,
      "circle": 1605,
      "rise": 1606,
      "form": 1607,
      "ountain": 1608,
      "pin": 1609,
      "body": 1610,
      "worried": 1611,
      "tv": 1612,
      "deter": 1613,
      "tape": 1614,
      "higher": 1615,
      "fic": 1616,
      "kite": 1617,
      "nic": 1618,
      "neigh": 1619,
      "diffic": 1620,
      "zoo": 1621,
      "splash": 1622,
      "difficult": 1623,
      "arri": 1624,
      "knowing": 1625,
      "tied": 1626,
      "sage": 1627,
      "chase": 1628,
      "beak": 1629,
      "juice": 1630,
      "cr": 1631,
      "lone": 1632,
      "berries": 1633,
      "bought": 1634,
      "fla": 1635,
      "rat": 1636,
      "ull": 1637,
      "bell": 1638,
      "puts": 1639,
      "everywhere": 1640,
      "places": 1641,
      "wouldn": 1642,
      "ions": 1643,
      "bugs": 1644,
      "balance": 1645,
      "boss": 1646,
      "lonely": 1647,
      "cra": 1648,
      "wow": 1649,
      "stair": 1650,
      "street": 1651,
      "event": 1652,
      "irp": 1653,
      "chirp": 1654,
      "welcome": 1655,
      "pop": 1656,
      "belie": 1657,
      "smo": 1658,
      "adventures": 1659,
      "huge": 1660,
      "cce": 1661,
      "sort": 1662,
      "succe": 1663,
      "danger": 1664,
      "broke": 1665,
      "couch": 1666,
      "ast": 1667,
      "wore": 1668,
      "remy": 1669,
      "explor": 1670,
      "whistle": 1671,
      "treats": 1672,
      "returned": 1673,
      "candy": 1674,
      "mer": 1675,
      "yo": 1676,
      "goes": 1677,
      "eleph": 1678,
      "bl": 1679,
      "hing": 1680,
      "nothing": 1681,
      "attach": 1682,
      "wide": 1683,
      "ness": 1684,
      "law": 1685,
      "forward": 1686,
      "kitten": 1687,
      "laughing": 1688,
      "jim": 1689,
      "sell": 1690,
      "molly": 1691,
      "wrong": 1692,
      "kis": 1693,
      "thin": 1694,
      "test": 1695,
      "plate": 1696,
      "hero": 1697,
      "taught": 1698,
      "gently": 1699,
      "cord": 1700,
      "anyone": 1701,
      "true": 1702,
      "slid": 1703,
      "arrived": 1704,
      "bri": 1705,
      "gen": 1706,
      "lebr": 1707,
      "gest": 1708,
      "celebr": 1709,
      "umpy": 1710,
      "collect": 1711,
      "mined": 1712,
      "group": 1713,
      "determined": 1714,
      "kers": 1715,
      "life": 1716,
      "spicy": 1717,
      "whiskers": 1718,
      "known": 1719,
      "elephant": 1720,
      "appear": 1721,
      "puzzle": 1722,
      "sque": 1723,
      "across": 1724,
      "dragon": 1725,
      "line": 1726,
      "twin": 1727,
      "shirt": 1728,
      "momo": 1729,
      "ladder": 1730,
      "paws": 1731,
      "takes": 1732,
      "using": 1733,
      "belonged": 1734,
      "along": 1735,
      "working": 1736,
      "pool": 1737,
      "roar": 1738,
      "joke": 1739,
      "bin": 1740,
      "sent": 1741,
      "vie": 1742,
      "youn": 1743,
      "speed": 1744,
      "wards": 1745,
      "hur": 1746,
      "scare": 1747,
      "pointed": 1748,
      "sne": 1749,
      "ually": 1750,
      "taste": 1751,
      "busy": 1752,
      "clapped": 1753,
      "lice": 1754,
      "grumpy": 1755,
      "cookie": 1756,
      "send": 1757,
      "fused": 1758,
      "singing": 1759,
      "ti": 1760,
      "tid": 1761,
      "stru": 1762,
      "boot": 1763,
      "supp": 1764,
      "balls": 1765,
      "dogs": 1766,
      "naught": 1767,
      "watching": 1768,
      "corner": 1769,
      "naughty": 1770,
      "imag": 1771,
      "tele": 1772,
      "resting": 1773,
      "ollie": 1774,
      "inc": 1775,
      "rose": 1776,
      "worm": 1777,
      "longer": 1778,
      "snake": 1779,
      "kin": 1780,
      "rude": 1781,
      "holding": 1782,
      "twist": 1783,
      "explain": 1784,
      "turt": 1785,
      "lean": 1786,
      "though": 1787,
      "thankful": 1788,
      "comfortable": 1789,
      "pra": 1790,
      "nearby": 1791,
      "drawing": 1792,
      "hoped": 1793,
      "invite": 1794,
      "ute": 1795,
      "whisper": 1796,
      "tidy": 1797,
      "turtle": 1798,
      "pan": 1799,
      "cheer": 1800,
      "mil": 1801,
      "ned": 1802,
      "escape": 1803,
      "calm": 1804,
      "young": 1805,
      "milk": 1806,
      "shad": 1807,
      "doggy": 1808,
      "blem": 1809,
      "ughter": 1810,
      "cute": 1811,
      "daughter": 1812,
      "problem": 1813,
      "oven": 1814,
      "zip": 1815,
      "building": 1816,
      "sharp": 1817,
      "cried": 1818,
      "edge": 1819,
      "sold": 1820,
      "shr": 1821,
      "backyard": 1822,
      "jog": 1823,
      "snack": 1824,
      "polite": 1825,
      "brush": 1826,
      "wom": 1827,
      "lose": 1828,
      "ugly": 1829,
      "woman": 1830,
      "independ": 1831,
      "isa": 1832,
      "scarf": 1833,
      "invited": 1834,
      "dangerous": 1835,
      "picnic": 1836,
      "matter": 1837,
      "chirpy": 1838,
      "twins": 1839,
      "wild": 1840,
      "stat": 1841,
      "comes": 1842,
      "clever": 1843,
      "bridge": 1844,
      "drum": 1845,
      "ban": 1846,
      "den": 1847,
      "ining": 1848,
      "map": 1849,
      "lazy": 1850,
      "pillow": 1851,
      "scre": 1852,
      "sta": 1853,
      "independent": 1854,
      "pray": 1855,
      "bossy": 1856,
      "exploring": 1857,
      "fred": 1858,
      "jet": 1859,
      "peace": 1860,
      "market": 1861,
      "slipped": 1862,
      "itch": 1863,
      "noises": 1864,
      "fancy": 1865,
      "eze": 1866,
      "lisa": 1867,
      "unlock": 1868,
      "last": 1869,
      "drew": 1870,
      "lemon": 1871,
      "bone": 1872,
      "oh": 1873,
      "iting": 1874,
      "cap": 1875,
      "towel": 1876,
      "era": 1877,
      "helmet": 1878,
      "sleepy": 1879,
      "fig": 1880,
      "hone": 1881,
      "mmer": 1882,
      "sco": 1883,
      "tou": 1884,
      "inte": 1885,
      "jelly": 1886,
      "fron": 1887,
      "courage": 1888,
      "mad": 1889,
      "seek": 1890,
      "gray": 1891,
      "choose": 1892,
      "believe": 1893,
      "robot": 1894,
      "selfish": 1895,
      "princess": 1896,
      "pour": 1897,
      "rocket": 1898,
      "shore": 1899,
      "rug": 1900,
      "shoot": 1901,
      "finger": 1902,
      "machine": 1903,
      "eventually": 1904,
      "gate": 1905,
      "hes": 1906,
      "clock": 1907,
      "jewel": 1908,
      "ather": 1909,
      "soap": 1910,
      "cage": 1911,
      "cop": 1912,
      "class": 1913,
      "square": 1914,
      "stretch": 1915,
      "decorate": 1916,
      "statue": 1917,
      "queen": 1918,
      "touched": 1919,
      "hum": 1920,
      "plants": 1921,
      "spa": 1922,
      "front": 1923,
      "solve": 1924,
      "sn": 1925,
      "case": 1926,
      "upset": 1927,
      "iling": 1928,
      "poke": 1929,
      "success": 1930,
      "honest": 1931,
      "cher": 1932,
      "healthy": 1933,
      "pract": 1934,
      "mir": 1935,
      "birth": 1936,
      "barked": 1937,
      "neighbor": 1938,
      "shadow": 1939,
      "ming": 1940,
      "ann": 1941,
      "soar": 1942,
      "raid": 1943,
      "jumping": 1944,
      "afraid": 1945,
      "motor": 1946,
      "pretending": 1947,
      "aunt": 1948,
      "mama": 1949,
      "spend": 1950,
      "hiding": 1951,
      "bill": 1952,
      "jer": 1953,
      "leo": 1954,
      "log": 1955,
      "allowed": 1956,
      "crawl": 1957,
      "lying": 1958,
      "bubbles": 1959,
      "stairs": 1960,
      "interesting": 1961,
      "cozy": 1962,
      "covered": 1963,
      "fil": 1964,
      "ffle": 1965,
      "jill": 1966,
      "these": 1967,
      "iness": 1968,
      "ity": 1969,
      "behave": 1970,
      "feet": 1971,
      "crayons": 1972,
      "answer": 1973,
      "birthday": 1974,
      "jerry": 1975,
      "rela": 1976,
      "libr": 1977,
      "tap": 1978,
      "crying": 1979,
      "celebrate": 1980,
      "relax": 1981,
      "become": 1982,
      "exam": 1983,
      "perm": 1984,
      "borrow": 1985,
      "hidden": 1986,
      "wagged": 1987,
      "ls": 1988,
      "pru": 1989,
      "tray": 1990,
      "vide": 1991,
      "spotted": 1992,
      "create": 1993,
      "amazed": 1994,
      "polish": 1995,
      "vine": 1996,
      "waffle": 1997,
      "cept": 1998,
      "large": 1999,
      "lunch": 2000,
      "towards": 2001,
      "chick": 2002,
      "appeared": 2003,
      "stack": 2004,
      "prune": 2005,
      "mill": 2006,
      "sca": 2007,
      "space": 2008,
      "lies": 2009,
      "hats": 2010,
      "tem": 2011,
      "cate": 2012,
      "perform": 2013,
      "issor": 2014,
      "fear": 2015,
      "introd": 2016,
      "travel": 2017,
      "dreaming": 2018,
      "value": 2019,
      "scissor": 2020,
      "scissors": 2021,
      "glue": 2022,
      "scream": 2023,
      "res": 2024,
      "aser": 2025,
      "taken": 2026,
      "accept": 2027,
      "sounds": 2028,
      "tic": 2029,
      "dancing": 2030,
      "suppl": 2031,
      "blow": 2032,
      "jam": 2033,
      "ider": 2034,
      "robe": 2035,
      "spring": 2036,
      "whenever": 2037,
      "decide": 2038,
      "fruits": 2039,
      "smelly": 2040,
      "sport": 2041,
      "yell": 2042,
      "smooth": 2043,
      "ert": 2044,
      "swimming": 2045,
      "press": 2046,
      "figure": 2047,
      "olive": 2048,
      "design": 2049,
      "wipe": 2050,
      "messy": 2051,
      "ian": 2052,
      "stage": 2053,
      "clear": 2054,
      "mountain": 2055,
      "myster": 2056,
      "steal": 2057,
      "wearing": 2058,
      "stuff": 2059,
      "powerful": 2060,
      "crown": 2061,
      "mel": 2062,
      "snowman": 2063,
      "bandage": 2064,
      "lves": 2065,
      "sheep": 2066,
      "carpet": 2067,
      "whispered": 2068,
      "listening": 2069,
      "mummy": 2070,
      "homes": 2071,
      "banan": 2072,
      "ducky": 2073,
      "stubb": 2074,
      "flute": 2075,
      "bathroom": 2076,
      "wander": 2077,
      "nuts": 2078,
      "chance": 2079,
      "stubborn": 2080,
      "load": 2081,
      "sandwi": 2082,
      "hoping": 2083,
      "penny": 2084,
      "sandwich": 2085,
      "dge": 2086,
      "eld": 2087,
      "happiness": 2088,
      "itten": 2089,
      "permit": 2090,
      "gun": 2091,
      "ror": 2092,
      "reath": 2093,
      "record": 2094,
      "roy": 2095,
      "feather": 2096,
      "loves": 2097,
      "songs": 2098,
      "trou": 2099,
      "creative": 2100,
      "shining": 2101,
      "chocol": 2102,
      "destroy": 2103,
      "library": 2104,
      "breath": 2105,
      "mr": 2106,
      "orig": 2107,
      "storm": 2108,
      "fake": 2109,
      "armchair": 2110,
      "station": 2111,
      "hose": 2112,
      "offered": 2113,
      "clap": 2114,
      "sugar": 2115,
      "spider": 2116,
      "icine": 2117,
      "bobby": 2118,
      "medicine": 2119,
      "delicate": 2120,
      "bloom": 2121,
      "ped": 2122,
      "scat": 2123,
      "fixed": 2124,
      "seeds": 2125,
      "scale": 2126,
      "chocolate": 2127,
      "scatter": 2128,
      "inal": 2129,
      "raise": 2130,
      "brace": 2131,
      "rare": 2132,
      "drop": 2133,
      "mirror": 2134,
      "original": 2135,
      "bark": 2136,
      "stal": 2137,
      "gives": 2138,
      "walks": 2139,
      "prevent": 2140,
      "wagon": 2141,
      "explained": 2142,
      "bracelet": 2143,
      "cri": 2144,
      "cil": 2145,
      "erly": 2146,
      "veil": 2147,
      "thick": 2148,
      "bottom": 2149,
      "pencil": 2150,
      "jenny": 2151,
      "gra": 2152,
      "lk": 2153,
      "oat": 2154,
      "pri": 2155,
      "rich": 2156,
      "urge": 2157,
      "noisy": 2158,
      "flex": 2159,
      "chalk": 2160,
      "grandpa": 2161,
      "stones": 2162,
      "ella": 2163,
      "por": 2164,
      "vous": 2165,
      "resist": 2166,
      "eng": 2167,
      "gold": 2168,
      "gust": 2169,
      "sour": 2170,
      "washed": 2171,
      "added": 2172,
      "whole": 2173,
      "thoughtful": 2174,
      "faces": 2175,
      "mary": 2176,
      "mattre": 2177,
      "judge": 2178,
      "twig": 2179,
      "organize": 2180,
      "barn": 2181,
      "rh": 2182,
      "tun": 2183,
      "van": 2184,
      "tells": 2185,
      "jimmy": 2186,
      "hurry": 2187,
      "supply": 2188,
      "elderly": 2189,
      "flexible": 2190,
      "uncle": 2191,
      "police": 2192,
      "cube": 2193,
      "display": 2194,
      "dependable": 2195,
      "unknown": 2196,
      "needs": 2197,
      "pens": 2198,
      "knee": 2199,
      "melon": 2200,
      "zi": 2201,
      "island": 2202,
      "cabin": 2203,
      "chicken": 2204,
      "switch": 2205,
      "lace": 2206,
      "quit": 2207,
      "berry": 2208,
      "float": 2209,
      "study": 2210,
      "ator": 2211,
      "tooth": 2212,
      "pain": 2213,
      "squash": 2214,
      "thanks": 2215,
      "wire": 2216,
      "luna": 2217,
      "mattress": 2218,
      "ates": 2219,
      "sheet": 2220,
      "hope": 2221,
      "hopping": 2222,
      "tricks": 2223,
      "finding": 2224,
      "bur": 2225,
      "extra": 2226,
      "needle": 2227,
      "porch": 2228,
      "eth": 2229,
      "selves": 2230,
      "melt": 2231,
      "trick": 2232,
      "cane": 2233,
      "coll": 2234,
      "teeth": 2235,
      "bedroom": 2236,
      "crystal": 2237,
      "nervous": 2238,
      "gener": 2239,
      "frag": 2240,
      "moms": 2241,
      "pair": 2242,
      "check": 2243,
      "lovely": 2244,
      "boots": 2245,
      "support": 2246,
      "fragile": 2247,
      "meant": 2248,
      "patch": 2249,
      "ling": 2250,
      "pants": 2251,
      "arrow": 2252,
      "mal": 2253,
      "spit": 2254,
      "ours": 2255,
      "standing": 2256,
      "fridge": 2257,
      "engine": 2258,
      "forgive": 2259,
      "buzz": 2260,
      "smiles": 2261,
      "ject": 2262,
      "creature": 2263,
      "bicy": 2264,
      "dive": 2265,
      "sword": 2266,
      "zard": 2267,
      "vest": 2268,
      "vege": 2269,
      "speak": 2270,
      "post": 2271,
      "comple": 2272,
      "guess": 2273,
      "branches": 2274,
      "walls": 2275,
      "kiss": 2276,
      "introduce": 2277,
      "bicycle": 2278,
      "vegetable": 2279,
      "complete": 2280,
      "muse": 2281,
      "mitten": 2282,
      "roof": 2283,
      "runk": 2284,
      "skip": 2285,
      "shoe": 2286,
      "ignore": 2287,
      "peaceful": 2288,
      "museum": 2289,
      "replace": 2290,
      "belt": 2291,
      "asking": 2292,
      "spent": 2293,
      "expens": 2294,
      "cheered": 2295,
      "cycle": 2296,
      "wrote": 2297,
      "clouds": 2298,
      "expensive": 2299,
      "hammer": 2300,
      "hoop": 2301,
      "guit": 2302,
      "dare": 2303,
      "rass": 2304,
      "trunk": 2305,
      "hay": 2306,
      "separ": 2307,
      "tear": 2308,
      "yourself": 2309,
      "ski": 2310,
      "acorn": 2311,
      "embar": 2312,
      "guitar": 2313,
      "embarrass": 2314,
      "tory": 2315,
      "verse": 2316,
      "impro": 2317,
      "wolf": 2318,
      "notebook": 2319,
      "collar": 2320,
      "dull": 2321,
      "ife": 2322,
      "ki": 2323,
      "rid": 2324,
      "tough": 2325,
      "reli": 2326,
      "remove": 2327,
      "salad": 2328,
      "web": 2329,
      "tag": 2330,
      "chased": 2331,
      "planet": 2332,
      "zza": 2333,
      "fighting": 2334,
      "pizza": 2335,
      "waves": 2336,
      "knife": 2337,
      "unique": 2338,
      "reliable": 2339,
      "gro": 2340,
      "ized": 2341,
      "lamp": 2342,
      "men": 2343,
      "raft": 2344,
      "dino": 2345,
      "shark": 2346,
      "rescu": 2347,
      "ler": 2348,
      "rough": 2349,
      "shes": 2350,
      "amond": 2351,
      "ending": 2352,
      "weak": 2353,
      "nail": 2354,
      "kindness": 2355,
      "aff": 2356,
      "early": 2357,
      "diamond": 2358,
      "furry": 2359,
      "split": 2360,
      "successful": 2361,
      "generous": 2362,
      "nor": 2363,
      "sick": 2364,
      "half": 2365,
      "playground": 2366,
      "spike": 2367,
      "wheat": 2368,
      "regu": 2369,
      "pebble": 2370,
      "shook": 2371,
      "agree": 2372,
      "painted": 2373,
      "glass": 2374,
      "flag": 2375,
      "practice": 2376,
      "regular": 2377,
      "bat": 2378,
      "usu": 2379,
      "sauce": 2380,
      "raced": 2381,
      "stove": 2382,
      "pepper": 2383,
      "ourite": 2384,
      "magnet": 2385,
      "favourite": 2386,
      "grocer": 2387,
      "oce": 2388,
      "wha": 2389,
      "orrow": 2390,
      "tomorrow": 2391,
      "meat": 2392,
      "comb": 2393,
      "compet": 2394,
      "marry": 2395,
      "ocean": 2396,
      "spla": 2397,
      "desk": 2398,
      "boats": 2399,
      "competit": 2400,
      "lid": 2401,
      "late": 2402,
      "staff": 2403,
      "loop": 2404,
      "meal": 2405,
      "cleaned": 2406,
      "compass": 2407,
      "umbre": 2408,
      "compassion": 2409,
      "toes": 2410,
      "ened": 2411,
      "telling": 2412,
      "wrapped": 2413,
      "crayon": 2414,
      "soldier": 2415,
      "whale": 2416,
      "mint": 2417,
      "yarn": 2418,
      "ress": 2419,
      "unite": 2420,
      "starting": 2421,
      "shade": 2422,
      "nosy": 2423,
      "track": 2424,
      "balloons": 2425,
      "trum": 2426,
      "crawled": 2427,
      "strugg": 2428,
      "motorcycle": 2429,
      "ail": 2430,
      "cur": 2431,
      "intell": 2432,
      "oured": 2433,
      "ero": 2434,
      "stamp": 2435,
      "ird": 2436,
      "ribb": 2437,
      "bald": 2438,
      "often": 2439,
      "rode": 2440,
      "hospit": 2441,
      "lap": 2442,
      "page": 2443,
      "shows": 2444,
      "clay": 2445,
      "frame": 2446,
      "vase": 2447,
      "squeeze": 2448,
      "embarrassed": 2449,
      "trumpet": 2450,
      "intellig": 2451,
      "hospital": 2452,
      "port": 2453,
      "toast": 2454,
      "insist": 2455,
      "shut": 2456,
      "showing": 2457,
      "render": 2458,
      "surrender": 2459,
      "umbled": 2460,
      "distant": 2461,
      "distur": 2462,
      "mas": 2463,
      "igg": 2464,
      "father": 2465,
      "cient": 2466,
      "jeep": 2467,
      "present": 2468,
      "boring": 2469,
      "giving": 2470,
      "flash": 2471,
      "eggs": 2472,
      "separate": 2473,
      "usual": 2474,
      "gem": 2475,
      "asleep": 2476,
      "rushed": 2477,
      "impress": 2478,
      "avo": 2479,
      "dom": 2480,
      "kay": 2481,
      "mic": 2482,
      "pty": 2483,
      "sil": 2484,
      "forever": 2485,
      "safely": 2486,
      "empty": 2487,
      "flame": 2488,
      "necklace": 2489,
      "telephone": 2490,
      "ffin": 2491,
      "pas": 2492,
      "sink": 2493,
      "task": 2494,
      "chest": 2495,
      "muffin": 2496,
      "dio": 2497,
      "bby": 2498,
      "dough": 2499,
      "relie": 2500,
      "weigh": 2501,
      "putting": 2502,
      "umsy": 2503,
      "coco": 2504,
      "urous": 2505,
      "pare": 2506,
      "clumsy": 2507,
      "poem": 2508,
      "cush": 2509,
      "adventurous": 2510,
      "dizzy": 2511,
      "bathrobe": 2512,
      "stranger": 2513,
      "improve": 2514,
      "rescue": 2515,
      "migh": 2516,
      "mous": 2517,
      "repe": 2518,
      "cereal": 2519,
      "shells": 2520,
      "organized": 2521,
      "mighty": 2522,
      "cand": 2523,
      "knot": 2524,
      "pine": 2525,
      "wis": 2526,
      "saur": 2527,
      "velo": 2528,
      "exciting": 2529,
      "thinks": 2530,
      "temple": 2531,
      "dinosaur": 2532,
      "passport": 2533,
      "oil": 2534,
      "yal": 2535,
      "loyal": 2536,
      "metal": 2537,
      "rank": 2538,
      "sunflower": 2539,
      "fier": 2540,
      "sity": 2541,
      "missed": 2542,
      "stream": 2543,
      "umbrella": 2544,
      "aid": 2545,
      "gurt": 2546,
      "pump": 2547,
      "ased": 2548,
      "shroom": 2549,
      "tripped": 2550,
      "careless": 2551,
      "clown": 2552,
      "charm": 2553,
      "disgust": 2554,
      "mushroom": 2555,
      "harder": 2556,
      "yogurt": 2557,
      "imagine": 2558,
      "splashed": 2559,
      "charming": 2560,
      "pir": 2561,
      "tig": 2562,
      "leop": 2563,
      "lip": 2564,
      "sock": 2565,
      "radio": 2566,
      "poor": 2567,
      "angle": 2568,
      "snacks": 2569,
      "pipe": 2570,
      "tube": 2571,
      "yoga": 2572,
      "screen": 2573,
      "banana": 2574,
      "leopard": 2575,
      "dle": 2576,
      "grace": 2577,
      "poured": 2578,
      "ancient": 2579,
      "envelo": 2580,
      "erpill": 2581,
      "asses": 2582,
      "caterpill": 2583,
      "sammy": 2584,
      "movie": 2585,
      "prepare": 2586,
      "fearful": 2587,
      "pal": 2588,
      "refused": 2589,
      "bathe": 2590,
      "cats": 2591,
      "useful": 2592,
      "fool": 2593,
      "comput": 2594,
      "crazy": 2595,
      "batter": 2596,
      "compassionate": 2597,
      "fierce": 2598,
      "disgusting": 2599,
      "cam": 2600,
      "lend": 2601,
      "mop": 2602,
      "pun": 2603,
      "inse": 2604,
      "enor": 2605,
      "unusual": 2606,
      "dead": 2607,
      "quar": 2608,
      "benny": 2609,
      "spoiled": 2610,
      "caterpillar": 2611,
      "enormous": 2612,
      "os": 2613,
      "obed": 2614,
      "hey": 2615,
      "adv": 2616,
      "skull": 2617,
      "hugs": 2618,
      "painting": 2619,
      "hairy": 2620,
      "lively": 2621,
      "relieved": 2622,
      "pumpkin": 2623,
      "cart": 2624,
      "leash": 2625,
      "hook": 2626,
      "closet": 2627,
      "pasta": 2628,
      "questions": 2629,
      "normal": 2630,
      "computer": 2631,
      "ano": 2632,
      "lli": 2633,
      "lizard": 2634,
      "unpack": 2635,
      "adow": 2636,
      "meadow": 2637,
      "glasses": 2638,
      "mysterious": 2639,
      "grocery": 2640,
      "foolish": 2641,
      "insect": 2642,
      "horn": 2643,
      "forth": 2644,
      "nament": 2645,
      "cannot": 2646,
      "piano": 2647,
      "object": 2648,
      "pinch": 2649,
      "camera": 2650,
      "quarrel": 2651,
      "obedient": 2652,
      "wealthy": 2653,
      "root": 2654,
      "spir": 2655,
      "makeup": 2656,
      "peek": 2657,
      "gets": 2658,
      "team": 2659,
      "belongs": 2660,
      "advice": 2661,
      "lb": 2662,
      "carto": 2663,
      "ilt": 2664,
      "bulb": 2665,
      "manage": 2666,
      "suggest": 2667,
      "popcorn": 2668,
      "scoot": 2669,
      "humble": 2670,
      "trouble": 2671,
      "flashlight": 2672,
      "flies": 2673,
      "wed": 2674,
      "ident": 2675,
      "deaf": 2676,
      "uring": 2677,
      "wallet": 2678,
      "sunshine": 2679,
      "understood": 2680,
      "cuss": 2681,
      "discuss": 2682,
      "blackboard": 2683,
      "incred": 2684,
      "intelligent": 2685,
      "disturb": 2686,
      "cour": 2687,
      "mes": 2688,
      "ornament": 2689,
      "fright": 2690,
      "week": 2691,
      "delight": 2692,
      "peach": 2693,
      "lulu": 2694,
      "smaller": 2695,
      "comet": 2696,
      "settle": 2697,
      "enjoying": 2698,
      "discover": 2699,
      "tub": 2700,
      "cheerful": 2701,
      "repeat": 2702,
      "cro": 2703,
      "clu": 2704,
      "gloom": 2705,
      "heal": 2706,
      "triangle": 2707,
      "question": 2708,
      "lawn": 2709,
      "brilli": 2710,
      "inclu": 2711,
      "incredible": 2712,
      "brilliant": 2713,
      "pho": 2714,
      "seal": 2715,
      "spill": 2716,
      "suit": 2717,
      "fauce": 2718,
      "office": 2719,
      "eleva": 2720,
      "parrot": 2721,
      "view": 2722,
      "competitive": 2723,
      "tiger": 2724,
      "photo": 2725,
      "faucet": 2726,
      "elevator": 2727,
      "est": 2728,
      "rema": 2729,
      "maze": 2730,
      "itter": 2731,
      "learning": 2732,
      "valu": 2733,
      "cushion": 2734,
      "frightened": 2735,
      "gloomy": 2736,
      "nur": 2737,
      "stumbled": 2738,
      "maga": 2739,
      "unk": 2740,
      "almost": 2741,
      "cact": 2742,
      "jolly": 2743,
      "houses": 2744,
      "pole": 2745,
      "confused": 2746,
      "jake": 2747,
      "pointing": 2748,
      "steps": 2749,
      "spirit": 2750,
      "magaz": 2751,
      "emi": 2752,
      "ambu": 2753,
      "helps": 2754,
      "swan": 2755,
      "chain": 2756,
      "mistake": 2757,
      "kicked": 2758,
      "slip": 2759,
      "reminded": 2760,
      "yelled": 2761,
      "vegetables": 2762,
      "micro": 2763,
      "ambulance": 2764,
      "cran": 2765,
      "ance": 2766,
      "alous": 2767,
      "weird": 2768,
      "themselves": 2769,
      "built": 2770,
      "wool": 2771,
      "creek": 2772,
      "tina": 2773,
      "counting": 2774,
      "jealous": 2775,
      "couraged": 2776,
      "shrink": 2777,
      "crane": 2778,
      "dust": 2779,
      "fat": 2780,
      "moving": 2781,
      "medal": 2782,
      "scrat": 2783,
      "pige": 2784,
      "cactus": 2785,
      "lumber": 2786,
      "sle": 2787,
      "encouraged": 2788,
      "mask": 2789,
      "leaving": 2790,
      "trail": 2791,
      "prize": 2792,
      "ival": 2793,
      "tro": 2794,
      "ular": 2795,
      "saved": 2796,
      "bean": 2797,
      "hoc": 2798,
      "pale": 2799,
      "strated": 2800,
      "ignor": 2801,
      "lifted": 2802,
      "tease": 2803,
      "leaned": 2804,
      "examine": 2805,
      "kayak": 2806,
      "magazine": 2807,
      "hours": 2808,
      "ank": 2809,
      "anut": 2810,
      "sailed": 2811,
      "those": 2812,
      "friendship": 2813,
      "goose": 2814,
      "dove": 2815,
      "fest": 2816,
      "newspa": 2817,
      "peanut": 2818,
      "famous": 2819,
      "frustrated": 2820,
      "napkin": 2821,
      "package": 2822,
      "oats": 2823,
      "newspaper": 2824,
      "cco": 2825,
      "dug": 2826,
      "mine": 2827,
      "oak": 2828,
      "vi": 2829,
      "thread": 2830,
      "sub": 2831,
      "saying": 2832,
      "feels": 2833,
      "barber": 2834,
      "spinning": 2835,
      "rubbed": 2836,
      "mailbox": 2837,
      "numbers": 2838,
      "tire": 2839,
      "hockey": 2840,
      "festival": 2841,
      "apr": 2842,
      "cone": 2843,
      "city": 2844,
      "jung": 2845,
      "mid": 2846,
      "wip": 2847,
      "reci": 2848,
      "stup": 2849,
      "fork": 2850,
      "cable": 2851,
      "bury": 2852,
      "modest": 2853,
      "fine": 2854,
      "jazz": 2855,
      "course": 2856,
      "slept": 2857,
      "jungle": 2858,
      "stupid": 2859,
      "aero": 2860,
      "ium": 2861,
      "tur": 2862,
      "reverse": 2863,
      "ordin": 2864,
      "gear": 2865,
      "smiling": 2866,
      "shoulder": 2867,
      "vision": 2868,
      "purse": 2869,
      "comfort": 2870,
      "club": 2871,
      "turkey": 2872,
      "itself": 2873,
      "reve": 2874,
      "harm": 2875,
      "spear": 2876,
      "joined": 2877,
      "counted": 2878,
      "sweater": 2879,
      "wondered": 2880,
      "provide": 2881,
      "univer": 2882,
      "pastry": 2883,
      "ordinary": 2884,
      "reveal": 2885,
      "size": 2886,
      "twe": 2887,
      "rail": 2888,
      "shape": 2889,
      "compla": 2890,
      "zebra": 2891,
      "counter": 2892,
      "searched": 2893,
      "spoke": 2894,
      "super": 2895,
      "television": 2896,
      "envelope": 2897,
      "aur": 2898,
      "bitter": 2899,
      "plates": 2900,
      "rill": 2901,
      "sofa": 2902,
      "biggest": 2903,
      "admi": 2904,
      "tools": 2905,
      "teas": 2906,
      "restaur": 2907,
      "trade": 2908,
      "avail": 2909,
      "cupboard": 2910,
      "changed": 2911,
      "respectful": 2912,
      "miner": 2913,
      "scooter": 2914,
      "available": 2915,
      "cident": 2916,
      "flea": 2917,
      "nation": 2918,
      "para": 2919,
      "vend": 2920,
      "toby": 2921,
      "utes": 2922,
      "alert": 2923,
      "boxes": 2924,
      "restless": 2925,
      "means": 2926,
      "accident": 2927,
      "bounced": 2928,
      "knock": 2929,
      "letters": 2930,
      "university": 2931,
      "admire": 2932,
      "bweb": 2933,
      "cod": 2934,
      "dar": 2935,
      "hus": 2936,
      "ines": 2937,
      "washer": 2938,
      "goat": 2939,
      "seem": 2940,
      "cobweb": 2941,
      "polly": 2942,
      "holes": 2943,
      "sym": 2944,
      "pota": 2945,
      "coins": 2946,
      "gathered": 2947,
      "dishwasher": 2948,
      "carrots": 2949,
      "minutes": 2950,
      "crocod": 2951,
      "subway": 2952,
      "middle": 2953,
      "restaurant": 2954,
      "crocodile": 2955,
      "arian": 2956,
      "sau": 2957,
      "atient": 2958,
      "igator": 2959,
      "alligator": 2960,
      "cado": 2961,
      "pear": 2962,
      "against": 2963,
      "impatient": 2964,
      "skin": 2965,
      "bookcase": 2966,
      "sneak": 2967,
      "jewelry": 2968,
      "avocado": 2969,
      "parade": 2970,
      "vendor": 2971,
      "bump": 2972,
      "fis": 2973,
      "gas": 2974,
      "vol": 2975,
      "yield": 2976,
      "argu": 2977,
      "eraser": 2978,
      "enthus": 2979,
      "chur": 2980,
      "lights": 2981,
      "snap": 2982,
      "aeroplane": 2983,
      "sausage": 2984,
      "fisher": 2985,
      "enthusi": 2986,
      "church": 2987,
      "ellie": 2988,
      "iz": 2989,
      "sie": 2990,
      "encourage": 2991,
      "already": 2992,
      "cano": 2993,
      "persist": 2994,
      "dishes": 2995,
      "trains": 2996,
      "slides": 2997,
      "billboard": 2998,
      "filthy": 2999,
      "skipped": 3000,
      "symbo": 3001,
      "au": 3002,
      "four": 3003,
      "onion": 3004,
      "costu": 3005,
      "grown": 3006,
      "excite": 3007,
      "mosqu": 3008,
      "hedge": 3009,
      "driving": 3010,
      "hotel": 3011,
      "calend": 3012,
      "cherries": 3013,
      "film": 3014,
      "emily": 3015,
      "pigeon": 3016,
      "apron": 3017,
      "volcano": 3018,
      "persistent": 3019,
      "costume": 3020,
      "mosqui": 3021,
      "gth": 3022,
      "gara": 3023,
      "tank": 3024,
      "toma": 3025,
      "stren": 3026,
      "placed": 3027,
      "nicely": 3028,
      "barrel": 3029,
      "observe": 3030,
      "glowing": 3031,
      "spade": 3032,
      "fisherman": 3033,
      "garage": 3034,
      "strength": 3035,
      "fountain": 3036,
      "xious": 3037,
      "zig": 3038,
      "anxious": 3039,
      "imney": 3040,
      "chimney": 3041,
      "als": 3042,
      "shield": 3043,
      "coal": 3044,
      "inted": 3045,
      "brocco": 3046,
      "popular": 3047,
      "thinking": 3048,
      "message": 3049,
      "harmless": 3050,
      "broccoli": 3051,
      "ax": 3052,
      "camp": 3053,
      "fre": 3054,
      "gum": 3055,
      "mug": 3056,
      "rece": 3057,
      "tern": 3058,
      "jacket": 3059,
      "mule": 3060,
      "kneel": 3061,
      "feathers": 3062,
      "ribbon": 3063,
      "cli": 3064,
      "pand": 3065,
      "ley": 3066,
      "trap": 3067,
      "guard": 3068,
      "carrying": 3069,
      "powder": 3070,
      "attached": 3071,
      "missile": 3072,
      "circles": 3073,
      "cricket": 3074,
      "drank": 3075,
      "lph": 3076,
      "beet": 3077,
      "attic": 3078,
      "enter": 3079,
      "dolph": 3080,
      "cell": 3081,
      "shone": 3082,
      "poppy": 3083,
      "bikes": 3084,
      "astic": 3085,
      "troph": 3086,
      "dolphin": 3087,
      "ubby": 3088,
      "ination": 3089,
      "otter": 3090,
      "chor": 3091,
      "chubby": 3092,
      "boys": 3093,
      "sunglasses": 3094,
      "comm": 3095,
      "memor": 3096,
      "appo": 3097,
      "disappo": 3098,
      "rolling": 3099,
      "folder": 3100,
      "warned": 3101,
      "silver": 3102,
      "incre": 3103,
      "release": 3104,
      "repair": 3105,
      "playful": 3106,
      "holid": 3107,
      "packed": 3108,
      "doors": 3109,
      "sprayed": 3110,
      "valuable": 3111,
      "calendar": 3112,
      "beetle": 3113,
      "holiday": 3114,
      "mod": 3115,
      "anchor": 3116,
      "alarm": 3117,
      "terri": 3118,
      "spell": 3119,
      "pattern": 3120,
      "marble": 3121,
      "angel": 3122,
      "teaching": 3123,
      "swamp": 3124,
      "twirl": 3125,
      "passed": 3126,
      "journ": 3127,
      "screw": 3128,
      "ticket": 3129,
      "moder": 3130,
      "ears": 3131,
      "pit": 3132,
      "stad": 3133,
      "straw": 3134,
      "velve": 3135,
      "weap": 3136,
      "ceiling": 3137,
      "starts": 3138,
      "fuel": 3139,
      "tool": 3140,
      "handed": 3141,
      "handle": 3142,
      "towers": 3143,
      "happening": 3144,
      "earth": 3145,
      "nurse": 3146,
      "journal": 3147,
      "stadium": 3148,
      "velvet": 3149,
      "aw": 3150,
      "apo": 3151,
      "junk": 3152,
      "tion": 3153,
      "ief": 3154,
      "cups": 3155,
      "doesn": 3156,
      "battery": 3157,
      "dic": 3158,
      "laser": 3159,
      "tour": 3160,
      "uncomfortable": 3161,
      "birdy": 3162,
      "pete": 3163,
      "mole": 3164,
      "sleeping": 3165,
      "coats": 3166,
      "gifted": 3167,
      "gym": 3168,
      "warning": 3169,
      "zipper": 3170,
      "punish": 3171,
      "include": 3172,
      "enthusiastic": 3173,
      "trophy": 3174,
      "tionary": 3175,
      "dictionary": 3176,
      "hic": 3177,
      "pis": 3178,
      "pup": 3179,
      "slap": 3180,
      "rein": 3181,
      "ony": 3182,
      "rice": 3183,
      "vehic": 3184,
      "raven": 3185,
      "somewhere": 3186,
      "novel": 3187,
      "hanging": 3188,
      "strip": 3189,
      "snif": 3190,
      "cabinet": 3191,
      "axe": 3192,
      "pisto": 3193,
      "ppo": 3194,
      "notice": 3195,
      "rake": 3196,
      "rules": 3197,
      "steak": 3198,
      "guin": 3199,
      "penguin": 3200,
      "hippo": 3201,
      "screamed": 3202,
      "mittens": 3203,
      "cartoon": 3204,
      "mosquito": 3205,
      "disappointed": 3206,
      "image": 3207,
      "attent": 3208,
      "licked": 3209,
      "cleaning": 3210,
      "ashtray": 3211,
      "airport": 3212,
      "brothers": 3213,
      "meeting": 3214,
      "shrimp": 3215,
      "pirate": 3216,
      "tweet": 3217,
      "modern": 3218,
      "apolo": 3219,
      "beep": 3220,
      "iron": 3221,
      "bull": 3222,
      "labe": 3223,
      "kinds": 3224,
      "firework": 3225,
      "pipp": 3226,
      "cardboard": 3227,
      "teaspo": 3228,
      "ase": 3229,
      "glove": 3230,
      "tti": 3231,
      "yach": 3232,
      "heli": 3233,
      "herb": 3234,
      "nes": 3235,
      "serious": 3236,
      "jail": 3237,
      "gging": 3238,
      "beef": 3239,
      "strike": 3240,
      "copter": 3241,
      "delighted": 3242,
      "scratch": 3243,
      "wiped": 3244,
      "increase": 3245,
      "pistol": 3246,
      "teaspoon": 3247,
      "yacht": 3248,
      "helicopter": 3249,
      "eye": 3250,
      "bess": 3251,
      "soph": 3252,
      "fort": 3253,
      "lotion": 3254,
      "swinging": 3255,
      "mixed": 3256,
      "dreams": 3257,
      "warn": 3258,
      "rhy": 3259,
      "insisted": 3260,
      "cliff": 3261,
      "terrible": 3262,
      "cof": 3263,
      "fant": 3264,
      "oy": 3265,
      "uli": 3266,
      "salt": 3267,
      "shel": 3268,
      "thief": 3269,
      "dess": 3270,
      "cauli": 3271,
      "fee": 3272,
      "trucks": 3273,
      "ations": 3274,
      "wednes": 3275,
      "remain": 3276,
      "reindeer": 3277,
      "sniff": 3278,
      "attention": 3279,
      "coffee": 3280,
      "dessert": 3281,
      "lab": 3282,
      "xi": 3283,
      "host": 3284,
      "taxi": 3285,
      "cation": 3286,
      "buzzy": 3287,
      "ured": 3288,
      "cheap": 3289,
      "tears": 3290,
      "picking": 3291,
      "colour": 3292,
      "appreci": 3293,
      "wife": 3294,
      "given": 3295,
      "cows": 3296,
      "cocoa": 3297,
      "accidentally": 3298,
      "bessie": 3299,
      "shelter": 3300,
      "brain": 3301,
      "iver": 3302,
      "osed": 3303,
      "hetti": 3304,
      "shiver": 3305,
      "radish": 3306,
      "spag": 3307,
      "mike": 3308,
      "cudd": 3309,
      "fireman": 3310,
      "supposed": 3311,
      "menu": 3312,
      "apologi": 3313,
      "spaghetti": 3314,
      "during": 3315,
      "tip": 3316,
      "restore": 3317,
      "waste": 3318,
      "golf": 3319,
      "weep": 3320,
      "opera": 3321,
      "stretched": 3322,
      "impressive": 3323,
      "sophie": 3324,
      "ctory": 3325,
      "ilet": 3326,
      "knight": 3327,
      "ocer": 3328,
      "pony": 3329,
      "toilet": 3330,
      "inocer": 3331,
      "thirst": 3332,
      "undry": 3333,
      "delay": 3334,
      "oper": 3335,
      "factory": 3336,
      "laundry": 3337,
      "drawer": 3338,
      "realised": 3339,
      "wheels": 3340,
      "speedy": 3341,
      "sneeze": 3342,
      "struct": 3343,
      "jellyfish": 3344,
      "classroom": 3345,
      "rhinocer": 3346,
      "tunne": 3347,
      "curtain": 3348,
      "iggle": 3349,
      "superhero": 3350,
      "dared": 3351,
      "excitement": 3352,
      "cauliflower": 3353,
      "alice": 3354,
      "jug": 3355,
      "wine": 3356,
      "yaw": 3357,
      "recomm": 3358,
      "ones": 3359,
      "pect": 3360,
      "expect": 3361,
      "offer": 3362,
      "cooking": 3363,
      "pushing": 3364,
      "tightly": 3365,
      "rhinoceros": 3366,
      "hive": 3367,
      "nit": 3368,
      "ostri": 3369,
      "xy": 3370,
      "inarian": 3371,
      "infant": 3372,
      "env": 3373,
      "ides": 3374,
      "veter": 3375,
      "soak": 3376,
      "espe": 3377,
      "suff": 3378,
      "susie": 3379,
      "urged": 3380,
      "noon": 3381,
      "cially": 3382,
      "asks": 3383,
      "lands": 3384,
      "mixer": 3385,
      "claw": 3386,
      "furnit": 3387,
      "hanger": 3388,
      "blink": 3389,
      "suggested": 3390,
      "complain": 3391,
      "wednesday": 3392,
      "thirsty": 3393,
      "veterinarian": 3394,
      "especially": 3395,
      "furniture": 3396,
      "cus": 3397,
      "ience": 3398,
      "lim": 3399,
      "oxy": 3400,
      "bees": 3401,
      "uth": 3402,
      "chess": 3403,
      "content": 3404,
      "planes": 3405,
      "chose": 3406,
      "signs": 3407,
      "freeze": 3408,
      "answered": 3409,
      "drawings": 3410,
      "ostrich": 3411,
      "zag": 3412,
      "hamed": 3413,
      "beg": 3414,
      "ashamed": 3415,
      "short": 3416,
      "upstairs": 3417,
      "ctive": 3418,
      "betty": 3419,
      "olin": 3420,
      "pleased": 3421,
      "johnny": 3422,
      "kissed": 3423,
      "graceful": 3424,
      "violin": 3425,
      "zigzag": 3426,
      "panda": 3427,
      "recommend": 3428,
      "ging": 3429,
      "ghost": 3430,
      "hun": 3431,
      "stable": 3432,
      "ature": 3433,
      "adm": 3434,
      "carl": 3435,
      "cooler": 3436,
      "knob": 3437,
      "buttons": 3438,
      "spoil": 3439,
      "cherry": 3440,
      "grape": 3441,
      "massage": 3442,
      "wisdom": 3443,
      "palace": 3444,
      "argue": 3445,
      "symbol": 3446,
      "label": 3447,
      "lit": 3448,
      "tled": 3449,
      "request": 3450,
      "attra": 3451,
      "thm": 3452,
      "miser": 3453,
      "chewed": 3454,
      "smoke": 3455,
      "rhythm": 3456,
      "oyster": 3457,
      "gn": 3458,
      "lou": 3459,
      "sight": 3460,
      "reco": 3461,
      "ener": 3462,
      "tomob": 3463,
      "ranch": 3464,
      "softly": 3465,
      "windows": 3466,
      "trash": 3467,
      "jokes": 3468,
      "automob": 3469,
      "recogn": 3470,
      "automobile": 3471,
      "mist": 3472,
      "nature": 3473,
      "ul": 3474,
      "hen": 3475,
      "reward": 3476,
      "ense": 3477,
      "llip": 3478,
      "wanting": 3479,
      "lollip": 3480,
      "thumb": 3481,
      "mild": 3482,
      "fog": 3483,
      "cond": 3484,
      "bathtub": 3485,
      "pages": 3486,
      "spilled": 3487,
      "weapon": 3488,
      "lollipop": 3489,
      "ale": 3490,
      "ache": 3491,
      "kim": 3492,
      "vy": 3493,
      "lest": 3494,
      "bey": 3495,
      "caring": 3496,
      "jumps": 3497,
      "bookshelf": 3498,
      "steam": 3499,
      "discovered": 3500,
      "juicy": 3501,
      "invit": 3502,
      "tasted": 3503,
      "football": 3504,
      "crack": 3505,
      "tuna": 3506,
      "mineral": 3507,
      "potato": 3508,
      "miserable": 3509,
      "oc": 3510,
      "tummy": 3511,
      "socks": 3512,
      "ruined": 3513,
      "leather": 3514,
      "reading": 3515,
      "mention": 3516,
      "crib": 3517,
      "grapes": 3518,
      "burn": 3519,
      "kiki": 3520,
      "candle": 3521,
      "envious": 3522,
      "bour": 3523,
      "grill": 3524,
      "quiz": 3525,
      "keeper": 3526,
      "locked": 3527,
      "calling": 3528,
      "math": 3529,
      "bags": 3530,
      "mustache": 3531,
      "dreamed": 3532,
      "sailor": 3533,
      "creatures": 3534,
      "ignorant": 3535,
      "suffer": 3536,
      "gir": 3537,
      "sses": 3538,
      "tug": 3539,
      "hears": 3540,
      "iglo": 3541,
      "hadn": 3542,
      "trem": 3543,
      "cooked": 3544,
      "peter": 3545,
      "ugg": 3546,
      "mode": 3547,
      "rooms": 3548,
      "inky": 3549,
      "older": 3550,
      "blueberries": 3551,
      "fireplace": 3552,
      "falling": 3553,
      "uniform": 3554,
      "basketball": 3555,
      "vacation": 3556,
      "searching": 3557,
      "struggle": 3558,
      "colourful": 3559,
      "operation": 3560,
      "tunnel": 3561,
      "igloo": 3562,
      "drain": 3563,
      "pandy": 3564,
      "sits": 3565,
      "spun": 3566,
      "bushes": 3567,
      "sunset": 3568,
      "picks": 3569,
      "keeping": 3570,
      "surf": 3571,
      "castles": 3572,
      "harsh": 3573,
      "harbor": 3574,
      "lawy": 3575,
      "human": 3576,
      "snugg": 3577,
      "attractive": 3578,
      "bits": 3579,
      "ske": 3580,
      "theater": 3581,
      "stitch": 3582,
      "ilty": 3583,
      "stickers": 3584,
      "affe": 3585,
      "fami": 3586,
      "continue": 3587,
      "bowed": 3588,
      "marched": 3589,
      "sandbox": 3590,
      "guilty": 3591,
      "truth": 3592,
      "fingers": 3593,
      "alex": 3594,
      "crow": 3595,
      "oas": 3596,
      "west": 3597,
      "racing": 3598,
      "fume": 3599,
      "perfume": 3600,
      "throwing": 3601,
      "sparkly": 3602,
      "oxygen": 3603,
      "energy": 3604,
      "oasis": 3605,
      "bled": 3606,
      "bree": 3607,
      "hut": 3608,
      "pil": 3609,
      "stra": 3610,
      "buck": 3611,
      "nowhere": 3612,
      "chairs": 3613,
      "frown": 3614,
      "cards": 3615,
      "riding": 3616,
      "fresh": 3617,
      "lawyer": 3618,
      "pilot": 3619,
      "five": 3620,
      "erc": 3621,
      "owed": 3622,
      "player": 3623,
      "names": 3624,
      "exerc": 3625,
      "excitedly": 3626,
      "char": 3627,
      "topus": 3628,
      "mistakes": 3629,
      "bored": 3630,
      "butterflies": 3631,
      "valley": 3632,
      "gifts": 3633,
      "pared": 3634,
      "neighbour": 3635,
      "blouse": 3636,
      "prunes": 3637,
      "pressed": 3638,
      "tomato": 3639,
      "claws": 3640,
      "admired": 3641,
      "giraffe": 3642,
      "model": 3643,
      "si": 3644,
      "balan": 3645,
      "celer": 3646,
      "summer": 3647,
      "holds": 3648,
      "taller": 3649,
      "lives": 3650,
      "squeak": 3651,
      "roared": 3652,
      "vehicle": 3653,
      "octopus": 3654,
      "celery": 3655,
      "second": 3656,
      "base": 3657,
      "visited": 3658,
      "stirred": 3659,
      "video": 3660,
      "families": 3661,
      "ahead": 3662,
      "bent": 3663,
      "poked": 3664,
      "ents": 3665,
      "rac": 3666,
      "fet": 3667,
      "area": 3668,
      "ction": 3669,
      "evening": 3670,
      "bringing": 3671,
      "falls": 3672,
      "bouncing": 3673,
      "smelled": 3674,
      "imagination": 3675,
      "appreciate": 3676,
      "heat": 3677,
      "shined": 3678,
      "spr": 3679,
      "hood": 3680,
      "navy": 3681,
      "skirt": 3682,
      "haircut": 3683,
      "tutor": 3684,
      "strawberry": 3685,
      "straight": 3686,
      "mand": 3687,
      "lic": 3688,
      "ighed": 3689,
      "demand": 3690,
      "file": 3691,
      "stronger": 3692,
      "growing": 3693,
      "trusted": 3694,
      "pedal": 3695,
      "gga": 3696,
      "rex": 3697,
      "happier": 3698,
      "meas": 3699,
      "lugga": 3700,
      "ruby": 3701,
      "beauty": 3702,
      "papers": 3703,
      "hills": 3704,
      "lecture": 3705,
      "lime": 3706,
      "buckle": 3707,
      "fetch": 3708,
      "luggage": 3709,
      "abo": 3710,
      "obey": 3711,
      "waving": 3712,
      "safar": 3713,
      "stic": 3714,
      "riage": 3715,
      "buried": 3716,
      "kingdom": 3717,
      "comed": 3718,
      "afternoon": 3719,
      "following": 3720,
      "feelings": 3721,
      "welcomed": 3722,
      "moments": 3723,
      "network": 3724,
      "tues": 3725,
      "twisty": 3726,
      "tempt": 3727,
      "olives": 3728,
      "receive": 3729,
      "pippin": 3730,
      "hunter": 3731,
      "above": 3732,
      "mpo": 3733,
      "padd": 3734,
      "refri": 3735,
      "pee": 3736,
      "shampo": 3737,
      "chewing": 3738,
      "sunrise": 3739,
      "swung": 3740,
      "offic": 3741,
      "turning": 3742,
      "chasing": 3743,
      "sticker": 3744,
      "served": 3745,
      "gerator": 3746,
      "shovel": 3747,
      "marriage": 3748,
      "breakfast": 3749,
      "succeed": 3750,
      "panic": 3751,
      "painter": 3752,
      "safari": 3753,
      "refrigerator": 3754,
      "shampoo": 3755,
      "mber": 3756,
      "yet": 3757,
      "inking": 3758,
      "sting": 3759,
      "thunder": 3760,
      "ended": 3761,
      "soil": 3762,
      "goal": 3763,
      "shaking": 3764,
      "sadly": 3765,
      "ately": 3766,
      "steel": 3767,
      "musician": 3768,
      "scope": 3769,
      "mystery": 3770,
      "microscope": 3771,
      "binky": 3772,
      "kang": 3773,
      "aro": 3774,
      "exper": 3775,
      "paid": 3776,
      "fastest": 3777,
      "skill": 3778,
      "climbing": 3779,
      "proudly": 3780,
      "flour": 3781,
      "lips": 3782,
      "recognize": 3783,
      "kangaro": 3784,
      "ia": 3785,
      "ker": 3786,
      "lined": 3787,
      "wic": 3788,
      "saving": 3789,
      "ween": 3790,
      "rob": 3791,
      "sidewalk": 3792,
      "paul": 3793,
      "ruler": 3794,
      "plastic": 3795,
      "bears": 3796,
      "between": 3797,
      "chamber": 3798,
      "sandwic": 3799,
      "understanding": 3800,
      "problems": 3801,
      "squeaky": 3802,
      "license": 3803,
      "sandwiches": 3804,
      "mome": 3805,
      "god": 3806,
      "thermome": 3807,
      "helpless": 3808,
      "ghter": 3809,
      "surprises": 3810,
      "torna": 3811,
      "troubled": 3812,
      "structure": 3813,
      "henry": 3814,
      "thermometer": 3815,
      "iers": 3816,
      "rely": 3817,
      "hall": 3818,
      "boo": 3819,
      "grabs": 3820,
      "diary": 3821,
      "breaks": 3822,
      "stared": 3823,
      "rubber": 3824,
      "puddles": 3825,
      "soldiers": 3826,
      "snuggled": 3827,
      "exercise": 3828,
      "kangaroo": 3829,
      "tornado": 3830,
      "mandy": 3831,
      "llen": 3832,
      "neat": 3833,
      "gaze": 3834,
      "checked": 3835,
      "knows": 3836,
      "item": 3837,
      "rabbits": 3838,
      "finny": 3839,
      "headed": 3840,
      "dave": 3841,
      "nicer": 3842,
      "wishes": 3843,
      "officer": 3844,
      "len": 3845,
      "pitch": 3846,
      "invest": 3847,
      "ating": 3848,
      "ador": 3849,
      "copper": 3850,
      "eaten": 3851,
      "writing": 3852,
      "country": 3853,
      "pigs": 3854,
      "waffles": 3855,
      "tasks": 3856,
      "baseball": 3857,
      "sprink": 3858,
      "investig": 3859,
      "history": 3860,
      "ason": 3861,
      "moves": 3862,
      "maria": 3863,
      "disagree": 3864,
      "brightly": 3865,
      "breathe": 3866,
      "trips": 3867,
      "sailing": 3868,
      "east": 3869,
      "sorts": 3870,
      "bananas": 3871,
      "rachel": 3872,
      "tuesday": 3873,
      "adorable": 3874,
      "blo": 3875,
      "ezed": 3876,
      "vroom": 3877,
      "zor": 3878,
      "sty": 3879,
      "stare": 3880,
      "razor": 3881,
      "pause": 3882,
      "stud": 3883,
      "muscle": 3884,
      "points": 3885,
      "pastel": 3886,
      "distance": 3887,
      "crash": 3888,
      "skipping": 3889,
      "apologize": 3890,
      "invitation": 3891,
      "equ": 3892,
      "iv": 3893,
      "vid": 3894,
      "reg": 3895,
      "beha": 3896,
      "lizzy": 3897,
      "raised": 3898,
      "illa": 3899,
      "pears": 3900,
      "laid": 3901,
      "letting": 3902,
      "dressed": 3903,
      "choice": 3904,
      "tracks": 3905,
      "prepared": 3906,
      "reef": 3907,
      "score": 3908,
      "practiced": 3909,
      "twigs": 3910,
      "microphone": 3911,
      "investigate": 3912,
      "gloves": 3913,
      "ina": 3914,
      "dolly": 3915,
      "whip": 3916,
      "shouldn": 3917,
      "planned": 3918,
      "badly": 3919,
      "joey": 3920,
      "wandered": 3921,
      "treasures": 3922,
      "memory": 3923,
      "ding": 3924,
      "vowed": 3925,
      "hest": 3926,
      "toe": 3927,
      "inked": 3928,
      "recor": 3929,
      "ingred": 3930,
      "sol": 3931,
      "caused": 3932,
      "decis": 3933,
      "finds": 3934,
      "qua": 3935,
      "anyway": 3936,
      "challen": 3937,
      "ipment": 3938,
      "matches": 3939,
      "loudly": 3940,
      "clapping": 3941,
      "brick": 3942,
      "prayed": 3943,
      "palm": 3944,
      "tremble": 3945,
      "equipment": 3946,
      "ingredient": 3947,
      "aked": 3948,
      "ither": 3949,
      "ris": 3950,
      "bab": 3951,
      "ideas": 3952,
      "sunday": 3953,
      "importance": 3954,
      "dancer": 3955,
      "dresses": 3956,
      "safety": 3957,
      "fallen": 3958,
      "secrets": 3959,
      "blinked": 3960,
      "brighter": 3961,
      "floating": 3962,
      "candles": 3963,
      "yawn": 3964,
      "louder": 3965,
      "experience": 3966,
      "gor": 3967,
      "simp": 3968,
      "resp": 3969,
      "stum": 3970,
      "leak": 3971,
      "cakes": 3972,
      "hops": 3973,
      "lions": 3974,
      "blankets": 3975,
      "planted": 3976,
      "minute": 3977,
      "flap": 3978,
      "regret": 3979,
      "glitt": 3980,
      "ud": 3981,
      "ury": 3982,
      "xury": 3983,
      "refu": 3984,
      "leton": 3985,
      "weight": 3986,
      "luxury": 3987,
      "nobody": 3988,
      "rocky": 3989,
      "happens": 3990,
      "horses": 3991,
      "seats": 3992,
      "highest": 3993,
      "puzzles": 3994,
      "sliding": 3995,
      "memories": 3996,
      "skeleton": 3997,
      "peeked": 3998,
      "simple": 3999,
      "bing": 4000,
      "jess": 4001,
      "lung": 4002,
      "wagging": 4003,
      "baking": 4004,
      "cared": 4005,
      "seeing": 4006,
      "stomach": 4007,
      "cheek": 4008,
      "ighter": 4009,
      "frogs": 4010,
      "sandy": 4011,
      "wishing": 4012,
      "knees": 4013,
      "impressed": 4014,
      "balancing": 4015,
      "blood": 4016,
      "ef": 4017,
      "oking": 4018,
      "grin": 4019,
      "ourselves": 4020,
      "flood": 4021,
      "crossed": 4022,
      "worms": 4023,
      "begin": 4024,
      "mentioned": 4025,
      "ccer": 4026,
      "lang": 4027,
      "uage": 4028,
      "soccer": 4029,
      "popped": 4030,
      "comp": 4031,
      "closely": 4032,
      "setting": 4033,
      "bravely": 4034,
      "universe": 4035,
      "easier": 4036,
      "decorations": 4037,
      "barking": 4038,
      "patterns": 4039,
      "ingredients": 4040,
      "gorilla": 4041,
      "language": 4042,
      "chip": 4043,
      "gogo": 4044,
      "mechan": 4045,
      "iest": 4046,
      "anywhere": 4047,
      "floated": 4048,
      "rested": 4049,
      "keys": 4050,
      "grandmother": 4051,
      "disappeared": 4052,
      "rings": 4053,
      "winter": 4054,
      "washing": 4055,
      "digging": 4056,
      "reminder": 4057,
      "bling": 4058,
      "celebrated": 4059,
      "chickens": 4060,
      "pirates": 4061,
      "fireworks": 4062,
      "sniffed": 4063,
      "mechanic": 4064,
      "fed": 4065,
      "ricane": 4066,
      "playtime": 4067,
      "bother": 4068,
      "helper": 4069,
      "birdcage": 4070,
      "oped": 4071,
      "exit": 4072,
      "ifi": 4073,
      "brings": 4074,
      "wardrobe": 4075,
      "forgotten": 4076,
      "shopkeeper": 4077,
      "quietly": 4078,
      "appla": 4079,
      "ordered": 4080,
      "hurricane": 4081,
      "crawling": 4082,
      "muffins": 4083,
      "marbles": 4084,
      "skills": 4085,
      "items": 4086,
      "iately": 4087,
      "sighed": 4088,
      "heel": 4089,
      "immed": 4090,
      "lick": 4091,
      "hate": 4092,
      "beds": 4093,
      "rocking": 4094,
      "squirrels": 4095,
      "freez": 4096,
      "prints": 4097,
      "believed": 4098,
      "explored": 4099,
      "breeze": 4100,
      "immediately": 4101,
      "nies": 4102,
      "sides": 4103,
      "tick": 4104,
      "inch": 4105,
      "orge": 4106,
      "george": 4107,
      "forgave": 4108,
      "learnt": 4109,
      "greed": 4110,
      "kindly": 4111,
      "opens": 4112,
      "gers": 4113,
      "heads": 4114,
      "gues": 4115,
      "whistled": 4116,
      "swee": 4117,
      "adding": 4118,
      "delivered": 4119,
      "nails": 4120,
      "strangers": 4121,
      "refuse": 4122,
      "freezer": 4123,
      "cries": 4124,
      "elly": 4125,
      "toto": 4126,
      "waist": 4127,
      "baker": 4128,
      "decides": 4129,
      "foc": 4130,
      "warmth": 4131,
      "twink": 4132,
      "splashing": 4133,
      "sorting": 4134,
      "hurried": 4135,
      "jogged": 4136,
      "stretching": 4137,
      "greedy": 4138,
      "fifi": 4139,
      "poking": 4140,
      "scold": 4141,
      "otion": 4142,
      "papa": 4143,
      "jogging": 4144,
      "spots": 4145,
      "sadness": 4146,
      "underground": 4147,
      "fixing": 4148,
      "disappear": 4149,
      "zoomed": 4150,
      "knelt": 4151,
      "pins": 4152,
      "freddy": 4153,
      "neighborhood": 4154,
      "introdu": 4155,
      "lipstick": 4156,
      "sausages": 4157,
      "recei": 4158,
      "custom": 4159,
      "focused": 4160,
      "acted": 4161,
      "bi": 4162,
      "bang": 4163,
      "giggle": 4164,
      "wre": 4165,
      "wiggle": 4166,
      "beam": 4167,
      "sew": 4168,
      "loving": 4169,
      "entered": 4170,
      "chore": 4171,
      "ups": 4172,
      "whatever": 4173,
      "paja": 4174,
      "yours": 4175,
      "perched": 4176,
      "ffic": 4177,
      "traffic": 4178,
      "cutting": 4179,
      "snowy": 4180,
      "throws": 4181,
      "further": 4182,
      "mailman": 4183,
      "created": 4184,
      "monkeys": 4185,
      "sparkle": 4186,
      "stuffed": 4187,
      "price": 4188,
      "acorns": 4189,
      "pebbles": 4190,
      "iggled": 4191,
      "beans": 4192,
      "cuddled": 4193,
      "charlie": 4194,
      "challenge": 4195,
      "babies": 4196,
      "pajamas": 4197,
      "awake": 4198,
      "fighter": 4199,
      "gie": 4200,
      "james": 4201,
      "beat": 4202,
      "weather": 4203,
      "birdie": 4204,
      "petal": 4205,
      "girls": 4206,
      "paused": 4207,
      "everyday": 4208,
      "staying": 4209,
      "surround": 4210,
      "steve": 4211,
      "shock": 4212,
      "shopping": 4213,
      "touching": 4214,
      "sandcastle": 4215,
      "threat": 4216,
      "david": 4217,
      "firefighter": 4218,
      "bouncy": 4219,
      "dragged": 4220,
      "harry": 4221,
      "captain": 4222,
      "punished": 4223,
      "behaved": 4224,
      "glitter": 4225,
      "wreck": 4226,
      "petals": 4227,
      "hon": 4228,
      "pip": 4229,
      "since": 4230,
      "beside": 4231,
      "fears": 4232,
      "contain": 4233,
      "climbs": 4234,
      "sounded": 4235,
      "fields": 4236,
      "spoons": 4237,
      "flapped": 4238,
      "collection": 4239,
      "struggling": 4240,
      "ornaments": 4241,
      "sneaky": 4242,
      "landscape": 4243,
      "paddle": 4244,
      "respons": 4245,
      "effort": 4246,
      "applaud": 4247,
      "aking": 4248,
      "alive": 4249,
      "dried": 4250,
      "fought": 4251,
      "motion": 4252,
      "opp": 4253,
      "wink": 4254,
      "zara": 4255,
      "isn": 4256,
      "thrill": 4257,
      "icing": 4258,
      "willing": 4259,
      "ucked": 4260,
      "remembering": 4261,
      "muddy": 4262,
      "pinky": 4263,
      "julie": 4264,
      "mission": 4265,
      "vanish": 4266,
      "kneeled": 4267,
      "introduced": 4268,
      "abig": 4269,
      "bend": 4270,
      "tilly": 4271,
      "ison": 4272,
      "utter": 4273,
      "lier": 4274,
      "ves": 4275,
      "united": 4276,
      "youth": 4277,
      "rang": 4278,
      "worth": 4279,
      "perfor": 4280,
      "rence": 4281,
      "rained": 4282,
      "colours": 4283,
      "faraway": 4284,
      "conne": 4285,
      "pulling": 4286,
      "hopes": 4287,
      "difference": 4288,
      "wooden": 4289,
      "ladybug": 4290,
      "sisters": 4291,
      "rubbing": 4292,
      "kicking": 4293,
      "answers": 4294,
      "helmets": 4295,
      "copy": 4296,
      "pedals": 4297,
      "zipped": 4298,
      "struggled": 4299,
      "cartoons": 4300,
      "remained": 4301,
      "bumped": 4302,
      "tomatoes": 4303,
      "twirled": 4304,
      "measuring": 4305,
      "muscles": 4306,
      "customer": 4307,
      "chores": 4308,
      "abigail": 4309,
      "fash": 4310,
      "lines": 4311,
      "antly": 4312,
      "rance": 4313,
      "pupp": 4314,
      "pushes": 4315,
      "shoulders": 4316,
      "settled": 4317,
      "shocked": 4318,
      "pulls": 4319,
      "whist": 4320,
      "laughter": 4321,
      "earlier": 4322,
      "mixing": 4323,
      "printed": 4324,
      "clearing": 4325,
      "scattered": 4326,
      "cuddle": 4327,
      "none": 4328,
      "smal": 4329,
      "tide": 4330,
      "zero": 4331,
      "hesit": 4332,
      "ware": 4333,
      "wally": 4334,
      "omed": 4335,
      "lilly": 4336,
      "lola": 4337,
      "caut": 4338,
      "tallest": 4339,
      "serving": 4340,
      "appro": 4341,
      "trave": 4342,
      "paints": 4343,
      "ringing": 4344,
      "flat": 4345,
      "eagerly": 4346,
      "sparkled": 4347,
      "marching": 4348,
      "pinched": 4349,
      "sending": 4350,
      "imagined": 4351,
      "annie": 4352,
      "soared": 4353,
      "avoid": 4354,
      "tempted": 4355,
      "responsible": 4356,
      "thrilled": 4357,
      "fashion": 4358,
      "smallest": 4359,
      "bru": 4360,
      "glu": 4361,
      "giggled": 4362,
      "plays": 4363,
      "loose": 4364,
      "entrance": 4365,
      "unhappy": 4366,
      "ppers": 4367,
      "admir": 4368,
      "finn": 4369,
      "lightning": 4370,
      "wizard": 4371,
      "flutter": 4372,
      "marks": 4373,
      "lemons": 4374,
      "destroyed": 4375,
      "burned": 4376,
      "curled": 4377,
      "presented": 4378,
      "ignored": 4379,
      "potatoes": 4380,
      "yawned": 4381,
      "received": 4382,
      "apart": 4383,
      "gig": 4384,
      "ities": 4385,
      "lected": 4386,
      "plent": 4387,
      "dads": 4388,
      "woof": 4389,
      "foods": 4390,
      "fishing": 4391,
      "raining": 4392,
      "collected": 4393,
      "conv": 4394,
      "catching": 4395,
      "works": 4396,
      "snail": 4397,
      "sweetie": 4398,
      "project": 4399,
      "acting": 4400,
      "actions": 4401,
      "buckets": 4402,
      "squeezed": 4403,
      "drops": 4404,
      "golden": 4405,
      "apologized": 4406,
      "style": 4407,
      "solved": 4408,
      "plenty": 4409,
      "sla": 4410,
      "somed": 4411,
      "inter": 4412,
      "omas": 4413,
      "below": 4414,
      "playroom": 4415,
      "thomas": 4416,
      "radishes": 4417,
      "gazed": 4418,
      "lets": 4419,
      "watches": 4420,
      "wherever": 4421,
      "snowball": 4422,
      "dire": 4423,
      "inviting": 4424,
      "powers": 4425,
      "shouting": 4426,
      "hearts": 4427,
      "stripes": 4428,
      "shadows": 4429,
      "accepted": 4430,
      "rides": 4431,
      "roots": 4432,
      "revealed": 4433,
      "pupil": 4434,
      "scolded": 4435,
      "slapped": 4436,
      "someday": 4437,
      "hitting": 4438,
      "ire": 4439,
      "milly": 4440,
      "nie": 4441,
      "ps": 4442,
      "pies": 4443,
      "stom": 4444,
      "sip": 4445,
      "yum": 4446,
      "tony": 4447,
      "rele": 4448,
      "resu": 4449,
      "chop": 4450,
      "adam": 4451,
      "hoppy": 4452,
      "fuzzy": 4453,
      "stool": 4454,
      "peel": 4455,
      "exact": 4456,
      "however": 4457,
      "pride": 4458,
      "ortun": 4459,
      "wobb": 4460,
      "surface": 4461,
      "sled": 4462,
      "froggy": 4463,
      "disagreed": 4464,
      "matched": 4465,
      "mouths": 4466,
      "destination": 4467,
      "drivers": 4468,
      "machines": 4469,
      "bricks": 4470,
      "shirts": 4471,
      "twisted": 4472,
      "vanished": 4473,
      "melted": 4474,
      "weeks": 4475,
      "photos": 4476,
      "peanuts": 4477,
      "warnings": 4478,
      "ivity": 4479,
      "decision": 4480,
      "opportun": 4481,
      "ah": 4482,
      "bie": 4483,
      "frank": 4484,
      "ica": 4485,
      "kate": 4486,
      "osity": 4487,
      "vines": 4488,
      "hers": 4489,
      "vet": 4490,
      "forgetting": 4491,
      "robby": 4492,
      "meow": 4493,
      "owners": 4494,
      "pea": 4495,
      "abbie": 4496,
      "shower": 4497,
      "gotten": 4498,
      "focus": 4499,
      "gained": 4500,
      "poss": 4501,
      "untie": 4502,
      "reaches": 4503,
      "blueberry": 4504,
      "patience": 4505,
      "stops": 4506,
      "hurts": 4507,
      "drift": 4508,
      "firemen": 4509,
      "knocks": 4510,
      "realize": 4511,
      "folded": 4512,
      "leading": 4513,
      "sneaked": 4514,
      "scoop": 4515,
      "pouring": 4516,
      "logs": 4517,
      "blowing": 4518,
      "pippa": 4519,
      "demanded": 4520,
      "measured": 4521,
      "guessed": 4522,
      "whistling": 4523,
      "admiring": 4524,
      "exactly": 4525,
      "blu": 4526,
      "cot": 4527,
      "chat": 4528,
      "hits": 4529,
      "mm": 4530,
      "vided": 4531,
      "lee": 4532,
      "sters": 4533,
      "liz": 4534,
      "suzy": 4535,
      "news": 4536,
      "myself": 4537,
      "peppers": 4538,
      "achie": 4539,
      "prettie": 4540,
      "keeps": 4541,
      "raincoat": 4542,
      "danny": 4543,
      "contest": 4544,
      "worker": 4545,
      "drinking": 4546,
      "snowballs": 4547,
      "nods": 4548,
      "perfectly": 4549,
      "deeper": 4550,
      "actually": 4551,
      "roads": 4552,
      "mination": 4553,
      "determination": 4554,
      "heroes": 4555,
      "bridges": 4556,
      "bank": 4557,
      "millie": 4558,
      "stealing": 4559,
      "strawberries": 4560,
      "sprinkles": 4561,
      "recorded": 4562,
      "released": 4563,
      "peaches": 4564,
      "prettiest": 4565,
      "date": 4566,
      "fir": 4567,
      "vies": 4568,
      "instruct": 4569,
      "refle": 4570,
      "reason": 4571,
      "waits": 4572,
      "ona": 4573,
      "neare": 4574,
      "third": 4575,
      "dear": 4576,
      "shrug": 4577,
      "backpack": 4578,
      "costum": 4579,
      "owned": 4580,
      "goodnight": 4581,
      "mice": 4582,
      "movies": 4583,
      "watered": 4584,
      "swo": 4585,
      "poison": 4586,
      "promises": 4587,
      "bunch": 4588,
      "snapped": 4589,
      "teaches": 4590,
      "piles": 4591,
      "villa": 4592,
      "twisting": 4593,
      "figured": 4594,
      "jewels": 4595,
      "barks": 4596,
      "studying": 4597,
      "burning": 4598,
      "competition": 4599,
      "herbs": 4600,
      "weeping": 4601,
      "surrounded": 4602,
      "glued": 4603,
      "possible": 4604,
      "firm": 4605,
      "instructions": 4606,
      "costumes": 4607,
      "broom": 4608,
      "cash": 4609,
      "either": 4610,
      "fer": 4611,
      "sen": 4612,
      "sim": 4613,
      "sigh": 4614,
      "tucked": 4615,
      "tonight": 4616,
      "inst": 4617,
      "ising": 4618,
      "ors": 4619,
      "rover": 4620,
      "weren": 4621,
      "sunlight": 4622,
      "cub": 4623,
      "pretends": 4624,
      "parties": 4625,
      "explorer": 4626,
      "marked": 4627,
      "choo": 4628,
      "reaching": 4629,
      "follows": 4630,
      "patiently": 4631,
      "leader": 4632,
      "gling": 4633,
      "melting": 4634,
      "gasped": 4635,
      "symbols": 4636,
      "twirling": 4637,
      "vehicles": 4638,
      "quack": 4639,
      "beginning": 4640,
      "puppet": 4641,
      "result": 4642,
      "awe": 4643,
      "earn": 4644,
      "fas": 4645,
      "mote": 4646,
      "remote": 4647,
      "hissed": 4648,
      "kelly": 4649,
      "rainy": 4650,
      "adult": 4651,
      "stored": 4652,
      "grant": 4653,
      "grat": 4654,
      "abby": 4655,
      "chef": 4656,
      "downstairs": 4657,
      "quite": 4658,
      "conf": 4659,
      "calls": 4660,
      "winning": 4661,
      "pets": 4662,
      "filling": 4663,
      "provided": 4664,
      "paths": 4665,
      "strings": 4666,
      "jenna": 4667,
      "praised": 4668,
      "snat": 4669,
      "librarian": 4670,
      "videos": 4671,
      "planets": 4672,
      "ribbons": 4673,
      "begged": 4674,
      "sights": 4675,
      "students": 4676,
      "swooped": 4677,
      "dot": 4678,
      "ks": 4679,
      "tit": 4680,
      "yuck": 4681,
      "todd": 4682,
      "becoming": 4683,
      "licks": 4684,
      "neither": 4685,
      "baked": 4686,
      "covery": 4687,
      "luke": 4688,
      "napping": 4689,
      "rocked": 4690,
      "truly": 4691,
      "slam": 4692,
      "maggie": 4693,
      "situ": 4694,
      "zement": 4695,
      "agreem": 4696,
      "discovery": 4697,
      "wrist": 4698,
      "gull": 4699,
      "darker": 4700,
      "amazement": 4701,
      "proper": 4702,
      "sails": 4703,
      "polished": 4704,
      "lakes": 4705,
      "zooming": 4706,
      "sparkles": 4707,
      "smells": 4708,
      "roaring": 4709,
      "shady": 4710,
      "shrinking": 4711,
      "unlocked": 4712,
      "taped": 4713,
      "spaceship": 4714,
      "presents": 4715,
      "mushrooms": 4716,
      "envelopes": 4717,
      "forks": 4718,
      "shivering": 4719,
      "tugged": 4720,
      "skelly": 4721,
      "company": 4722,
      "hunt": 4723,
      "tore": 4724,
      "ongest": 4725,
      "onnie": 4726,
      "stro": 4727,
      "shelves": 4728,
      "chang": 4729,
      "goals": 4730,
      "somebody": 4731,
      "fus": 4732,
      "peep": 4733,
      "expected": 4734,
      "scaring": 4735,
      "strum": 4736,
      "ventured": 4737,
      "workers": 4738,
      "bunnies": 4739,
      "planning": 4740,
      "frosting": 4741,
      "torn": 4742,
      "missing": 4743,
      "couple": 4744,
      "dipped": 4745,
      "drinks": 4746,
      "voices": 4747,
      "bottles": 4748,
      "stirring": 4749,
      "sorted": 4750,
      "pillows": 4751,
      "praying": 4752,
      "scales": 4753,
      "paintings": 4754,
      "minerals": 4755,
      "freed": 4756,
      "curtains": 4757,
      "requested": 4758,
      "recorder": 4759,
      "jessie": 4760,
      "bakery": 4761,
      "twinkle": 4762,
      "beamed": 4763,
      "performed": 4764,
      "cotton": 4765,
      "agreement": 4766,
      "changing": 4767,
      "aster": 4768,
      "aware": 4769,
      "tara": 4770,
      "rever": 4771,
      "onwards": 4772,
      "ings": 4773,
      "imed": 4774,
      "belly": 4775,
      "alright": 4776,
      "weighed": 4777,
      "desp": 4778,
      "helpers": 4779,
      "feast": 4780,
      "whose": 4781,
      "knowled": 4782,
      "overjoy": 4783,
      "remembers": 4784,
      "afterwards": 4785,
      "writ": 4786,
      "swims": 4787,
      "winner": 4788,
      "welcoming": 4789,
      "naps": 4790,
      "staring": 4791,
      "slipper": 4792,
      "parked": 4793,
      "delivering": 4794,
      "arrive": 4795,
      "kisses": 4796,
      "struck": 4797,
      "neighbors": 4798,
      "mountains": 4799,
      "complaining": 4800,
      "bumps": 4801,
      "ziggy": 4802,
      "camping": 4803,
      "knights": 4804,
      "humans": 4805,
      "lena": 4806,
      "studied": 4807,
      "stumble": 4808,
      "cheeks": 4809,
      "brushes": 4810,
      "stomped": 4811,
      "villagers": 4812,
      "cashier": 4813,
      "knowledge": 4814,
      "overjoyed": 4815,
      "slippery": 4816,
      "ago": 4817,
      "ached": 4818,
      "mun": 4819,
      "nina": 4820,
      "vic": 4821,
      "wound": 4822,
      "instrum": 4823,
      "ply": 4824,
      "indy": 4825,
      "itted": 4826,
      "suits": 4827,
      "umble": 4828,
      "ruin": 4829,
      "rufus": 4830,
      "josh": 4831,
      "iel": 4832,
      "ctions": 4833,
      "speaking": 4834,
      "brand": 4835,
      "wobble": 4836,
      "daniel": 4837,
      "hardly": 4838,
      "bites": 4839,
      "parts": 4840,
      "written": 4841,
      "guy": 4842,
      "emer": 4843,
      "lessons": 4844,
      "chewy": 4845,
      "seagull": 4846,
      "easily": 4847,
      "crashed": 4848,
      "selling": 4849,
      "buildings": 4850,
      "bloomed": 4851,
      "pencils": 4852,
      "groceries": 4853,
      "stamps": 4854,
      "silence": 4855,
      "valued": 4856,
      "cobwebs": 4857,
      "balanced": 4858,
      "decisions": 4859,
      "complet": 4860,
      "traveled": 4861,
      "opportunity": 4862,
      "reflection": 4863,
      "nearest": 4864,
      "situation": 4865,
      "ade": 4866,
      "bars": 4867,
      "dilly": 4868,
      "dies": 4869,
      "lam": 4870,
      "inty": 4871,
      "ith": 4872,
      "erk": 4873,
      "rip": 4874,
      "season": 4875,
      "lia": 4876,
      "amber": 4877,
      "barely": 4878,
      "dodo": 4879,
      "boom": 4880,
      "rather": 4881,
      "lookout": 4882,
      "needles": 4883,
      "aren": 4884,
      "clerk": 4885,
      "puck": 4886,
      "scarves": 4887,
      "crew": 4888,
      "sticky": 4889,
      "yester": 4890,
      "patted": 4891,
      "grandchild": 4892,
      "jeff": 4893,
      "zoe": 4894,
      "nests": 4895,
      "mindful": 4896,
      "drives": 4897,
      "creating": 4898,
      "rushing": 4899,
      "leads": 4900,
      "feeding": 4901,
      "decorated": 4902,
      "spreading": 4903,
      "crumb": 4904,
      "sneezed": 4905,
      "tires": 4906,
      "drums": 4907,
      "permitted": 4908,
      "loading": 4909,
      "zipping": 4910,
      "objects": 4911,
      "nurses": 4912,
      "sibling": 4913,
      "paddled": 4914,
      "jessica": 4915,
      "tickle": 4916,
      "sweetest": 4917,
      "firefighters": 4918,
      "approached": 4919,
      "firmly": 4920,
      "cubs": 4921,
      "fasc": 4922,
      "stroke": 4923,
      "freedom": 4924,
      "writes": 4925,
      "lamb": 4926,
      "yesterday": 4927,
      "siblings": 4928,
      "cous": 4929,
      "dip": 4930,
      "fab": 4931,
      "gar": 4932,
      "wigg": 4933,
      "toss": 4934,
      "theart": 4935,
      "ana": 4936,
      "inated": 4937,
      "relu": 4938,
      "omp": 4939,
      "seas": 4940,
      "sewed": 4941,
      "hated": 4942,
      "chomp": 4943,
      "rosie": 4944,
      "seesaw": 4945,
      "express": 4946,
      "rule": 4947,
      "rudy": 4948,
      "clar": 4949,
      "clara": 4950,
      "kings": 4951,
      "pose": 4952,
      "smith": 4953,
      "opening": 4954,
      "overcome": 4955,
      "hurting": 4956,
      "maya": 4957,
      "wondering": 4958,
      "scribb": 4959,
      "observed": 4960,
      "gathering": 4961,
      "pockets": 4962,
      "smelling": 4963,
      "leaning": 4964,
      "queens": 4965,
      "relaxed": 4966,
      "laces": 4967,
      "arrows": 4968,
      "intelligence": 4969,
      "silent": 4970,
      "poems": 4971,
      "pumpkins": 4972,
      "twee": 4973,
      "teasing": 4974,
      "weapons": 4975,
      "trembling": 4976,
      "neighbourhood": 4977,
      "siren": 4978,
      "sweetheart": 4979,
      "honk": 4980,
      "drifted": 4981,
      "achieve": 4982,
      "shrugged": 4983,
      "victory": 4984,
      "cousin": 4985,
      "reluct": 4986,
      "fid": 4987,
      "flick": 4988,
      "hy": 4989,
      "izing": 4990,
      "ka": 4991,
      "lent": 4992,
      "nick": 4993,
      "ners": 4994,
      "pad": 4995,
      "sir": 4996,
      "ham": 4997,
      "plug": 4998,
      "loe": 4999,
      "unable": 5000,
      "chloe": 5001,
      "cess": 5002,
      "indro": 5003,
      "raindro": 5004,
      "escap": 5005,
      "backward": 5006,
      "meowed": 5007,
      "coo": 5008,
      "opin": 5009,
      "homework": 5010,
      "printer": 5011,
      "puff": 5012,
      "kinder": 5013,
      "permission": 5014,
      "anytime": 5015,
      "crept": 5016,
      "creation": 5017,
      "farther": 5018,
      "congrat": 5019,
      "stepping": 5020,
      "colored": 5021,
      "draws": 5022,
      "visits": 5023,
      "monsters": 5024,
      "grandparent": 5025,
      "trapped": 5026,
      "gue": 5027,
      "visiting": 5028,
      "pennies": 5029,
      "ava": 5030,
      "breaking": 5031,
      "snowf": 5032,
      "tongue": 5033,
      "twice": 5034,
      "luckily": 5035,
      "prove": 5036,
      "zoomy": 5037,
      "tena": 5038,
      "rainbows": 5039,
      "forgets": 5040,
      "flav": 5041,
      "gency": 5042,
      "squares": 5043,
      "recording": 5044,
      "zippy": 5045,
      "buzzing": 5046,
      "disturbed": 5047,
      "cushions": 5048,
      "pandas": 5049,
      "earthqua": 5050,
      "superheroes": 5051,
      "crowd": 5052,
      "rising": 5053,
      "cautious": 5054,
      "instruments": 5055,
      "emergency": 5056,
      "wiggly": 5057,
      "congratul": 5058,
      "earthquake": 5059,
      "ali": 5060,
      "cindy": 5061,
      "fay": 5062,
      "fut": 5063,
      "nath": 5064,
      "rist": 5065,
      "sense": 5066,
      "tex": 5067,
      "zen": 5068,
      "inced": 5069,
      "encou": 5070,
      "iding": 5071,
      "iders": 5072,
      "immer": 5073,
      "beloved": 5074,
      "ric": 5075,
      "soaked": 5076,
      "christ": 5077,
      "wears": 5078,
      "gears": 5079,
      "happiest": 5080,
      "spiders": 5081,
      "tapped": 5082,
      "urday": 5083,
      "worries": 5084,
      "excuse": 5085,
      "least": 5086,
      "forehead": 5087,
      "betsy": 5088,
      "saturday": 5089,
      "dresser": 5090,
      "chosen": 5091,
      "guest": 5092,
      "curiosity": 5093,
      "raging": 5094,
      "dia": 5095,
      "diving": 5096,
      "scra": 5097,
      "doctors": 5098,
      "reply": 5099,
      "creativity": 5100,
      "horiz": 5101,
      "spraying": 5102,
      "rods": 5103,
      "trusty": 5104,
      "decorating": 5105,
      "cracks": 5106,
      "jets": 5107,
      "lemonade": 5108,
      "loaded": 5109,
      "source": 5110,
      "improved": 5111,
      "loops": 5112,
      "recipe": 5113,
      "daring": 5114,
      "seems": 5115,
      "dolphins": 5116,
      "appreciation": 5117,
      "louise": 5118,
      "six": 5119,
      "seconds": 5120,
      "sprinkle": 5121,
      "convinced": 5122,
      "slammed": 5123,
      "reluctantly": 5124,
      "congratulated": 5125,
      "faye": 5126,
      "future": 5127,
      "nathan": 5128,
      "encouraging": 5129,
      "christmas": 5130,
      "horizon": 5131,
      "bonnie": 5132,
      "gle": 5133,
      "jay": 5134,
      "ni": 5135,
      "tuce": 5136,
      "tier": 5137,
      "zes": 5138,
      "anne": 5139,
      "issa": 5140,
      "eri": 5141,
      "witched": 5142,
      "within": 5143,
      "hog": 5144,
      "buses": 5145,
      "worse": 5146,
      "lettuce": 5147,
      "listens": 5148,
      "prettier": 5149,
      "stays": 5150,
      "talents": 5151,
      "woo": 5152,
      "compared": 5153,
      "contro": 5154,
      "tops": 5155,
      "talks": 5156,
      "bows": 5157,
      "plans": 5158,
      "frozen": 5159,
      "badge": 5160,
      "grassy": 5161,
      "materi": 5162,
      "throughout": 5163,
      "mixture": 5164,
      "janet": 5165,
      "ggy": 5166,
      "laying": 5167,
      "tune": 5168,
      "tippy": 5169,
      "twists": 5170,
      "pancake": 5171,
      "robots": 5172,
      "miller": 5173,
      "performing": 5174,
      "supplies": 5175,
      "gems": 5176,
      "scooters": 5177,
      "wedding": 5178,
      "dusty": 5179,
      "avocados": 5180,
      "hedgehog": 5181,
      "films": 5182,
      "penguins": 5183,
      "connected": 5184,
      "giggling": 5185,
      "toddler": 5186,
      "fabric": 5187,
      "tweety": 5188,
      "opinion": 5189,
      "snowflakes": 5190,
      "texture": 5191,
      "guests": 5192,
      "control": 5193,
      "ais": 5194,
      "awhile": 5195,
      "lp": 5196,
      "ping": 5197,
      "height": 5198,
      "toaster": 5199,
      "amoun": 5200,
      "unsure": 5201,
      "lydia": 5202,
      "chuck": 5203,
      "shot": 5204,
      "tered": 5205,
      "cara": 5206,
      "manag": 5207,
      "stopping": 5208,
      "gras": 5209,
      "laimed": 5210,
      "everybody": 5211,
      "teased": 5212,
      "rust": 5213,
      "exclaimed": 5214,
      "greet": 5215,
      "pointy": 5216,
      "fied": 5217,
      "waiter": 5218,
      "angled": 5219,
      "gertie": 5220,
      "steer": 5221,
      "buying": 5222,
      "heading": 5223,
      "grandson": 5224,
      "traded": 5225,
      "guide": 5226,
      "medium": 5227,
      "plead": 5228,
      "growls": 5229,
      "nightma": 5230,
      "claire": 5231,
      "shops": 5232,
      "passen": 5233,
      "brownie": 5234,
      "activ": 5235,
      "sparkling": 5236,
      "wraps": 5237,
      "flapping": 5238,
      "craft": 5239,
      "chirping": 5240,
      "speeding": 5241,
      "teamwork": 5242,
      "including": 5243,
      "wiping": 5244,
      "argued": 5245,
      "frowned": 5246,
      "succeeded": 5247,
      "grinned": 5248,
      "directions": 5249,
      "confident": 5250,
      "completed": 5251,
      "crumbs": 5252,
      "fascinated": 5253,
      "aisle": 5254,
      "amount": 5255,
      "managing": 5256,
      "activities": 5257,
      "brushed": 5258,
      "dged": 5259,
      "izzy": 5260,
      "jilly": 5261,
      "ky": 5262,
      "rout": 5263,
      "switched": 5264,
      "tar": 5265,
      "toot": 5266,
      "removed": 5267,
      "ouch": 5268,
      "eras": 5269,
      "safer": 5270,
      "beard": 5271,
      "behaving": 5272,
      "ripped": 5273,
      "maker": 5274,
      "ampol": 5275,
      "local": 5276,
      "weed": 5277,
      "geese": 5278,
      "forgiven": 5279,
      "shown": 5280,
      "oken": 5281,
      "outdoors": 5282,
      "suz": 5283,
      "hoot": 5284,
      "bubu": 5285,
      "uses": 5286,
      "exha": 5287,
      "posit": 5288,
      "donate": 5289,
      "sticking": 5290,
      "braver": 5291,
      "bluey": 5292,
      "tables": 5293,
      "partic": 5294,
      "kites": 5295,
      "guided": 5296,
      "rolls": 5297,
      "missy": 5298,
      "snowmen": 5299,
      "rotted": 5300,
      "packing": 5301,
      "passing": 5302,
      "trampol": 5303,
      "pots": 5304,
      "rubs": 5305,
      "adds": 5306,
      "slice": 5307,
      "shakes": 5308,
      "printing": 5309,
      "distra": 5310,
      "trusting": 5311,
      "kittens": 5312,
      "groups": 5313,
      "interested": 5314,
      "soaring": 5315,
      "yelling": 5316,
      "pressing": 5317,
      "designs": 5318,
      "wandering": 5319,
      "mrs": 5320,
      "scattering": 5321,
      "dinosaurs": 5322,
      "hooks": 5323,
      "healed": 5324,
      "included": 5325,
      "scratches": 5326,
      "nations": 5327,
      "limes": 5328,
      "lenny": 5329,
      "behavi": 5330,
      "bibi": 5331,
      "gigi": 5332,
      "snatched": 5333,
      "titi": 5334,
      "raindrops": 5335,
      "alien": 5336,
      "passengers": 5337,
      "trampoline": 5338,
      "aar": 5339,
      "du": 5340,
      "itor": 5341,
      "mart": 5342,
      "pound": 5343,
      "ral": 5344,
      "rumble": 5345,
      "sant": 5346,
      "sway": 5347,
      "tangled": 5348,
      "ying": 5349,
      "ition": 5350,
      "reas": 5351,
      "impossible": 5352,
      "beth": 5353,
      "ora": 5354,
      "attempt": 5355,
      "lizz": 5356,
      "mashed": 5357,
      "ammy": 5358,
      "neath": 5359,
      "entire": 5360,
      "biggie": 5361,
      "ching": 5362,
      "bodies": 5363,
      "robin": 5364,
      "inda": 5365,
      "raju": 5366,
      "hoo": 5367,
      "tricycle": 5368,
      "usted": 5369,
      "bleed": 5370,
      "cles": 5371,
      "thoughts": 5372,
      "watering": 5373,
      "tying": 5374,
      "underneath": 5375,
      "creations": 5376,
      "combed": 5377,
      "bravery": 5378,
      "dollhouse": 5379,
      "tractor": 5380,
      "daw": 5381,
      "fireflies": 5382,
      "laughs": 5383,
      "growled": 5384,
      "dedi": 5385,
      "precious": 5386,
      "hotter": 5387,
      "rags": 5388,
      "fairies": 5389,
      "june": 5390,
      "lifting": 5391,
      "baths": 5392,
      "purr": 5393,
      "eagle": 5394,
      "active": 5395,
      "jobs": 5396,
      "paying": 5397,
      "steady": 5398,
      "organizing": 5399,
      "sparks": 5400,
      "glowed": 5401,
      "zookeeper": 5402,
      "merry": 5403,
      "blown": 5404,
      "stacked": 5405,
      "prayer": 5406,
      "snuck": 5407,
      "successfully": 5408,
      "cherish": 5409,
      "announ": 5410,
      "spending": 5411,
      "figures": 5412,
      "blooming": 5413,
      "thoughtfulness": 5414,
      "policeman": 5415,
      "burrow": 5416,
      "splashes": 5417,
      "repeated": 5418,
      "candies": 5419,
      "knots": 5420,
      "scratched": 5421,
      "pigeons": 5422,
      "napkins": 5423,
      "encouragement": 5424,
      "jackets": 5425,
      "tickets": 5426,
      "windowsill": 5427,
      "recognized": 5428,
      "beyond": 5429,
      "surfboard": 5430,
      "convince": 5431,
      "blush": 5432,
      "simply": 5433,
      "instin": 5434,
      "explorers": 5435,
      "chefs": 5436,
      "fido": 5437,
      "escaped": 5438,
      "materials": 5439,
      "exhausted": 5440,
      "particular": 5441,
      "aaron": 5442,
      "ralph": 5443,
      "santa": 5444,
      "lizzie": 5445,
      "awoke": 5446,
      "cent": 5447,
      "eight": 5448,
      "karen": 5449,
      "lor": 5450,
      "limp": 5451,
      "oli": 5452,
      "site": 5453,
      "slower": 5454,
      "ude": 5455,
      "ues": 5456,
      "yay": 5457,
      "onions": 5458,
      "sal": 5459,
      "stall": 5460,
      "steven": 5461,
      "antic": 5462,
      "lied": 5463,
      "mailed": 5464,
      "master": 5465,
      "losing": 5466,
      "ends": 5467,
      "unfor": 5468,
      "unfold": 5469,
      "sof": 5470,
      "momma": 5471,
      "forgiving": 5472,
      "detail": 5473,
      "spies": 5474,
      "newfound": 5475,
      "theirs": 5476,
      "catty": 5477,
      "ility": 5478,
      "mane": 5479,
      "peck": 5480,
      "icked": 5481,
      "worn": 5482,
      "mies": 5483,
      "joanna": 5484,
      "clas": 5485,
      "grey": 5486,
      "poses": 5487,
      "bras": 5488,
      "underwater": 5489,
      "drey": 5490,
      "strongest": 5491,
      "doorway": 5492,
      "brake": 5493,
      "stella": 5494,
      "bundle": 5495,
      "bravest": 5496,
      "shopper": 5497,
      "smiley": 5498,
      "warmly": 5499,
      "zebras": 5500,
      "marie": 5501,
      "married": 5502,
      "visitor": 5503,
      "dama": 5504,
      "airplane": 5505,
      "sweep": 5506,
      "hides": 5507,
      "wonders": 5508,
      "rotten": 5509,
      "sweets": 5510,
      "beehive": 5511,
      "provid": 5512,
      "larry": 5513,
      "riverbank": 5514,
      "bowls": 5515,
      "oranges": 5516,
      "wags": 5517,
      "slipping": 5518,
      "circus": 5519,
      "elephants": 5520,
      "seller": 5521,
      "genie": 5522,
      "collecting": 5523,
      "statues": 5524,
      "rockets": 5525,
      "screams": 5526,
      "springing": 5527,
      "guns": 5528,
      "tunately": 5529,
      "rescued": 5530,
      "insisting": 5531,
      "surrendered": 5532,
      "gracefully": 5533,
      "horns": 5534,
      "spills": 5535,
      "swans": 5536,
      "knocking": 5537,
      "audrey": 5538,
      "kneeling": 5539,
      "punishment": 5540,
      "offering": 5541,
      "invitations": 5542,
      "hunters": 5543,
      "hesitated": 5544,
      "direction": 5545,
      "adults": 5546,
      "yucky": 5547,
      "reversed": 5548,
      "clarissa": 5549,
      "flicker": 5550,
      "kai": 5551,
      "grasshopper": 5552,
      "routine": 5553,
      "martha": 5554,
      "pounding": 5555,
      "dawn": 5556,
      "instinct": 5557,
      "unfortunately": 5558,
      "providing": 5559,
      "bom": 5560,
      "bam": 5561,
      "crun": 5562,
      "dred": 5563,
      "ew": 5564,
      "munk": 5565,
      "rup": 5566,
      "rina": 5567,
      "san": 5568,
      "scu": 5569,
      "siz": 5570,
      "trotted": 5571,
      "ura": 5572,
      "vil": 5573,
      "toed": 5574,
      "llas": 5575,
      "playdate": 5576,
      "force": 5577,
      "boast": 5578,
      "asm": 5579,
      "artwork": 5580,
      "racco": 5581,
      "capes": 5582,
      "startled": 5583,
      "sped": 5584,
      "catches": 5585,
      "cans": 5586,
      "mance": 5587,
      "stolen": 5588,
      "fault": 5589,
      "learns": 5590,
      "laura": 5591,
      "ssy": 5592,
      "elle": 5593,
      "poster": 5594,
      "donkey": 5595,
      "untied": 5596,
      "compl": 5597,
      "surely": 5598,
      "forests": 5599,
      "dripping": 5600,
      "joining": 5601,
      "fires": 5602,
      "pleas": 5603,
      "petted": 5604,
      "snapping": 5605,
      "hippy": 5606,
      "slowed": 5607,
      "counts": 5608,
      "markers": 5609,
      "shouts": 5610,
      "foxy": 5611,
      "activity": 5612,
      "attack": 5613,
      "warri": 5614,
      "allowing": 5615,
      "dragons": 5616,
      "smarter": 5617,
      "ments": 5618,
      "beaky": 5619,
      "streets": 5620,
      "believing": 5621,
      "dangers": 5622,
      "squeal": 5623,
      "younger": 5624,
      "bones": 5625,
      "erase": 5626,
      "cops": 5627,
      "polishing": 5628,
      "bandages": 5629,
      "burst": 5630,
      "completely": 5631,
      "spikes": 5632,
      "umbrellas": 5633,
      "court": 5634,
      "pearl": 5635,
      "yielded": 5636,
      "enthusiasm": 5637,
      "mosquitoes": 5638,
      "tiptoed": 5639,
      "recommended": 5640,
      "hundred": 5641,
      "neatly": 5642,
      "solut": 5643,
      "challenged": 5644,
      "chipmunk": 5645,
      "performance": 5646,
      "connection": 5647,
      "travell": 5648,
      "pupils": 5649,
      "wobbled": 5650,
      "properly": 5651,
      "despite": 5652,
      "lpture": 5653,
      "target": 5654,
      "dedication": 5655,
      "oliver": 5656,
      "brakes": 5657,
      "damage": 5658,
      "crunch": 5659,
      "sculpture": 5660,
      "sizes": 5661,
      "10": 5662,
      "cas": 5663,
      "cough": 5664,
      "dou": 5665,
      "fy": 5666,
      "fits": 5667,
      "ivy": 5668,
      "jon": 5669,
      "lending": 5670,
      "nona": 5671,
      "swords": 5672,
      "wig": 5673,
      "hea": 5674,
      "andre": 5675,
      "rebuild": 5676,
      "arran": 5677,
      "stit": 5678,
      "sean": 5679,
      "shelly": 5680,
      "ami": 5681,
      "veled": 5682,
      "timer": 5683,
      "necess": 5684,
      "unwrap": 5685,
      "unpacked": 5686,
      "alth": 5687,
      "wealth": 5688,
      "des": 5689,
      "defe": 5690,
      "helen": 5691,
      "outfit": 5692,
      "tricked": 5693,
      "ranger": 5694,
      "peered": 5695,
      "faced": 5696,
      "rusty": 5697,
      "foggy": 5698,
      "puffy": 5699,
      "longing": 5700,
      "final": 5701,
      "compete": 5702,
      "cons": 5703,
      "connor": 5704,
      "slim": 5705,
      "venture": 5706,
      "miles": 5707,
      "truckie": 5708,
      "marveled": 5709,
      "ages": 5710,
      "grandparents": 5711,
      "cuts": 5712,
      "displayed": 5713,
      "rays": 5714,
      "matt": 5715,
      "airplanes": 5716,
      "rowed": 5717,
      "dived": 5718,
      "sweeties": 5719,
      "secure": 5720,
      "layla": 5721,
      "probab": 5722,
      "lared": 5723,
      "kicks": 5724,
      "piglet": 5725,
      "pastries": 5726,
      "matching": 5727,
      "crossing": 5728,
      "mina": 5729,
      "snee": 5730,
      "pancakes": 5731,
      "cheering": 5732,
      "banged": 5733,
      "scooped": 5734,
      "humming": 5735,
      "vinegar": 5736,
      "carpets": 5737,
      "generosity": 5738,
      "tearing": 5739,
      "meals": 5740,
      "batteries": 5741,
      "insects": 5742,
      "discovering": 5743,
      "clues": 5744,
      "cones": 5745,
      "bumping": 5746,
      "arguing": 5747,
      "images": 5748,
      "labels": 5749,
      "tunnels": 5750,
      "charge": 5751,
      "peeking": 5752,
      "risks": 5753,
      "hesitant": 5754,
      "yummi": 5755,
      "guys": 5756,
      "silently": 5757,
      "scraped": 5758,
      "nibble": 5759,
      "forgiveness": 5760,
      "suzie": 5761,
      "behavior": 5762,
      "bamboo": 5763,
      "solution": 5764,
      "andrew": 5765,
      "necessary": 5766,
      "probably": 5767,
      "acles": 5768,
      "bumpy": 5769,
      "dent": 5770,
      "evil": 5771,
      "flip": 5772,
      "gran": 5773,
      "grip": 5774,
      "liness": 5775,
      "longest": 5776,
      "phe": 5777,
      "ruth": 5778,
      "sou": 5779,
      "tend": 5780,
      "theo": 5781,
      "stung": 5782,
      "beware": 5783,
      "plucked": 5784,
      "ripe": 5785,
      "keen": 5786,
      "players": 5787,
      "nephe": 5788,
      "uncovered": 5789,
      "bage": 5790,
      "gogg": 5791,
      "mommies": 5792,
      "dock": 5793,
      "defin": 5794,
      "rol": 5795,
      "robo": 5796,
      "robb": 5797,
      "oky": 5798,
      "susan": 5799,
      "manners": 5800,
      "stole": 5801,
      "pecked": 5802,
      "whoever": 5803,
      "grammy": 5804,
      "goodby": 5805,
      "joked": 5806,
      "eath": 5807,
      "beneath": 5808,
      "moo": 5809,
      "moat": 5810,
      "sundays": 5811,
      "leap": 5812,
      "runner": 5813,
      "itely": 5814,
      "swore": 5815,
      "type": 5816,
      "lowered": 5817,
      "nearly": 5818,
      "afar": 5819,
      "conqu": 5820,
      "doorstep": 5821,
      "reaction": 5822,
      "gardener": 5823,
      "biting": 5824,
      "bradle": 5825,
      "beaver": 5826,
      "satis": 5827,
      "steep": 5828,
      "ddled": 5829,
      "shoo": 5830,
      "patrol": 5831,
      "zeb": 5832,
      "drawn": 5833,
      "duckling": 5834,
      "stands": 5835,
      "swimsuit": 5836,
      "angels": 5837,
      "jean": 5838,
      "misch": 5839,
      "delivery": 5840,
      "pleasure": 5841,
      "stern": 5842,
      "brightened": 5843,
      "colder": 5844,
      "warden": 5845,
      "hairdresser": 5846,
      "realise": 5847,
      "leafy": 5848,
      "potion": 5849,
      "ences": 5850,
      "scrub": 5851,
      "princesses": 5852,
      "tastes": 5853,
      "protected": 5854,
      "protecting": 5855,
      "changes": 5856,
      "comforted": 5857,
      "spooky": 5858,
      "stretcher": 5859,
      "bells": 5860,
      "cracked": 5861,
      "pops": 5862,
      "tested": 5863,
      "snakes": 5864,
      "explaining": 5865,
      "panicked": 5866,
      "picnics": 5867,
      "peacefully": 5868,
      "towels": 5869,
      "soapy": 5870,
      "travels": 5871,
      "traveling": 5872,
      "supplied": 5873,
      "jamie": 5874,
      "designed": 5875,
      "melinda": 5876,
      "elders": 5877,
      "stalk": 5878,
      "extraordinary": 5879,
      "supporting": 5880,
      "buzzed": 5881,
      "curly": 5882,
      "stamped": 5883,
      "laptop": 5884,
      "tigers": 5885,
      "messes": 5886,
      "crops": 5887,
      "questioned": 5888,
      "earthworm": 5889,
      "scratching": 5890,
      "shivered": 5891,
      "zigzags": 5892,
      "knobs": 5893,
      "invites": 5894,
      "crashing": 5895,
      "glittered": 5896,
      "heels": 5897,
      "tickled": 5898,
      "twinkled": 5899,
      "efforts": 5900,
      "motioned": 5901,
      "caution": 5902,
      "approach": 5903,
      "snatch": 5904,
      "desper": 5905,
      "munching": 5906,
      "zoey": 5907,
      "tossed": 5908,
      "flavors": 5909,
      "cautiously": 5910,
      "bleeding": 5911,
      "limped": 5912,
      "bomb": 5913,
      "warriors": 5914,
      "consider": 5915,
      "nephew": 5916,
      "goggles": 5917,
      "definitely": 5918,
      "robbie": 5919,
      "goodbyes": 5920,
      "bradley": 5921,
      "astr": 5922,
      "bond": 5923,
      "cers": 5924,
      "dump": 5925,
      "flow": 5926,
      "flips": 5927,
      "jor": 5928,
      "nu": 5929,
      "nif": 5930,
      "sill": 5931,
      "scient": 5932,
      "sank": 5933,
      "ties": 5934,
      "tumbled": 5935,
      "tighter": 5936,
      "anation": 5937,
      "rect": 5938,
      "replaced": 5939,
      "restored": 5940,
      "enemi": 5941,
      "bel": 5942,
      "irley": 5943,
      "otto": 5944,
      "ril": 5945,
      "sequ": 5946,
      "atted": 5947,
      "maddy": 5948,
      "igning": 5949,
      "enti": 5950,
      "thro": 5951,
      "thump": 5952,
      "although": 5953,
      "fries": 5954,
      "ford": 5955,
      "desi": 5956,
      "hadow": 5957,
      "rolly": 5958,
      "shirley": 5959,
      "helle": 5960,
      "hooked": 5961,
      "hoses": 5962,
      "birdhouse": 5963,
      "cari": 5964,
      "cooper": 5965,
      "bust": 5966,
      "treehouse": 5967,
      "lava": 5968,
      "ists": 5969,
      "ruining": 5970,
      "sunflowers": 5971,
      "sunscreen": 5972,
      "willy": 5973,
      "poop": 5974,
      "foreshadow": 5975,
      "rains": 5976,
      "comfy": 5977,
      "squatted": 5978,
      "affect": 5979,
      "afford": 5980,
      "consequ": 5981,
      "sling": 5982,
      "closes": 5983,
      "gardens": 5984,
      "magnif": 5985,
      "explanation": 5986,
      "locks": 5987,
      "magician": 5988,
      "sings": 5989,
      "bowing": 5990,
      "headband": 5991,
      "month": 5992,
      "fluff": 5993,
      "grandkids": 5994,
      "disobey": 5995,
      "hopsc": 5996,
      "curiously": 5997,
      "angela": 5998,
      "wisely": 5999,
      "eyeshadow": 6000,
      "prepar": 6001,
      "sweat": 6002,
      "swept": 6003,
      "mixy": 6004,
      "frantic": 6005,
      "flames": 6006,
      "cloudy": 6007,
      "minded": 6008,
      "corners": 6009,
      "scri": 6010,
      "scrubbed": 6011,
      "realizing": 6012,
      "acts": 6013,
      "unicate": 6014,
      "pays": 6015,
      "comforting": 6016,
      "observing": 6017,
      "ordering": 6018,
      "flappy": 6019,
      "celebration": 6020,
      "scarecrow": 6021,
      "tipped": 6022,
      "imagining": 6023,
      "cheerfully": 6024,
      "calmly": 6025,
      "caps": 6026,
      "practicing": 6027,
      "screaming": 6028,
      "smoothly": 6029,
      "crowns": 6030,
      "sheets": 6031,
      "tricky": 6032,
      "halfway": 6033,
      "flags": 6034,
      "michelle": 6035,
      "streamers": 6036,
      "suggestion": 6037,
      "comets": 6038,
      "health": 6039,
      "dustpan": 6040,
      "masks": 6041,
      "kayaks": 6042,
      "aprons": 6043,
      "recipes": 6044,
      "messages": 6045,
      "campfire": 6046,
      "guardian": 6047,
      "communicate": 6048,
      "oysters": 6049,
      "sniffs": 6050,
      "desserts": 6051,
      "tips": 6052,
      "admit": 6053,
      "massages": 6054,
      "lollipops": 6055,
      "exercises": 6056,
      "charity": 6057,
      "pedaled": 6058,
      "sprinkled": 6059,
      "respond": 6060,
      "languages": 6061,
      "inchworm": 6062,
      "container": 6063,
      "projects": 6064,
      "wobbly": 6065,
      "mmm": 6066,
      "onaut": 6067,
      "simon": 6068,
      "dots": 6069,
      "cooly": 6070,
      "immering": 6071,
      "heights": 6072,
      "greeted": 6073,
      "pleaded": 6074,
      "erasers": 6075,
      "positive": 6076,
      "rupt": 6077,
      "hundreds": 6078,
      "crunchy": 6079,
      "slimy": 6080,
      "conquered": 6081,
      "astronaut": 6082,
      "jordan": 6083,
      "enemies": 6084,
      "desire": 6085,
      "cooperate": 6086,
      "consequences": 6087,
      "hopscot": 6088,
      "frantically": 6089,
      "bly": 6090,
      "cd": 6091,
      "cca": 6092,
      "clip": 6093,
      "die": 6094,
      "fist": 6095,
      "gic": 6096,
      "gary": 6097,
      "han": 6098,
      "hana": 6099,
      "kat": 6100,
      "nad": 6101,
      "shave": 6102,
      "tis": 6103,
      "vas": 6104,
      "xop": 6105,
      "ins": 6106,
      "reunited": 6107,
      "hael": 6108,
      "waded": 6109,
      "onge": 6110,
      "enced": 6111,
      "encounter": 6112,
      "isies": 6113,
      "ergic": 6114,
      "saxop": 6115,
      "wasted": 6116,
      "stan": 6117,
      "stroll": 6118,
      "becca": 6119,
      "seven": 6120,
      "owly": 6121,
      "lighter": 6122,
      "maid": 6123,
      "maisy": 6124,
      "among": 6125,
      "loos": 6126,
      "thud": 6127,
      "chin": 6128,
      "allergic": 6129,
      "roses": 6130,
      "shrank": 6131,
      "rad": 6132,
      "raising": 6133,
      "sponge": 6134,
      "sured": 6135,
      "tapping": 6136,
      "carri": 6137,
      "carries": 6138,
      "whether": 6139,
      "cosy": 6140,
      "budge": 6141,
      "peas": 6142,
      "shall": 6143,
      "shaped": 6144,
      "grumbled": 6145,
      "ability": 6146,
      "packs": 6147,
      "foam": 6148,
      "ievous": 6149,
      "eats": 6150,
      "sadder": 6151,
      "elsa": 6152,
      "lowest": 6153,
      "swirl": 6154,
      "flyer": 6155,
      "bert": 6156,
      "fleas": 6157,
      "talent": 6158,
      "intent": 6159,
      "cleaner": 6160,
      "dancers": 6161,
      "coloured": 6162,
      "gardeners": 6163,
      "windmill": 6164,
      "sation": 6165,
      "floppy": 6166,
      "flossy": 6167,
      "patches": 6168,
      "visible": 6169,
      "grandfather": 6170,
      "dances": 6171,
      "accompl": 6172,
      "jackie": 6173,
      "farmers": 6174,
      "daisies": 6175,
      "creams": 6176,
      "growl": 6177,
      "dining": 6178,
      "starfish": 6179,
      "rotting": 6180,
      "bathing": 6181,
      "purpose": 6182,
      "scor": 6183,
      "wrapping": 6184,
      "eagerness": 6185,
      "journeys": 6186,
      "crabs": 6187,
      "sprays": 6188,
      "cert": 6189,
      "spoonful": 6190,
      "respected": 6191,
      "reminding": 6192,
      "forming": 6193,
      "craig": 6194,
      "chirped": 6195,
      "laws": 6196,
      "brian": 6197,
      "whispers": 6198,
      "brushing": 6199,
      "itchy": 6200,
      "taps": 6201,
      "examining": 6202,
      "spaces": 6203,
      "melons": 6204,
      "cubes": 6205,
      "usually": 6206,
      "surrendering": 6207,
      "michael": 6208,
      "relief": 6209,
      "unpacking": 6210,
      "peeky": 6211,
      "weekend": 6212,
      "slips": 6213,
      "ignoring": 6214,
      "wipes": 6215,
      "alligators": 6216,
      "terrified": 6217,
      "cuddly": 6218,
      "suffered": 6219,
      "ginger": 6220,
      "ghosts": 6221,
      "suffering": 6222,
      "uniforms": 6223,
      "tuesdays": 6224,
      "bothered": 6225,
      "surroundings": 6226,
      "puppies": 6227,
      "wobbling": 6228,
      "opportunities": 6229,
      "franky": 6230,
      "sensation": 6231,
      "puppets": 6232,
      "property": 6233,
      "reversing": 6234,
      "garbage": 6235,
      "scribbly": 6236,
      "scribbled": 6237,
      "wooly": 6238,
      "chuckled": 6239,
      "rustling": 6240,
      "nightmare": 6241,
      "classm": 6242,
      "instincts": 6243,
      "designing": 6244,
      "granny": 6245,
      "mischievous": 6246,
      "scientists": 6247,
      "scribble": 6248,
      "hopscotch": 6249,
      "tissue": 6250,
      "saxophone": 6251,
      "loosen": 6252,
      "ald": 6253,
      "cly": 6254,
      "dim": 6255,
      "fli": 6256,
      "fame": 6257,
      "glee": 6258,
      "jars": 6259,
      "jason": 6260,
      "mow": 6261,
      "mend": 6262,
      "poun": 6263,
      "pout": 6264,
      "rr": 6265,
      "ram": 6266,
      "ridge": 6267,
      "sno": 6268,
      "south": 6269,
      "ts": 6270,
      "tus": 6271,
      "yan": 6272,
      "yote": 6273,
      "anno": 6274,
      "anda": 6275,
      "insp": 6276,
      "intri": 6277,
      "invisible": 6278,
      "iti": 6279,
      "waking": 6280,
      "ening": 6281,
      "err": 6282,
      "sale": 6283,
      "pluck": 6284,
      "riff": 6285,
      "sem": 6286,
      "owen": 6287,
      "attempted": 6288,
      "lict": 6289,
      "playhouse": 6290,
      "sheriff": 6291,
      "mash": 6292,
      "hates": 6293,
      "hatched": 6294,
      "amanda": 6295,
      "nellie": 6296,
      "sore": 6297,
      "ppear": 6298,
      "chug": 6299,
      "chunk": 6300,
      "chris": 6301,
      "deed": 6302,
      "deck": 6303,
      "deserve": 6304,
      "aside": 6305,
      "assem": 6306,
      "allie": 6307,
      "adjust": 6308,
      "ryan": 6309,
      "spoken": 6310,
      "suck": 6311,
      "carve": 6312,
      "meg": 6313,
      "cathy": 6314,
      "declared": 6315,
      "canvas": 6316,
      "ranced": 6317,
      "coyote": 6318,
      "lucas": 6319,
      "fade": 6320,
      "parking": 6321,
      "cheat": 6322,
      "cheers": 6323,
      "ishy": 6324,
      "moist": 6325,
      "bless": 6326,
      "reads": 6327,
      "pered": 6328,
      "inkled": 6329,
      "handsome": 6330,
      "inting": 6331,
      "fins": 6332,
      "ilda": 6333,
      "chases": 6334,
      "charac": 6335,
      "squishy": 6336,
      "members": 6337,
      "reappear": 6338,
      "parted": 6339,
      "gerald": 6340,
      "enjoyable": 6341,
      "froze": 6342,
      "grabbing": 6343,
      "warmer": 6344,
      "dollar": 6345,
      "grandad": 6346,
      "landing": 6347,
      "wrinkled": 6348,
      "gued": 6349,
      "lightly": 6350,
      "droop": 6351,
      "wins": 6352,
      "mister": 6353,
      "swap": 6354,
      "presses": 6355,
      "hearing": 6356,
      "dinah": 6357,
      "julia": 6358,
      "dience": 6359,
      "flora": 6360,
      "belongings": 6361,
      "covers": 6362,
      "covering": 6363,
      "lifts": 6364,
      "treating": 6365,
      "quieter": 6366,
      "scur": 6367,
      "scram": 6368,
      "addition": 6369,
      "tasting": 6370,
      "folding": 6371,
      "piggy": 6372,
      "bbling": 6373,
      "calmed": 6374,
      "certain": 6375,
      "cork": 6376,
      "sparky": 6377,
      "puzzled": 6378,
      "whipped": 6379,
      "reminds": 6380,
      "striped": 6381,
      "hugo": 6382,
      "critter": 6383,
      "bellies": 6384,
      "squee": 6385,
      "edges": 6386,
      "politely": 6387,
      "isabella": 6388,
      "banner": 6389,
      "borrowed": 6390,
      "chicky": 6391,
      "destroying": 6392,
      "bracelets": 6393,
      "vanilla": 6394,
      "collars": 6395,
      "supported": 6396,
      "diamonds": 6397,
      "looping": 6398,
      "mints": 6399,
      "necklaces": 6400,
      "peeks": 6401,
      "flashlights": 6402,
      "discoveries": 6403,
      "repeating": 6404,
      "seals": 6405,
      "microwave": 6406,
      "friendships": 6407,
      "sneaks": 6408,
      "audience": 6409,
      "spades": 6410,
      "campsite": 6411,
      "click": 6412,
      "increased": 6413,
      "twirls": 6414,
      "screwdriver": 6415,
      "strips": 6416,
      "tweetie": 6417,
      "rhys": 6418,
      "expecting": 6419,
      "burnt": 6420,
      "sailors": 6421,
      "pilots": 6422,
      "basement": 6423,
      "temptation": 6424,
      "davey": 6425,
      "twinkling": 6426,
      "honking": 6427,
      "differences": 6428,
      "fluttered": 6429,
      "results": 6430,
      "conflict": 6431,
      "munched": 6432,
      "wounds": 6433,
      "flavor": 6434,
      "nightmares": 6435,
      "weeds": 6436,
      "squealed": 6437,
      "heaven": 6438,
      "sneezing": 6439,
      "yummiest": 6440,
      "desperate": 6441,
      "foreshadowed": 6442,
      "magnifying": 6443,
      "sweaters": 6444,
      "nadine": 6445,
      "clyde": 6446,
      "tusks": 6447,
      "yanked": 6448,
      "inspired": 6449,
      "intrigued": 6450,
      "chunks": 6451,
      "character": 6452,
      "aim": 6453,
      "aut": 6454,
      "aimed": 6455,
      "bbit": 6456,
      "ciest": 6457,
      "damp": 6458,
      "dora": 6459,
      "eva": 6460,
      "gon": 6461,
      "gina": 6462,
      "hmm": 6463,
      "ienced": 6464,
      "jing": 6465,
      "joking": 6466,
      "lina": 6467,
      "mur": 6468,
      "mara": 6469,
      "nan": 6470,
      "nine": 6471,
      "oval": 6472,
      "pom": 6473,
      "pry": 6474,
      "pranced": 6475,
      "rink": 6476,
      "ronnie": 6477,
      "shat": 6478,
      "twent": 6479,
      "tart": 6480,
      "tuck": 6481,
      "troll": 6482,
      "tions": 6483,
      "uff": 6484,
      "uded": 6485,
      "wid": 6486,
      "wider": 6487,
      "zone": 6488,
      "inet": 6489,
      "invent": 6490,
      "itude": 6491,
      "refre": 6492,
      "ensure": 6493,
      "iss": 6494,
      "erup": 6495,
      "stump": 6496,
      "begun": 6497,
      "ory": 6498,
      "plus": 6499,
      "sever": 6500,
      "witness": 6501,
      "ative": 6502,
      "attit": 6503,
      "lodged": 6504,
      "nect": 6505,
      "thorn": 6506,
      "baa": 6507,
      "chilly": 6508,
      "notes": 6509,
      "deser": 6510,
      "bop": 6511,
      "roam": 6512,
      "roars": 6513,
      "cafe": 6514,
      "backpacks": 6515,
      "odd": 6516,
      "coach": 6517,
      "colla": 6518,
      "oping": 6519,
      "options": 6520,
      "shack": 6521,
      "fact": 6522,
      "milo": 6523,
      "noah": 6524,
      "cled": 6525,
      "mold": 6526,
      "mood": 6527,
      "sunk": 6528,
      "venir": 6529,
      "tyler": 6530,
      "persu": 6531,
      "bers": 6532,
      "bride": 6533,
      "fiona": 6534,
      "intment": 6535,
      "creamy": 6536,
      "squished": 6537,
      "squinted": 6538,
      "colony": 6539,
      "hugging": 6540,
      "closest": 6541,
      "braced": 6542,
      "anger": 6543,
      "yeah": 6544,
      "stem": 6545,
      "stew": 6546,
      "continuing": 6547,
      "patty": 6548,
      "movements": 6549,
      "marvel": 6550,
      "marian": 6551,
      "monica": 6552,
      "cutter": 6553,
      "matty": 6554,
      "matilda": 6555,
      "guiding": 6556,
      "drant": 6557,
      "grows": 6558,
      "nightstand": 6559,
      "embraced": 6560,
      "swallow": 6561,
      "signed": 6562,
      "prefer": 6563,
      "gentlen": 6564,
      "barry": 6565,
      "barrow": 6566,
      "judy": 6567,
      "tongues": 6568,
      "minding": 6569,
      "spins": 6570,
      "returning": 6571,
      "planting": 6572,
      "stephan": 6573,
      "cowboy": 6574,
      "clothing": 6575,
      "action": 6576,
      "noses": 6577,
      "teapot": 6578,
      "glide": 6579,
      "glided": 6580,
      "gliding": 6581,
      "allows": 6582,
      "tents": 6583,
      "drags": 6584,
      "wheelbarrow": 6585,
      "circled": 6586,
      "mermaid": 6587,
      "attaching": 6588,
      "kissing": 6589,
      "thinner": 6590,
      "imagin": 6591,
      "tidying": 6592,
      "drumby": 6593,
      "maps": 6594,
      "mira": 6595,
      "stacking": 6596,
      "performers": 6597,
      "cleared": 6598,
      "chances": 6599,
      "barky": 6600,
      "priest": 6601,
      "prizes": 6602,
      "painful": 6603,
      "postcard": 6604,
      "separating": 6605,
      "sharks": 6606,
      "curls": 6607,
      "flashing": 6608,
      "weighing": 6609,
      "mousy": 6610,
      "quarreling": 6611,
      "discussed": 6612,
      "messed": 6613,
      "parrots": 6614,
      "emilia": 6615,
      "packages": 6616,
      "vibr": 6617,
      "aeroplanes": 6618,
      "complained": 6619,
      "darling": 6620,
      "auto": 6621,
      "calendars": 6622,
      "disappointment": 6623,
      "spells": 6624,
      "ironed": 6625,
      "ironment": 6626,
      "forts": 6627,
      "environment": 6628,
      "attracted": 6629,
      "rewarded": 6630,
      "condition": 6631,
      "snuggle": 6632,
      "lectures": 6633,
      "shovels": 6634,
      "musicians": 6635,
      "experienced": 6636,
      "bloss": 6637,
      "student": 6638,
      "choices": 6639,
      "applauded": 6640,
      "guessing": 6641,
      "receipt": 6642,
      "glittering": 6643,
      "connect": 6644,
      "blushed": 6645,
      "instant": 6646,
      "gratitude": 6647,
      "seasons": 6648,
      "clarinet": 6649,
      "smiths": 6650,
      "hydrant": 6651,
      "jaya": 6652,
      "distracted": 6653,
      "reassure": 6654,
      "attempts": 6655,
      "salon": 6656,
      "salute": 6657,
      "softest": 6658,
      "raccoon": 6659,
      "pleasant": 6660,
      "travelling": 6661,
      "stitches": 6662,
      "defeat": 6663,
      "souvenir": 6664,
      "satisfied": 6665,
      "rectangle": 6666,
      "astronauts": 6667,
      "katie": 6668,
      "accomplish": 6669,
      "classmates": 6670,
      "mower": 6671,
      "snooping": 6672,
      "annoying": 6673,
      "gonna": 6674,
      "nancy": 6675,
      "twenty": 6676,
      "refreshed": 6677,
      "attitude": 6678,
      "nectar": 6679,
      "collap": 6680,
      "gentleness": 6681,
      "stephanie": 6682,
      "bou": 6683,
      "blet": 6684,
      "bish": 6685,
      "bours": 6686,
      "cie": 6687,
      "cure": 6688,
      "clue": 6689,
      "center": 6690,
      "fal": 6691,
      "glo": 6692,
      "hh": 6693,
      "hanna": 6694,
      "hip": 6695,
      "jas": 6696,
      "lish": 6697,
      "lcon": 6698,
      "mitt": 6699,
      "slo": 6700,
      "scan": 6701,
      "smashed": 6702,
      "smash": 6703,
      "tam": 6704,
      "uh": 6705,
      "wri": 6706,
      "whel": 6707,
      "toward": 6708,
      "inier": 6709,
      "resolve": 6710,
      "wary": 6711,
      "wader": 6712,
      "waddled": 6713,
      "lever": 6714,
      "level": 6715,
      "lleng": 6716,
      "bellow": 6717,
      "pled": 6718,
      "plat": 6719,
      "ribbit": 6720,
      "sewing": 6721,
      "kels": 6722,
      "lilli": 6723,
      "mabel": 6724,
      "nell": 6725,
      "nemo": 6726,
      "uniting": 6727,
      "based": 6728,
      "balcon": 6729,
      "chief": 6730,
      "wee": 6731,
      "deal": 6732,
      "boil": 6733,
      "role": 6734,
      "shimmering": 6735,
      "shinier": 6736,
      "outing": 6737,
      "capt": 6738,
      "address": 6739,
      "sprang": 6740,
      "backs": 6741,
      "backwards": 6742,
      "tales": 6743,
      "tabby": 6744,
      "tablet": 6745,
      "carol": 6746,
      "mest": 6747,
      "oded": 6748,
      "fuser": 6749,
      "fuming": 6750,
      "ilar": 6751,
      "ilities": 6752,
      "baller": 6753,
      "coby": 6754,
      "cocked": 6755,
      "bud": 6756,
      "bully": 6757,
      "manny": 6758,
      "peggy": 6759,
      "lur": 6760,
      "except": 6761,
      "shaving": 6762,
      "fare": 6763,
      "failed": 6764,
      "parks": 6765,
      "paste": 6766,
      "paired": 6767,
      "goodies": 6768,
      "cheated": 6769,
      "mika": 6770,
      "ruled": 6771,
      "quet": 6772,
      "lten": 6773,
      "clung": 6774,
      "thanking": 6775,
      "boxy": 6776,
      "daddies": 6777,
      "moons": 6778,
      "molten": 6779,
      "leapt": 6780,
      "lotte": 6781,
      "handled": 6782,
      "overheard": 6783,
      "overwhel": 6784,
      "skies": 6785,
      "compare": 6786,
      "challeng": 6787,
      "squaw": 6788,
      "squiggle": 6789,
      "stores": 6790,
      "confron": 6791,
      "promising": 6792,
      "stray": 6793,
      "exploded": 6794,
      "relate": 6795,
      "sleeps": 6796,
      "sooner": 6797,
      "floors": 6798,
      "diffuser": 6799,
      "races": 6800,
      "zzle": 6801,
      "daily": 6802,
      "blocked": 6803,
      "blocking": 6804,
      "roller": 6805,
      "growling": 6806,
      "brightness": 6807,
      "signal": 6808,
      "hire": 6809,
      "sweating": 6810,
      "studio": 6811,
      "janey": 6812,
      "dial": 6813,
      "dryer": 6814,
      "secretly": 6815,
      "secretive": 6816,
      "proving": 6817,
      "marker": 6818,
      "smears": 6819,
      "spinach": 6820,
      "spinny": 6821,
      "pesky": 6822,
      "rubbish": 6823,
      "heavier": 6824,
      "blast": 6825,
      "seaweed": 6826,
      "splish": 6827,
      "splitting": 6828,
      "sonny": 6829,
      "eleven": 6830,
      "attacked": 6831,
      "vases": 6832,
      "sacky": 6833,
      "warmest": 6834,
      "glory": 6835,
      "decoration": 6836,
      "neighbours": 6837,
      "crater": 6838,
      "rats": 6839,
      "smokey": 6840,
      "blinking": 6841,
      "bliss": 6842,
      "gesture": 6843,
      "celebrating": 6844,
      "sneaking": 6845,
      "sends": 6846,
      "tidied": 6847,
      "praise": 6848,
      "shrine": 6849,
      "courageous": 6850,
      "shooting": 6851,
      "snor": 6852,
      "relaxing": 6853,
      "example": 6854,
      "examined": 6855,
      "sports": 6856,
      "breathing": 6857,
      "gracie": 6858,
      "oaty": 6859,
      "porridge": 6860,
      "mattresses": 6861,
      "barnacles": 6862,
      "displays": 6863,
      "nervously": 6864,
      "checking": 6865,
      "checkout": 6866,
      "rooftops": 6867,
      "belts": 6868,
      "hoops": 6869,
      "separated": 6870,
      "weighs": 6871,
      "passports": 6872,
      "streaming": 6873,
      "osite": 6874,
      "lizards": 6875,
      "meadows": 6876,
      "quarreled": 6877,
      "mesmer": 6878,
      "spilling": 6879,
      "doves": 6880,
      "threads": 6881,
      "clubs": 6882,
      "clubhouse": 6883,
      "cupboards": 6884,
      "vendors": 6885,
      "barrels": 6886,
      "trophies": 6887,
      "moderation": 6888,
      "sniffing": 6889,
      "apology": 6890,
      "beeps": 6891,
      "beeped": 6892,
      "helicopters": 6893,
      "fantastic": 6894,
      "wednesdays": 6895,
      "cuddles": 6896,
      "delayed": 6897,
      "blinky": 6898,
      "shorts": 6899,
      "hunger": 6900,
      "carlton": 6901,
      "burns": 6902,
      "snuggles": 6903,
      "crowded": 6904,
      "charlotte": 6905,
      "fetching": 6906,
      "tempting": 6907,
      "officers": 6908,
      "robbers": 6909,
      "hallway": 6910,
      "neatness": 6911,
      "countryside": 6912,
      "solving": 6913,
      "quacked": 6914,
      "flaps": 6915,
      "lungs": 6916,
      "effect": 6917,
      "mechanics": 6918,
      "tickles": 6919,
      "banging": 6920,
      "beats": 6921,
      "opposite": 6922,
      "winks": 6923,
      "whistler": 6924,
      "gluing": 6925,
      "chatting": 6926,
      "achieved": 6927,
      "nearer": 6928,
      "instantly": 6929,
      "hambur": 6930,
      "coolest": 6931,
      "woolly": 6932,
      "rustled": 6933,
      "steering": 6934,
      "confidently": 6935,
      "erasing": 6936,
      "distractions": 6937,
      "reassured": 6938,
      "particularly": 6939,
      "centre": 6940,
      "softer": 6941,
      "details": 6942,
      "boasted": 6943,
      "raccoons": 6944,
      "travelled": 6945,
      "doug": 6946,
      "wiggling": 6947,
      "dentist": 6948,
      "ducklings": 6949,
      "sternly": 6950,
      "nuzz": 6951,
      "throat": 6952,
      "thumped": 6953,
      "bustling": 6954,
      "preparing": 6955,
      "assembly": 6956,
      "adjusting": 6957,
      "moisten": 6958,
      "droopy": 6959,
      "characters": 6960,
      "shattered": 6961,
      "several": 6962,
      "accomplishment": 6963,
      "bouquet": 6964,
      "false": 6965,
      "globe": 6966,
      "hannah": 6967,
      "jasmine": 6968,
      "slopes": 6969,
      "tambour": 6970,
      "wrigg": 6971,
      "waders": 6972,
      "platform": 6973,
      "kelsie": 6974,
      "balcony": 6975,
      "overwhelmed": 6976,
      "challenging": 6977,
      "confronted": 6978,
      "ashes": 6979,
      "atops": 6980,
      "bba": 6981,
      "bending": 6982,
      "ctri": 6983,
      "cine": 6984,
      "dually": 6985,
      "efly": 6986,
      "echo": 6987,
      "etern": 6988,
      "ghed": 6989,
      "ib": 6990,
      "ili": 6991,
      "jes": 6992,
      "juni": 6993,
      "jones": 6994,
      "kg": 6995,
      "kir": 6996,
      "kurt": 6997,
      "mate": 6998,
      "osh": 6999,
      "pon": 7000,
      "ron": 7001,
      "randy": 7002,
      "rumbled": 7003,
      "sched": 7004,
      "slightly": 7005,
      "twel": 7006,
      "ules": 7007,
      "uity": 7008,
      "vin": 7009,
      "vor": 7010,
      "wk": 7011,
      "wend": 7012,
      "whim": 7013,
      "wist": 7014,
      "wiggled": 7015,
      "zel": 7016,
      "aned": 7017,
      "eded": 7018,
      "andon": 7019,
      "inches": 7020,
      "itz": 7021,
      "habit": 7022,
      "hawk": 7023,
      "hazel": 7024,
      "onward": 7025,
      "ene": 7026,
      "enclo": 7027,
      "enuity": 7028,
      "isbee": 7029,
      "isins": 7030,
      "arked": 7031,
      "army": 7032,
      "argum": 7033,
      "eric": 7034,
      "levi": 7035,
      "ingenuity": 7036,
      "iment": 7037,
      "bead": 7038,
      "plot": 7039,
      "irk": 7040,
      "sess": 7041,
      "kevin": 7042,
      "witches": 7043,
      "attered": 7044,
      "attend": 7045,
      "liar": 7046,
      "lipp": 7047,
      "lige": 7048,
      "liqu": 7049,
      "madis": 7050,
      "ambit": 7051,
      "ampered": 7052,
      "loser": 7053,
      "nelly": 7054,
      "unlike": 7055,
      "unless": 7056,
      "unfair": 7057,
      "undone": 7058,
      "unselfish": 7059,
      "unload": 7060,
      "unfreeze": 7061,
      "unfami": 7062,
      "soda": 7063,
      "sofas": 7064,
      "chup": 7065,
      "friendliness": 7066,
      "formed": 7067,
      "doom": 7068,
      "dodged": 7069,
      "ceeded": 7070,
      "bolt": 7071,
      "asho": 7072,
      "roly": 7073,
      "ropes": 7074,
      "onest": 7075,
      "outcome": 7076,
      "rack": 7077,
      "raisins": 7078,
      "causing": 7079,
      "aded": 7080,
      "addy": 7081,
      "sparked": 7082,
      "sued": 7083,
      "suction": 7084,
      "littles": 7085,
      "ghurt": 7086,
      "tage": 7087,
      "terror": 7088,
      "camel": 7089,
      "tricer": 7090,
      "illness": 7091,
      "deciding": 7092,
      "ilted": 7093,
      "otherwise": 7094,
      "cock": 7095,
      "coaster": 7096,
      "bubba": 7097,
      "owns": 7098,
      "icic": 7099,
      "getic": 7100,
      "lush": 7101,
      "whoosh": 7102,
      "excell": 7103,
      "abrupt": 7104,
      "abandon": 7105,
      "howl": 7106,
      "chea": 7107,
      "checks": 7108,
      "nosed": 7109,
      "cares": 7110,
      "joan": 7111,
      "printy": 7112,
      "lture": 7113,
      "classes": 7114,
      "mopping": 7115,
      "sung": 7116,
      "jumper": 7117,
      "whom": 7118,
      "whir": 7119,
      "bedtime": 7120,
      "cyril": 7121,
      "popping": 7122,
      "pooped": 7123,
      "pers": 7124,
      "smirk": 7125,
      "brrr": 7126,
      "flesh": 7127,
      "oldest": 7128,
      "offers": 7129,
      "handmade": 7130,
      "handles": 7131,
      "overtake": 7132,
      "grounds": 7133,
      "ketchup": 7134,
      "rench": 7135,
      "untangle": 7136,
      "untwist": 7137,
      "fishbowl": 7138,
      "common": 7139,
      "compan": 7140,
      "concert": 7141,
      "serv": 7142,
      "sery": 7143,
      "doorbell": 7144,
      "react": 7145,
      "culture": 7146,
      "windy": 7147,
      "beast": 7148,
      "workshop": 7149,
      "flock": 7150,
      "sets": 7151,
      "relent": 7152,
      "thrown": 7153,
      "coloring": 7154,
      "single": 7155,
      "marla": 7156,
      "grandchildren": 7157,
      "ponds": 7158,
      "access": 7159,
      "adventurer": 7160,
      "mature": 7161,
      "guppy": 7162,
      "swimmer": 7163,
      "swimsuits": 7164,
      "dripped": 7165,
      "dribble": 7166,
      "ringy": 7167,
      "rollie": 7168,
      "winked": 7169,
      "winners": 7170,
      "misses": 7171,
      "quicker": 7172,
      "brightest": 7173,
      "precaut": 7174,
      "slowing": 7175,
      "fills": 7176,
      "wither": 7177,
      "coughed": 7178,
      "dina": 7179,
      "worrying": 7180,
      "evergreen": 7181,
      "snowed": 7182,
      "cupcake": 7183,
      "cupcakes": 7184,
      "fritz": 7185,
      "frisbee": 7186,
      "diag": 7187,
      "drying": 7188,
      "invol": 7189,
      "fruitcake": 7190,
      "tightrope": 7191,
      "blank": 7192,
      "minds": 7193,
      "driveway": 7194,
      "layed": 7195,
      "proceeded": 7196,
      "larger": 7197,
      "scrubbing": 7198,
      "scampered": 7199,
      "blade": 7200,
      "whiteboard": 7201,
      "apply": 7202,
      "april": 7203,
      "seahorse": 7204,
      "lesley": 7205,
      "mailing": 7206,
      "electri": 7207,
      "finishing": 7208,
      "cloths": 7209,
      "bbled": 7210,
      "parlor": 7211,
      "basked": 7212,
      "baskets": 7213,
      "business": 7214,
      "obsta": 7215,
      "oblige": 7216,
      "glimmer": 7217,
      "spoilt": 7218,
      "corrid": 7219,
      "allowance": 7220,
      "dishonest": 7221,
      "tentacles": 7222,
      "eggshell": 7223,
      "moonlight": 7224,
      "numbered": 7225,
      "glowbug": 7226,
      "orders": 7227,
      "huddled": 7228,
      "beaks": 7229,
      "yoghurt": 7230,
      "tests": 7231,
      "briefly": 7232,
      "jetty": 7233,
      "touches": 7234,
      "queeny": 7235,
      "auntie": 7236,
      "blows": 7237,
      "springtime": 7238,
      "origami": 7239,
      "barkley": 7240,
      "gradually": 7241,
      "floaty": 7242,
      "hopeful": 7243,
      "postman": 7244,
      "bicycles": 7245,
      "affes": 7246,
      "flagpole": 7247,
      "shutting": 7248,
      "massa": 7249,
      "kayla": 7250,
      "mickey": 7251,
      "clowns": 7252,
      "cartwheels": 7253,
      "spirits": 7254,
      "discussing": 7255,
      "nursery": 7256,
      "magazines": 7257,
      "beanstalk": 7258,
      "accidents": 7259,
      "parades": 7260,
      "snaps": 7261,
      "anxiously": 7262,
      "handlebars": 7263,
      "awoken": 7264,
      "notices": 7265,
      "veterinarians": 7266,
      "recommendations": 7267,
      "loudest": 7268,
      "energetic": 7269,
      "recognizing": 7270,
      "henny": 7271,
      "giraffes": 7272,
      "frowning": 7273,
      "racers": 7274,
      "imaginations": 7275,
      "skirts": 7276,
      "haircuts": 7277,
      "paddling": 7278,
      "risk": 7279,
      "bingo": 7280,
      "chips": 7281,
      "customers": 7282,
      "challenges": 7283,
      "honked": 7284,
      "honks": 7285,
      "hesitantly": 7286,
      "bruise": 7287,
      "wizards": 7288,
      "internet": 7289,
      "interrupt": 7290,
      "niece": 7291,
      "yumi": 7292,
      "cottage": 7293,
      "newsboy": 7294,
      "villain": 7295,
      "sighs": 7296,
      "awesome": 7297,
      "granted": 7298,
      "wrists": 7299,
      "feasting": 7300,
      "expression": 7301,
      "nicky": 7302,
      "pads": 7303,
      "plugged": 7304,
      "escaping": 7305,
      "scrape": 7306,
      "position": 7307,
      "swayed": 7308,
      "hooves": 7309,
      "announce": 7310,
      "announced": 7311,
      "announcing": 7312,
      "masterpiece": 7313,
      "unfolding": 7314,
      "clasp": 7315,
      "doub": 7316,
      "jonas": 7317,
      "arrange": 7318,
      "stitched": 7319,
      "defeated": 7320,
      "jeans": 7321,
      "ential": 7322,
      "entirely": 7323,
      "disobeyed": 7324,
      "responded": 7325,
      "encountered": 7326,
      "carrier": 7327,
      "intention": 7328,
      "scoring": 7329,
      "gleefully": 7330,
      "pounced": 7331,
      "errand": 7332,
      "scrambled": 7333,
      "heavens": 7334,
      "jingle": 7335,
      "widened": 7336,
      "blossom": 7337,
      "scanned": 7338,
      "caroline": 7339,
      "squawk": 7340,
      "blissfully": 7341,
      "effects": 7342,
      "wriggled": 7343,
      "cinema": 7344,
      "echoed": 7345,
      "junior": 7346,
      "kira": 7347,
      "matey": 7348,
      "ponies": 7349,
      "schedules": 7350,
      "twelve": 7351,
      "wendy": 7352,
      "enclosure": 7353,
      "argument": 7354,
      "liquid": 7355,
      "madison": 7356,
      "unfamiliar": 7357,
      "bolts": 7358,
      "ashore": 7359,
      "triceratops": 7360,
      "icicles": 7361,
      "excellent": 7362,
      "companion": 7363,
      "cultures": 7364,
      "precautions": 7365,
      "diagnosed": 7366,
      "applying": 7367,
      "corridors": 7368,
      "awaits": 7369,
      "bound": 7370,
      "born": 7371,
      "bitten": 7372,
      "bison": 7373,
      "core": 7374,
      "dice": 7375,
      "died": 7376,
      "duce": 7377,
      "ditch": 7378,
      "dging": 7379,
      "dimmer": 7380,
      "eer": 7381,
      "flight": 7382,
      "gs": 7383,
      "gam": 7384,
      "gown": 7385,
      "ggan": 7386,
      "gger": 7387,
      "glistened": 7388,
      "gates": 7389,
      "hour": 7390,
      "hinting": 7391,
      "ipat": 7392,
      "jured": 7393,
      "kill": 7394,
      "kip": 7395,
      "loun": 7396,
      "lind": 7397,
      "linda": 7398,
      "nis": 7399,
      "othe": 7400,
      "pam": 7401,
      "pure": 7402,
      "piled": 7403,
      "rum": 7404,
      "sid": 7405,
      "scut": 7406,
      "sinking": 7407,
      "slur": 7408,
      "tumble": 7409,
      "tammy": 7410,
      "tilted": 7411,
      "wanna": 7412,
      "wrench": 7413,
      "tone": 7414,
      "tobo": 7415,
      "tomas": 7416,
      "thea": 7417,
      "theat": 7418,
      "inas": 7419,
      "inno": 7420,
      "indoors": 7421,
      "initi": 7422,
      "injured": 7423,
      "regard": 7424,
      "reopened": 7425,
      "revi": 7426,
      "refresh": 7427,
      "repaired": 7428,
      "wack": 7429,
      "oni": 7430,
      "ench": 7431,
      "arr": 7432,
      "erced": 7433,
      "lling": 7434,
      "sasha": 7435,
      "state": 7436,
      "stantly": 7437,
      "imate": 7438,
      "orter": 7439,
      "antage": 7440,
      "rift": 7441,
      "rious": 7442,
      "rizz": 7443,
      "riley": 7444,
      "sey": 7445,
      "keling": 7446,
      "ata": 7447,
      "lix": 7448,
      "mascar": 7449,
      "madd": 7450,
      "hatch": 7451,
      "los": 7452,
      "locket": 7453,
      "lobby": 7454,
      "timid": 7455,
      "thie": 7456,
      "thrift": 7457,
      "unde": 7458,
      "uncover": 7459,
      "unzip": 7460,
      "vering": 7461,
      "soothe": 7462,
      "ppies": 7463,
      "alarms": 7464,
      "wept": 7465,
      "geous": 7466,
      "gesing": 7467,
      "dodging": 7468,
      "dev": 7469,
      "dete": 7470,
      "degre": 7471,
      "depart": 7472,
      "deserved": 7473,
      "robert": 7474,
      "shorter": 7475,
      "railing": 7476,
      "adap": 7477,
      "rying": 7478,
      "upside": 7479,
      "fever": 7480,
      "fetti": 7481,
      "felix": 7482,
      "spass": 7483,
      "hoho": 7484,
      "holly": 7485,
      "hovering": 7486,
      "backed": 7487,
      "backstroke": 7488,
      "newly": 7489,
      "tack": 7490,
      "terry": 7491,
      "carlos": 7492,
      "odles": 7493,
      "cated": 7494,
      "trigger": 7495,
      "furious": 7496,
      "trespass": 7497,
      "illum": 7498,
      "ilfully": 7499,
      "illeg": 7500,
      "mystic": 7501,
      "coos": 7502,
      "mango": 7503,
      "fulfilled": 7504,
      "fullest": 7505,
      "peak": 7506,
      "ics": 7507,
      "icon": 7508,
      "lume": 7509,
      "gruff": 7510,
      "abi": 7511,
      "abra": 7512,
      "abilities": 7513,
      "pau": 7514,
      "pace": 7515,
      "pail": 7516,
      "pact": 7517,
      "packet": 7518,
      "goodness": 7519,
      "cheating": 7520,
      "ruction": 7521,
      "noodles": 7522,
      "prison": 7523,
      "eater": 7524,
      "ives": 7525,
      "moby": 7526,
      "sunhat": 7527,
      "sunbeam": 7528,
      "pul": 7529,
      "pussy": 7530,
      "leaped": 7531,
      "runners": 7532,
      "rungs": 7533,
      "napped": 7534,
      "greg": 7535,
      "bedside": 7536,
      "gaining": 7537,
      "polar": 7538,
      "pollen": 7539,
      "poppies": 7540,
      "picky": 7541,
      "keepers": 7542,
      "handing": 7543,
      "climax": 7544,
      "overhead": 7545,
      "skye": 7546,
      "skilfully": 7547,
      "waitress": 7548,
      "suring": 7549,
      "bobbi": 7550,
      "dangling": 7551,
      "comments": 7552,
      "squashes": 7553,
      "thankfully": 7554,
      "constantly": 7555,
      "confetti": 7556,
      "server": 7557,
      "sorrow": 7558,
      "ladies": 7559,
      "toppled": 7560,
      "gardening": 7561,
      "storytelling": 7562,
      "braid": 7563,
      "angus": 7564,
      "angles": 7565,
      "joys": 7566,
      "tablecloth": 7567,
      "ffiti": 7568,
      "annabel": 7569,
      "appears": 7570,
      "gerry": 7571,
      "softened": 7572,
      "continues": 7573,
      "singer": 7574,
      "restimate": 7575,
      "beautifully": 7576,
      "keyholes": 7577,
      "lessly": 7578,
      "builder": 7579,
      "builders": 7580,
      "landfill": 7581,
      "displaying": 7582,
      "discourage": 7583,
      "sandals": 7584,
      "sandcastles": 7585,
      "paintbrush": 7586,
      "farms": 7587,
      "drill": 7588,
      "dale": 7589,
      "firefly": 7590,
      "dropping": 7591,
      "jethro": 7592,
      "winking": 7593,
      "nightgown": 7594,
      "mums": 7595,
      "woodcutter": 7596,
      "owling": 7597,
      "mixes": 7598,
      "janice": 7599,
      "johnson": 7600,
      "rows": 7601,
      "rowing": 7602,
      "liest": 7603,
      "juli": 7604,
      "divide": 7605,
      "fights": 7606,
      "worlds": 7607,
      "darkened": 7608,
      "coating": 7609,
      "volume": 7610,
      "sweetness": 7611,
      "layers": 7612,
      "luckiest": 7613,
      "purred": 7614,
      "purchase": 7615,
      "pierced": 7616,
      "proven": 7617,
      "produ": 7618,
      "produce": 7619,
      "smelt": 7620,
      "potential": 7621,
      "sailboat": 7622,
      "ease": 7623,
      "aptor": 7624,
      "bands": 7625,
      "bandaid": 7626,
      "knit": 7627,
      "knives": 7628,
      "fanciest": 7629,
      "protector": 7630,
      "stringy": 7631,
      "hority": 7632,
      "measures": 7633,
      "zooms": 7634,
      "basking": 7635,
      "basics": 7636,
      "matchbox": 7637,
      "vain": 7638,
      "tennis": 7639,
      "knead": 7640,
      "glimmering": 7641,
      "destruction": 7642,
      "coral": 7643,
      "trusts": 7644,
      "wheeled": 7645,
      "harvest": 7646,
      "harris": 7647,
      "shyly": 7648,
      "smartest": 7649,
      "ciraptor": 7650,
      "suggesing": 7651,
      "ships": 7652,
      "striking": 7653,
      "footing": 7654,
      "forms": 7655,
      "pinata": 7656,
      "zookeepers": 7657,
      "difficulty": 7658,
      "knowingly": 7659,
      "bossiness": 7660,
      "exploration": 7661,
      "blend": 7662,
      "testing": 7663,
      "dragonfly": 7664,
      "tiki": 7665,
      "kindest": 7666,
      "turtles": 7667,
      "leans": 7668,
      "whispering": 7669,
      "pans": 7670,
      "independence": 7671,
      "unlocking": 7672,
      "figuring": 7673,
      "seeker": 7674,
      "pours": 7675,
      "shoreline": 7676,
      "aunts": 7677,
      "logised": 7678,
      "spacecraft": 7679,
      "resili": 7680,
      "mysteries": 7681,
      "melissa": 7682,
      "stubbornness": 7683,
      "chocolates": 7684,
      "breaths": 7685,
      "claps": 7686,
      "scaley": 7687,
      "graffiti": 7688,
      "resisted": 7689,
      "crystals": 7690,
      "vests": 7691,
      "posts": 7692,
      "museums": 7693,
      "salads": 7694,
      "groaned": 7695,
      "nora": 7696,
      "north": 7697,
      "playgrounds": 7698,
      "battle": 7699,
      "magnets": 7700,
      "desks": 7701,
      "lids": 7702,
      "looped": 7703,
      "curl": 7704,
      "cursed": 7705,
      "jeeps": 7706,
      "flashy": 7707,
      "kayaking": 7708,
      "bathrobes": 7709,
      "velociraptor": 7710,
      "loyalty": 7711,
      "aids": 7712,
      "carelessness": 7713,
      "tubes": 7714,
      "fooled": 7715,
      "campers": 7716,
      "advantage": 7717,
      "pinching": 7718,
      "teams": 7719,
      "bulbs": 7720,
      "suggesting": 7721,
      "croaked": 7722,
      "slee": 7723,
      "midnight": 7724,
      "burying": 7725,
      "impatiently": 7726,
      "clicked": 7727,
      "missiles": 7728,
      "crickets": 7729,
      "cells": 7730,
      "commotion": 7731,
      "repairing": 7732,
      "toolbox": 7733,
      "apologised": 7734,
      "tours": 7735,
      "tournament": 7736,
      "enthusiastically": 7737,
      "pistols": 7738,
      "attentive": 7739,
      "beeping": 7740,
      "jailer": 7741,
      "sophia": 7742,
      "salty": 7743,
      "cauliflowers": 7744,
      "brains": 7745,
      "shortcut": 7746,
      "cracking": 7747,
      "crackers": 7748,
      "octo": 7749,
      "occas": 7750,
      "trembled": 7751,
      "models": 7752,
      "snuggly": 7753,
      "strap": 7754,
      "buckles": 7755,
      "sprout": 7756,
      "sprinted": 7757,
      "hooded": 7758,
      "tutoring": 7759,
      "demanding": 7760,
      "pedaling": 7761,
      "experiment": 7762,
      "styles": 7763,
      "ivated": 7764,
      "register": 7765,
      "scores": 7766,
      "dinghy": 7767,
      "experiences": 7768,
      "gorgeous": 7769,
      "regretted": 7770,
      "ificate": 7771,
      "scolds": 7772,
      "introducing": 7773,
      "biking": 7774,
      "hesitate": 7775,
      "bruises": 7776,
      "admiration": 7777,
      "fluttering": 7778,
      "stomping": 7779,
      "resumed": 7780,
      "scoops": 7781,
      "blues": 7782,
      "chatted": 7783,
      "reflected": 7784,
      "broomstick": 7785,
      "choosing": 7786,
      "quacky": 7787,
      "peeped": 7788,
      "munch": 7789,
      "completion": 7790,
      "boomer": 7791,
      "booming": 7792,
      "fascination": 7793,
      "strokes": 7794,
      "raindrop": 7795,
      "nibbled": 7796,
      "chuckle": 7797,
      "crafted": 7798,
      "suzanne": 7799,
      "behaviour": 7800,
      "duke": 7801,
      "duffle": 7802,
      "hooed": 7803,
      "purrs": 7804,
      "lori": 7805,
      "anticipat": 7806,
      "forces": 7807,
      "attacking": 7808,
      "jonny": 7809,
      "heave": 7810,
      "arranged": 7811,
      "amicable": 7812,
      "longingly": 7813,
      "sneezes": 7814,
      "yummier": 7815,
      "nibbles": 7816,
      "soul": 7817,
      "beavers": 7818,
      "considerate": 7819,
      "dumps": 7820,
      "nudge": 7821,
      "sillier": 7822,
      "busted": 7823,
      "months": 7824,
      "fluffiest": 7825,
      "preparation": 7826,
      "carriers": 7827,
      "intently": 7828,
      "scored": 7829,
      "certificate": 7830,
      "flipped": 7831,
      "pouted": 7832,
      "scurried": 7833,
      "scurrying": 7834,
      "certainly": 7835,
      "squeezes": 7836,
      "authority": 7837,
      "murky": 7838,
      "thorns": 7839,
      "desert": 7840,
      "persuaded": 7841,
      "preferred": 7842,
      "souvenirs": 7843,
      "collapsed": 7844,
      "hips": 7845,
      "mitts": 7846,
      "captivated": 7847,
      "ballerinas": 7848,
      "shavings": 7849,
      "strayed": 7850,
      "snorkeling": 7851,
      "hamburgers": 7852,
      "tambourines": 7853,
      "jesse": 7854,
      "enemy": 7855,
      "beads": 7856,
      "ambitious": 7857,
      "cockpit": 7858,
      "whooshing": 7859,
      "abandoned": 7860,
      "whirr": 7861,
      "servant": 7862,
      "obstacles": 7863,
      "doubts": 7864,
      "gamily": 7865,
      "lindsey": 7866,
      "siddy": 7867,
      "scuttled": 7868,
      "slurping": 7869,
      "toboggan": 7870,
      "theatre": 7871,
      "innocent": 7872,
      "initial": 7873,
      "regardless": 7874,
      "revived": 7875,
      "refreshing": 7876,
      "wacky": 7877,
      "mascara": 7878,
      "maddie": 7879,
      "thieves": 7880,
      "underestimate": 7881,
      "detective": 7882,
      "degree": 7883,
      "department": 7884,
      "railings": 7885,
      "adaptable": 7886,
      "illuminated": 7887,
      "illegal": 7888,
      "mystical": 7889,
      "pussycat": 7890,
      "harrison": 7891,
      "resilient": 7892,
      "anticipation": 7893,
      "2kg": 7894,
      "bon": 7895,
      "bould": 7896,
      "brun": 7897,
      "blower": 7898,
      "cin": 7899,
      "cru": 7900,
      "cally": 7901,
      "cumber": 7902,
      "crush": 7903,
      "dv": 7904,
      "dled": 7905,
      "dign": 7906,
      "dling": 7907,
      "dents": 7908,
      "ebo": 7909,
      "efit": 7910,
      "fond": 7911,
      "gw": 7912,
      "gut": 7913,
      "gall": 7914,
      "gross": 7915,
      "glance": 7916,
      "glared": 7917,
      "grizz": 7918,
      "ior": 7919,
      "icate": 7920,
      "ires": 7921,
      "iply": 7922,
      "ibly": 7923,
      "ipul": 7924,
      "kale": 7925,
      "leng": 7926,
      "ms": 7927,
      "mot": 7928,
      "mound": 7929,
      "mmy": 7930,
      "niest": 7931,
      "oop": 7932,
      "olly": 7933,
      "oye": 7934,
      "pb": 7935,
      "pant": 7936,
      "pitter": 7937,
      "pouch": 7938,
      "rised": 7939,
      "rises": 7940,
      "rated": 7941,
      "rinse": 7942,
      "sow": 7943,
      "sitter": 7944,
      "tant": 7945,
      "twit": 7946,
      "tum": 7947,
      "tink": 7948,
      "tending": 7949,
      "uctor": 7950,
      "uary": 7951,
      "vive": 7952,
      "woken": 7953,
      "wicked": 7954,
      "zers": 7955,
      "toug": 7956,
      "topping": 7957,
      "thetic": 7958,
      "anned": 7959,
      "inci": 7960,
      "insepar": 7961,
      "infer": 7962,
      "indeed": 7963,
      "requ": 7964,
      "repla": 7965,
      "reflex": 7966,
      "resolved": 7967,
      "relling": 7968,
      "haven": 7969,
      "halves": 7970,
      "hamm": 7971,
      "wadd": 7972,
      "onse": 7973,
      "ens": 7974,
      "enses": 7975,
      "enance": 7976,
      "ensued": 7977,
      "isis": 7978,
      "ishes": 7979,
      "arc": 7980,
      "arom": 7981,
      "arrr": 7982,
      "erased": 7983,
      "idance": 7984,
      "sake": 7985,
      "stur": 7986,
      "stile": 7987,
      "stash": 7988,
      "strolls": 7989,
      "befriend": 7990,
      "begging": 7991,
      "pledge": 7992,
      "ploye": 7993,
      "antha": 7994,
      "rick": 7995,
      "ripp": 7996,
      "lda": 7997,
      "mae": 7998,
      "maure": 7999
    },
    "merges": [
      [
        "h",
        "e"
      ],
      [
        "t",
        "o"
      ],
      [
        "t",
        "he"
      ],
      [
        "a",
        "n"
      ],
      [
        "e",
        "d"
      ],
      [
        "an",
        "d"
      ],
      [
        "i",
        "n"
      ],
      [
        "i",
        "t"
      ],
      [
        "r",
        "e"
      ],
      [
        "o",
        "u"
      ],
      [
        "h",
        "a"
      ],
      [
        "w",
        "a"
      ],
      [
        "o",
        "n"
      ],
      [
        "e",
        "n"
      ],
      [
        "i",
        "s"
      ],
      [
        "a",
        "y"
      ],
      [
        "a",
        "r"
      ],
      [
        "e",
        "r"
      ],
      [
        "l",
        "e"
      ],
      [
        "i",
        "d"
      ],
      [
        "in",
        "g"
      ],
      [
        "o",
        "m"
      ],
      [
        "l",
        "l"
      ],
      [
        "s",
        "a"
      ],
      [
        "wa",
        "s"
      ],
      [
        "s",
        "t"
      ],
      [
        "i",
        "m"
      ],
      [
        "b",
        "e"
      ],
      [
        "o",
        "r"
      ],
      [
        "p",
        "l"
      ],
      [
        "h",
        "is"
      ],
      [
        "an",
        "t"
      ],
      [
        "u",
        "t"
      ],
      [
        "i",
        "r"
      ],
      [
        "o",
        "t"
      ],
      [
        "r",
        "i"
      ],
      [
        "he",
        "r"
      ],
      [
        "the",
        "y"
      ],
      [
        "s",
        "e"
      ],
      [
        "o",
        "w"
      ],
      [
        "k",
        "e"
      ],
      [
        "w",
        "it"
      ],
      [
        "a",
        "t"
      ],
      [
        "l",
        "i"
      ],
      [
        "wit",
        "h"
      ],
      [
        "w",
        "ant"
      ],
      [
        "pl",
        "ay"
      ],
      [
        "s",
        "he"
      ],
      [
        "c",
        "k"
      ],
      [
        "l",
        "d"
      ],
      [
        "m",
        "a"
      ],
      [
        "ha",
        "t"
      ],
      [
        "i",
        "g"
      ],
      [
        "a",
        "m"
      ],
      [
        "l",
        "o"
      ],
      [
        "v",
        "e"
      ],
      [
        "b",
        "ut"
      ],
      [
        "t",
        "im"
      ],
      [
        "n",
        "e"
      ],
      [
        "en",
        "t"
      ],
      [
        "t",
        "h"
      ],
      [
        "en",
        "d"
      ],
      [
        "u",
        "n"
      ],
      [
        "want",
        "ed"
      ],
      [
        "b",
        "a"
      ],
      [
        "d",
        "ay"
      ],
      [
        "v",
        "er"
      ],
      [
        "s",
        "o"
      ],
      [
        "t",
        "hat"
      ],
      [
        "k",
        "ed"
      ],
      [
        "sa",
        "id"
      ],
      [
        "p",
        "p"
      ],
      [
        "l",
        "y"
      ],
      [
        "y",
        "ou"
      ],
      [
        "b",
        "ig"
      ],
      [
        "c",
        "h"
      ],
      [
        "a",
        "l"
      ],
      [
        "f",
        "ri"
      ],
      [
        "fri",
        "end"
      ],
      [
        "o",
        "f"
      ],
      [
        "g",
        "o"
      ],
      [
        "w",
        "e"
      ],
      [
        "w",
        "ent"
      ],
      [
        "om",
        "e"
      ],
      [
        "g",
        "e"
      ],
      [
        "m",
        "om"
      ],
      [
        "ou",
        "ld"
      ],
      [
        "f",
        "or"
      ],
      [
        "n",
        "ot"
      ],
      [
        "d",
        "o"
      ],
      [
        "c",
        "e"
      ],
      [
        "d",
        "e"
      ],
      [
        "b",
        "o"
      ],
      [
        "ha",
        "d"
      ],
      [
        "the",
        "r"
      ],
      [
        "a",
        "s"
      ],
      [
        "a",
        "ll"
      ],
      [
        "ha",
        "pp"
      ],
      [
        "r",
        "o"
      ],
      [
        "ou",
        "n"
      ],
      [
        "ver",
        "y"
      ],
      [
        "s",
        "h"
      ],
      [
        "on",
        "e"
      ],
      [
        "ar",
        "t"
      ],
      [
        "o",
        "k"
      ],
      [
        "he",
        "l"
      ],
      [
        "happ",
        "y"
      ],
      [
        "ou",
        "t"
      ],
      [
        "sa",
        "w"
      ],
      [
        "in",
        "d"
      ],
      [
        "it",
        "t"
      ],
      [
        "hel",
        "p"
      ],
      [
        "r",
        "a"
      ],
      [
        "oun",
        "d"
      ],
      [
        "wa",
        "y"
      ],
      [
        "c",
        "a"
      ],
      [
        "a",
        "d"
      ],
      [
        "r",
        "y"
      ],
      [
        "u",
        "p"
      ],
      [
        "friend",
        "s"
      ],
      [
        "e",
        "s"
      ],
      [
        "f",
        "e"
      ],
      [
        "v",
        "ed"
      ],
      [
        "st",
        "art"
      ],
      [
        "s",
        "p"
      ],
      [
        "s",
        "u"
      ],
      [
        "b",
        "ir"
      ],
      [
        "h",
        "o"
      ],
      [
        "ba",
        "ck"
      ],
      [
        "th",
        "ing"
      ],
      [
        "bir",
        "d"
      ],
      [
        "l",
        "itt"
      ],
      [
        "litt",
        "le"
      ],
      [
        "id",
        "e"
      ],
      [
        "am",
        "e"
      ],
      [
        "start",
        "ed"
      ],
      [
        "g",
        "h"
      ],
      [
        "ne",
        "w"
      ],
      [
        "the",
        "ir"
      ],
      [
        "t",
        "a"
      ],
      [
        "s",
        "ome"
      ],
      [
        "li",
        "ly"
      ],
      [
        "to",
        "m"
      ],
      [
        "ma",
        "ke"
      ],
      [
        "we",
        "re"
      ],
      [
        "t",
        "er"
      ],
      [
        "c",
        "ar"
      ],
      [
        "ha",
        "ve"
      ],
      [
        "to",
        "y"
      ],
      [
        "h",
        "im"
      ],
      [
        "w",
        "he"
      ],
      [
        "d",
        "id"
      ],
      [
        "o",
        "re"
      ],
      [
        "m",
        "e"
      ],
      [
        "se",
        "e"
      ],
      [
        "o",
        "d"
      ],
      [
        "c",
        "at"
      ],
      [
        "c",
        "ame"
      ],
      [
        "c",
        "ould"
      ],
      [
        "t",
        "ri"
      ],
      [
        "f",
        "u"
      ],
      [
        "n",
        "am"
      ],
      [
        "t",
        "re"
      ],
      [
        "r",
        "om"
      ],
      [
        "i",
        "ll"
      ],
      [
        "nam",
        "ed"
      ],
      [
        "de",
        "c"
      ],
      [
        "lo",
        "ved"
      ],
      [
        "i",
        "l"
      ],
      [
        "p",
        "ut"
      ],
      [
        "the",
        "m"
      ],
      [
        "f",
        "ind"
      ],
      [
        "id",
        "ed"
      ],
      [
        "dec",
        "ided"
      ],
      [
        "c",
        "an"
      ],
      [
        "ba",
        "ll"
      ],
      [
        "li",
        "ked"
      ],
      [
        "f",
        "un"
      ],
      [
        "gh",
        "t"
      ],
      [
        "o",
        "ther"
      ],
      [
        "u",
        "m"
      ],
      [
        "m",
        "y"
      ],
      [
        "tri",
        "ed"
      ],
      [
        "w",
        "ould"
      ],
      [
        "do",
        "g"
      ],
      [
        "r",
        "an"
      ],
      [
        "ar",
        "k"
      ],
      [
        "c",
        "o"
      ],
      [
        "b",
        "u"
      ],
      [
        "tim",
        "e"
      ],
      [
        "m",
        "an"
      ],
      [
        "tre",
        "e"
      ],
      [
        "f",
        "rom"
      ],
      [
        "ow",
        "n"
      ],
      [
        "fu",
        "l"
      ],
      [
        "s",
        "to"
      ],
      [
        "to",
        "ge"
      ],
      [
        "toge",
        "ther"
      ],
      [
        "p",
        "e"
      ],
      [
        "g",
        "a"
      ],
      [
        "i",
        "c"
      ],
      [
        "whe",
        "n"
      ],
      [
        "u",
        "se"
      ],
      [
        "the",
        "re"
      ],
      [
        "ge",
        "t"
      ],
      [
        "way",
        "s"
      ],
      [
        "l",
        "u"
      ],
      [
        "o",
        "p"
      ],
      [
        "w",
        "ho"
      ],
      [
        "e",
        "x"
      ],
      [
        "i",
        "ck"
      ],
      [
        "s",
        "ha"
      ],
      [
        "al",
        "ways"
      ],
      [
        "s",
        "ide"
      ],
      [
        "ir",
        "l"
      ],
      [
        "g",
        "r"
      ],
      [
        "g",
        "irl"
      ],
      [
        "u",
        "r"
      ],
      [
        "a",
        "b"
      ],
      [
        "w",
        "hat"
      ],
      [
        "ar",
        "n"
      ],
      [
        "f",
        "ound"
      ],
      [
        "n",
        "ow"
      ],
      [
        "li",
        "ke"
      ],
      [
        "f",
        "a"
      ],
      [
        "p",
        "ark"
      ],
      [
        "le",
        "arn"
      ],
      [
        "to",
        "o"
      ],
      [
        "ma",
        "x"
      ],
      [
        "l",
        "a"
      ],
      [
        "ou",
        "se"
      ],
      [
        "ta",
        "ke"
      ],
      [
        "a",
        "ch"
      ],
      [
        "su",
        "e"
      ],
      [
        "w",
        "or"
      ],
      [
        "lo",
        "ok"
      ],
      [
        "p",
        "a"
      ],
      [
        "h",
        "ome"
      ],
      [
        "go",
        "od"
      ],
      [
        "play",
        "ed"
      ],
      [
        "h",
        "ow"
      ],
      [
        "e",
        "p"
      ],
      [
        "c",
        "he"
      ],
      [
        "thing",
        "s"
      ],
      [
        "m",
        "i"
      ],
      [
        "bo",
        "y"
      ],
      [
        "sh",
        "ow"
      ],
      [
        "i",
        "f"
      ],
      [
        "i",
        "ce"
      ],
      [
        "on",
        "g"
      ],
      [
        "is",
        "t"
      ],
      [
        "e",
        "very"
      ],
      [
        "t",
        "e"
      ],
      [
        "wa",
        "l"
      ],
      [
        "m",
        "ore"
      ],
      [
        "b",
        "y"
      ],
      [
        "ar",
        "d"
      ],
      [
        "d",
        "own"
      ],
      [
        "r",
        "u"
      ],
      [
        "ig",
        "h"
      ],
      [
        "g",
        "ot"
      ],
      [
        "n",
        "o"
      ],
      [
        "le",
        "t"
      ],
      [
        "as",
        "ked"
      ],
      [
        "re",
        "t"
      ],
      [
        "sa",
        "m"
      ],
      [
        "ca",
        "re"
      ],
      [
        "f",
        "o"
      ],
      [
        "j",
        "o"
      ],
      [
        "s",
        "s"
      ],
      [
        "r",
        "ed"
      ],
      [
        "ou",
        "ght"
      ],
      [
        "it",
        "ed"
      ],
      [
        "ma",
        "ll"
      ],
      [
        "t",
        "ry"
      ],
      [
        "i",
        "e"
      ],
      [
        "p",
        "r"
      ],
      [
        "s",
        "mall"
      ],
      [
        "sp",
        "ot"
      ],
      [
        "ne",
        "ed"
      ],
      [
        "ar",
        "ound"
      ],
      [
        "the",
        "n"
      ],
      [
        "q",
        "u"
      ],
      [
        "h",
        "ouse"
      ],
      [
        "u",
        "s"
      ],
      [
        "ca",
        "use"
      ],
      [
        "some",
        "thing"
      ],
      [
        "e",
        "at"
      ],
      [
        "be",
        "cause"
      ],
      [
        "to",
        "ok"
      ],
      [
        "l",
        "t"
      ],
      [
        "k",
        "new"
      ],
      [
        "play",
        "ing"
      ],
      [
        "toy",
        "s"
      ],
      [
        "a",
        "re"
      ],
      [
        "o",
        "ked"
      ],
      [
        "c",
        "lo"
      ],
      [
        "i",
        "ve"
      ],
      [
        "ma",
        "de"
      ],
      [
        "learn",
        "ed"
      ],
      [
        "sa",
        "d"
      ],
      [
        "um",
        "p"
      ],
      [
        "b",
        "en"
      ],
      [
        "a",
        "way"
      ],
      [
        "lo",
        "oked"
      ],
      [
        "u",
        "re"
      ],
      [
        "l",
        "ist"
      ],
      [
        "list",
        "en"
      ],
      [
        "c",
        "l"
      ],
      [
        "e",
        "l"
      ],
      [
        "is",
        "h"
      ],
      [
        "you",
        "r"
      ],
      [
        "sha",
        "re"
      ],
      [
        "th",
        "an"
      ],
      [
        "ab",
        "out"
      ],
      [
        "ex",
        "c"
      ],
      [
        "u",
        "g"
      ],
      [
        "d",
        "er"
      ],
      [
        "u",
        "st"
      ],
      [
        "bo",
        "x"
      ],
      [
        "d",
        "ad"
      ],
      [
        "l",
        "ow"
      ],
      [
        "m",
        "o"
      ],
      [
        "c",
        "ome"
      ],
      [
        "s",
        "un"
      ],
      [
        "k",
        "ing"
      ],
      [
        "k",
        "now"
      ],
      [
        "to",
        "ld"
      ],
      [
        "n",
        "y"
      ],
      [
        "b",
        "le"
      ],
      [
        "p",
        "u"
      ],
      [
        "le",
        "a"
      ],
      [
        "p",
        "ret"
      ],
      [
        "exc",
        "ited"
      ],
      [
        "ro",
        "om"
      ],
      [
        "s",
        "car"
      ],
      [
        "j",
        "ump"
      ],
      [
        "c",
        "le"
      ],
      [
        "b",
        "ot"
      ],
      [
        "th",
        "ought"
      ],
      [
        "w",
        "h"
      ],
      [
        "r",
        "un"
      ],
      [
        "it",
        "e"
      ],
      [
        "fe",
        "lt"
      ],
      [
        "pl",
        "a"
      ],
      [
        "out",
        "side"
      ],
      [
        "n",
        "a"
      ],
      [
        "pp",
        "ed"
      ],
      [
        "c",
        "t"
      ],
      [
        "g",
        "re"
      ],
      [
        "t",
        "his"
      ],
      [
        "is",
        "e"
      ],
      [
        "b",
        "ed"
      ],
      [
        "wa",
        "ter"
      ],
      [
        "s",
        "w"
      ],
      [
        "it",
        "s"
      ],
      [
        "c",
        "y"
      ],
      [
        "be",
        "st"
      ],
      [
        "re",
        "ad"
      ],
      [
        "ga",
        "in"
      ],
      [
        "w",
        "ill"
      ],
      [
        "ga",
        "ve"
      ],
      [
        "or",
        "t"
      ],
      [
        "s",
        "ay"
      ],
      [
        "sp",
        "e"
      ],
      [
        "g",
        "ive"
      ],
      [
        "p",
        "o"
      ],
      [
        "at",
        "e"
      ],
      [
        "a",
        "gain"
      ],
      [
        "p",
        "ick"
      ],
      [
        "ll",
        "y"
      ],
      [
        "v",
        "en"
      ],
      [
        "t",
        "y"
      ],
      [
        "k",
        "ind"
      ],
      [
        "f",
        "ly"
      ],
      [
        "p",
        "er"
      ],
      [
        "e",
        "ach"
      ],
      [
        "did",
        "n"
      ],
      [
        "scar",
        "ed"
      ],
      [
        "b",
        "er"
      ],
      [
        "care",
        "ful"
      ],
      [
        "s",
        "m"
      ],
      [
        "mi",
        "a"
      ],
      [
        "n",
        "ice"
      ],
      [
        "wa",
        "t"
      ],
      [
        "ro",
        "ck"
      ],
      [
        "c",
        "i"
      ],
      [
        "im",
        "p"
      ],
      [
        "ne",
        "ver"
      ],
      [
        "lu",
        "cy"
      ],
      [
        "man",
        "y"
      ],
      [
        "op",
        "en"
      ],
      [
        "in",
        "k"
      ],
      [
        "f",
        "ore"
      ],
      [
        "bot",
        "h"
      ],
      [
        "f",
        "t"
      ],
      [
        "ou",
        "s"
      ],
      [
        "ur",
        "n"
      ],
      [
        "in",
        "to"
      ],
      [
        "fe",
        "el"
      ],
      [
        "il",
        "ed"
      ],
      [
        "b",
        "r"
      ],
      [
        "j",
        "ust"
      ],
      [
        "l",
        "ong"
      ],
      [
        "ra",
        "b"
      ],
      [
        "d",
        "on"
      ],
      [
        "l",
        "ot"
      ],
      [
        "he",
        "d"
      ],
      [
        "an",
        "im"
      ],
      [
        "anim",
        "al"
      ],
      [
        "ou",
        "d"
      ],
      [
        "st",
        "ay"
      ],
      [
        "f",
        "le"
      ],
      [
        "y",
        "es"
      ],
      [
        "o",
        "ld"
      ],
      [
        "u",
        "ch"
      ],
      [
        "e",
        "ven"
      ],
      [
        "ke",
        "ep"
      ],
      [
        "pla",
        "ce"
      ],
      [
        "ou",
        "r"
      ],
      [
        "whe",
        "re"
      ],
      [
        "igh",
        "t"
      ],
      [
        "low",
        "er"
      ],
      [
        "sm",
        "iled"
      ],
      [
        "t",
        "al"
      ],
      [
        "r",
        "d"
      ],
      [
        "f",
        "lower"
      ],
      [
        "of",
        "f"
      ],
      [
        "us",
        "ed"
      ],
      [
        "e",
        "t"
      ],
      [
        "l",
        "f"
      ],
      [
        "w",
        "o"
      ],
      [
        "f",
        "i"
      ],
      [
        "i",
        "ly"
      ],
      [
        "fa",
        "st"
      ],
      [
        "h",
        "and"
      ],
      [
        "g",
        "an"
      ],
      [
        "be",
        "came"
      ],
      [
        "in",
        "t"
      ],
      [
        "i",
        "on"
      ],
      [
        "be",
        "ar"
      ],
      [
        "cl",
        "im"
      ],
      [
        "o",
        "ver"
      ],
      [
        "s",
        "k"
      ],
      [
        "in",
        "y"
      ],
      [
        "is",
        "ed"
      ],
      [
        "wal",
        "ked"
      ],
      [
        "cle",
        "an"
      ],
      [
        "animal",
        "s"
      ],
      [
        "f",
        "in"
      ],
      [
        "in",
        "side"
      ],
      [
        "imp",
        "ort"
      ],
      [
        "pe",
        "op"
      ],
      [
        "peop",
        "le"
      ],
      [
        "t",
        "urn"
      ],
      [
        "fo",
        "od"
      ],
      [
        "gr",
        "ound"
      ],
      [
        "ke",
        "t"
      ],
      [
        "be",
        "t"
      ],
      [
        "re",
        "n"
      ],
      [
        "import",
        "ant"
      ],
      [
        "un",
        "der"
      ],
      [
        "ab",
        "le"
      ],
      [
        "ne",
        "x"
      ],
      [
        "wa",
        "it"
      ],
      [
        "go",
        "ing"
      ],
      [
        "fle",
        "w"
      ],
      [
        "i",
        "le"
      ],
      [
        "li",
        "ved"
      ],
      [
        "ci",
        "al"
      ],
      [
        "spe",
        "cial"
      ],
      [
        "d",
        "y"
      ],
      [
        "un",
        "t"
      ],
      [
        "f",
        "ish"
      ],
      [
        "an",
        "y"
      ],
      [
        "as",
        "s"
      ],
      [
        "wat",
        "ch"
      ],
      [
        "che",
        "d"
      ],
      [
        "su",
        "r"
      ],
      [
        "bo",
        "b"
      ],
      [
        "bet",
        "ter"
      ],
      [
        "be",
        "gan"
      ],
      [
        "in",
        "e"
      ],
      [
        "ra",
        "in"
      ],
      [
        "every",
        "one"
      ],
      [
        "c",
        "re"
      ],
      [
        "d",
        "an"
      ],
      [
        "c",
        "om"
      ],
      [
        "d",
        "re"
      ],
      [
        "pret",
        "ty"
      ],
      [
        "i",
        "ld"
      ],
      [
        "ne",
        "ar"
      ],
      [
        "c",
        "ha"
      ],
      [
        "bu",
        "g"
      ],
      [
        "show",
        "ed"
      ],
      [
        "s",
        "qu"
      ],
      [
        "ou",
        "gh"
      ],
      [
        "me",
        "m"
      ],
      [
        "st",
        "ick"
      ],
      [
        "o",
        "l"
      ],
      [
        "g",
        "ed"
      ],
      [
        "a",
        "f"
      ],
      [
        "co",
        "l"
      ],
      [
        "v",
        "ing"
      ],
      [
        "f",
        "am"
      ],
      [
        "unt",
        "il"
      ],
      [
        "f",
        "ar"
      ],
      [
        "h",
        "igh"
      ],
      [
        "wal",
        "k"
      ],
      [
        "te",
        "ll"
      ],
      [
        "sto",
        "re"
      ],
      [
        "p",
        "ic"
      ],
      [
        "nex",
        "t"
      ],
      [
        "than",
        "k"
      ],
      [
        "bo",
        "ok"
      ],
      [
        "to",
        "w"
      ],
      [
        "mom",
        "my"
      ],
      [
        "u",
        "ck"
      ],
      [
        "c",
        "on"
      ],
      [
        "s",
        "er"
      ],
      [
        "sur",
        "pr"
      ],
      [
        "t",
        "ru"
      ],
      [
        "mem",
        "ber"
      ],
      [
        "re",
        "member"
      ],
      [
        "h",
        "ug"
      ],
      [
        "p",
        "rom"
      ],
      [
        "s",
        "or"
      ],
      [
        "ha",
        "rd"
      ],
      [
        "sw",
        "ing"
      ],
      [
        "st",
        "r"
      ],
      [
        "l",
        "ad"
      ],
      [
        "sh",
        "ould"
      ],
      [
        "do",
        "or"
      ],
      [
        "lu",
        "e"
      ],
      [
        "am",
        "y"
      ],
      [
        "sa",
        "fe"
      ],
      [
        "to",
        "p"
      ],
      [
        "cat",
        "ch"
      ],
      [
        "lea",
        "ve"
      ],
      [
        "s",
        "l"
      ],
      [
        "re",
        "a"
      ],
      [
        "fam",
        "ily"
      ],
      [
        "ca",
        "ke"
      ],
      [
        "try",
        "ing"
      ],
      [
        "clo",
        "se"
      ],
      [
        "g",
        "ard"
      ],
      [
        "gard",
        "en"
      ],
      [
        "t",
        "ure"
      ],
      [
        "other",
        "s"
      ],
      [
        "st",
        "ill"
      ],
      [
        "ri",
        "ght"
      ],
      [
        "c",
        "u"
      ],
      [
        "ll",
        "ow"
      ],
      [
        "could",
        "n"
      ],
      [
        "sto",
        "ry"
      ],
      [
        "b",
        "it"
      ],
      [
        "b",
        "ra"
      ],
      [
        "an",
        "g"
      ],
      [
        "ar",
        "a"
      ],
      [
        "pic",
        "ture"
      ],
      [
        "clim",
        "b"
      ],
      [
        "v",
        "ent"
      ],
      [
        "r",
        "m"
      ],
      [
        "ma",
        "g"
      ],
      [
        "sor",
        "ry"
      ],
      [
        "w",
        "ind"
      ],
      [
        "be",
        "a"
      ],
      [
        "k",
        "id"
      ],
      [
        "ra",
        "w"
      ],
      [
        "jo",
        "y"
      ],
      [
        "b",
        "lue"
      ],
      [
        "sh",
        "iny"
      ],
      [
        "ex",
        "pl"
      ],
      [
        "sa",
        "t"
      ],
      [
        "p",
        "t"
      ],
      [
        "y",
        "e"
      ],
      [
        "all",
        "y"
      ],
      [
        "se",
        "lf"
      ],
      [
        "jump",
        "ed"
      ],
      [
        "wor",
        "k"
      ],
      [
        "he",
        "ard"
      ],
      [
        "m",
        "uch"
      ],
      [
        "f",
        "lo"
      ],
      [
        "by",
        "e"
      ],
      [
        "pret",
        "end"
      ],
      [
        "ta",
        "ble"
      ],
      [
        "ren",
        "t"
      ],
      [
        "b",
        "ro"
      ],
      [
        "f",
        "f"
      ],
      [
        "lot",
        "s"
      ],
      [
        "s",
        "it"
      ],
      [
        "an",
        "na"
      ],
      [
        "le",
        "ep"
      ],
      [
        "a",
        "pp"
      ],
      [
        "p",
        "art"
      ],
      [
        "kid",
        "s"
      ],
      [
        "su",
        "re"
      ],
      [
        "as",
        "k"
      ],
      [
        "good",
        "bye"
      ],
      [
        "lo",
        "ck"
      ],
      [
        "j",
        "a"
      ],
      [
        "c",
        "all"
      ],
      [
        "al",
        "so"
      ],
      [
        "lo",
        "ve"
      ],
      [
        "k",
        "itt"
      ],
      [
        "se",
        "t"
      ],
      [
        "mag",
        "ic"
      ],
      [
        "g",
        "er"
      ],
      [
        "sk",
        "y"
      ],
      [
        "n",
        "ing"
      ],
      [
        "t",
        "in"
      ],
      [
        "read",
        "y"
      ],
      [
        "say",
        "s"
      ],
      [
        "re",
        "l"
      ],
      [
        "sl",
        "ide"
      ],
      [
        "be",
        "ing"
      ],
      [
        "pick",
        "ed"
      ],
[...]
